{"!": 34, "!!": 2269, "!!!": 7885, "!!!!": 23568, "!![]": 6742, "!\"": 8997, "!'": 43647, "!)": 8083, "!),": 29674, "!).": 22115, "!+[]": 15342, "!+[]+(!![]": 20934, "!+[]+(!![])": 22553, "!,": 24934, "!--": 28931, "!.": 35580, "!:": 42732, "!?": 49485, "![": 42788, "!âĢĻ": 32683, "!âĢĿ": 6493, "\"": 35, "\"\"": 24076, "\")": 8095, "\"),": 22223, "\").": 18633, "\");": 19513, "\",": 2249, "\",\"": 2696, "\"-": 43817, "\".": 1865, "\"...": 48159, "\"/": 6052, "\"/>": 9116, "\"/><": 13562, "\":": 1562, "\":\"": 2233, "\":\"\",\"": 5835, "\":-": 41085, "\":{\"": 25346, "\";": 8649, "\">": 2796, "\"><": 7843, "\"></": 13772, "\"?": 33024, "\"]": 24251, "\"]=>": 4738, "\"}": 11413, "\"}\"": 17968, "\"},": 46100, "#": 36, "##": 15801, "###": 44914, "#:": 38997, "$": 37, "$$": 29251, "$(": 46618, "${": 39705, "%": 38, "%\"": 49625, "%)": 6979, "%),": 21195, "%).": 23921, "%,": 9158, "%-": 40198, "%.": 8494, "%;": 20356, "&": 39, "&&": 29167, "'": 40, "'\"": 35201, "'\".": 47461, "''": 11477, "')": 12660, "').": 42945, "');": 23259, "',": 4172, "'.": 10435, "':": 15059, "';": 22744, "'>": 27880, "'><": 44858, "'D": 37633, "'M": 38531, "'Re": 50210, "'S": 16421, "'T": 23265, "']": 27917, "'d": 4347, "'ll": 2628, "'m": 2034, "'re": 1796, "'s": 508, "'t": 825, "'ve": 2501, "(": 41, "(\"": 7907, "($": 16740, "(&": 32014, "('": 9771, "((": 26894, "()": 3732, "())": 35888, "());": 41541, "(),": 18135, "().": 17646, "():": 35557, "();": 10512, "(){": 45106, "(*": 49991, "(+": 35682, "(-": 42881, "([": 30818, "(\\": 27733, "({": 29802, ")": 42, ")!": 37778, ")\"": 10660, ")\".": 31468, ")$": 43781, ")(": 7215, "))": 5930, ")))": 31700, ")),": 47128, ")).": 37860, "));": 23071, ")*": 34067, ")+": 25906, ")+(": 20331, ")+(!+[]+(!![])": 27626, ")+(!+[]+(!![])+!![]+!![]+!![]+!![]": 42532, "),": 845, ")-": 14023, ").": 710, ").\"": 6616, ").âĢĿ": 46544, ")/": 19377, "):": 2728, ");": 2028, ");+": 31495, ");\\": 29398, ")=": 39589, ")?": 21338, ")[": 14438, ")\\": 28302, ")]": 14826, "){": 18635, ")|": 23483, ")}": 37737, ")âĢ¦": 39170, ")âĢĶ": 38604, ")âĢĿ": 42887, "*": 43, "*)": 34829, "**": 4409, "***": 13540, "*,": 32044, "*.": 32206, "*/": 46858, "+": 44, "+!![]": 8257, "+!![]+!![]": 10420, "+!![]+!![]+!![]+!![]": 24671, "+!+[]": 46274, "+(": 10276, "+(!![]": 19754, "+)": 42756, "++": 7020, "++)": 41643, "+++": 36777, "+,": 26928, "+.": 33096, "+[]": 11951, ",": 45, ",\"": 1119, ",'": 12790, ",''": 44030, ",,": 19312, ",-": 21407, ",.": 22962, ",...": 29277, ",[": 37787, ",\\": 23689, ",âĢ¦": 39027, ",âĢĻ": 10532, ",âĢĻâĢĿ": 44240, ",âĢľ": 22704, ",âĢĿ": 1035, "-": 46, "-$": 25836, "-%": 48991, "-(": 28327, "-)": 16889, "-+": 11980, "-+-+": 13007, "-+-+-+-+": 21754, "-+-+-+-+-+-+-+-+": 37148, "-,": 18601, "--": 2573, "---": 14047, "----": 31361, "-->": 49248, "-.": 24599, "->": 5605, ".": 47, ".\"": 1200, ".'": 7951, ".'\"": 41813, ".''": 41860, ".(": 27845, ".)": 2565, ".),": 14450, ".).": 12538, ".*": 24134, ".,": 1407, ".-": 8744, ".--": 34156, ".-.-": 49767, "..": 592, "...": 928, "...\"": 20408, "...)": 25451, "....": 7250, ".....": 26698, "...]": 16042, "../": 16681, "./": 21538, ".:": 9859, ".;": 8822, ".<": 46668, ".</": 17276, ".[": 8755, ".\\": 30051, ".]": 15444, "._": 18384, ".Â»": 39678, ".âĢ¦": 45579, ".âĢĶ": 28365, ".âĢĻ": 6725, ".âĢĻâĢĿ": 32157, ".âĢľ": 9524, ".âĢĿ": 847, ".âĢĿ)": 45492, ".âĢĿâĢľ": 47213, "/": 48, "/\"": 13878, "/\">": 24392, "/#": 24117, "/$": 45302, "/)": 42784, "/*": 15143, "/*\"": 44848, "/+": 48457, "/,": 40838, "/-": 9853, "/.": 12190, "//": 645, "///": 38169, "/>": 23477, "/?": 12887, "/]": 19896, "/_": 18452, "/__": 39166, "/{": 31629, "/âĢĭ": 47121, "0": 49, "00": 439, "000": 1005, "0000": 10917, "00000": 17842, "00000578": 28995, "0001": 28253, "000578": 42621, "001": 9536, "002": 19043, "003": 16127, "004": 22927, "005": 21938, "006": 25739, "007": 25855, "008": 27701, "009": 31044, "01": 2160, "010": 23159, "011": 25452, "012": 33690, "013": 34828, "014": 36207, "015": 37465, "016": 37813, "017": 40536, "018": 42172, "019": 47491, "02": 2651, "020": 29900, "021": 41982, "022": 43224, "023": 47417, "024": 46634, "025": 44065, "03": 2182, "030": 35714, "038": 44300, "039": 48242, "04": 2218, "040": 38676, "05": 2061, "050": 38805, "06": 2544, "060": 38277, "07": 2334, "070": 44750, "08": 2569, "080": 39842, "09": 2588, "1": 50, "10": 736, "100": 2433, "1000": 9323, "1001": 46560, "1002": 37384, "1007": 30548, "101": 10020, "1010": 36051, "1011": 36432, "1016": 16256, "102": 13277, "1024": 9068, "103": 13504, "1038": 30210, "104": 12976, "105": 12551, "106": 13223, "107": 14230, "108": 13011, "1080": 20155, "109": 14173, "11": 979, "110": 8405, "1100": 26503, "111": 13069, "1111": 29257, "112": 11373, "113": 14421, "114": 13820, "115": 13153, "1157": 46791, "116": 15739, "117": 15358, "118": 14038, "119": 13907, "12": 929, "120": 6871, "1200": 13092, "121": 17090, "1213": 42789, "122": 15239, "123": 10289, "123456": 43839, "124": 14531, "125": 9422, "126": 16308, "127": 15897, "128": 12877, "1280": 29365, "129": 14557, "13": 1234, "130": 10892, "1300": 41357, "131": 16959, "132": 18207, "133": 17234, "134": 17179, "135": 13860, "136": 17597, "137": 18627, "1371": 42269, "138": 10951, "139": 17570, "14": 1207, "140": 11488, "1400": 42654, "141": 20164, "1415": 45170, "142": 20285, "143": 18204, "144": 16521, "1440": 49588, "145": 16298, "146": 18402, "147": 17795, "148": 15517, "149": 15836, "15": 1144, "150": 4007, "1500": 24770, "151": 21283, "152": 19544, "153": 18550, "1536": 35655, "154": 18737, "155": 15950, "156": 19624, "157": 13798, "158": 15295, "159": 15138, "1595": 41137, "16": 1208, "160": 10175, "1600": 24307, "161": 20954, "1617": 48292, "162": 21996, "163": 19595, "164": 19915, "165": 17462, "166": 17847, "167": 20501, "168": 16359, "169": 15037, "17": 1307, "170": 14633, "171": 21121, "172": 21779, "173": 21168, "174": 20189, "175": 16733, "176": 20486, "177": 18291, "178": 19851, "179": 17859, "18": 1205, "180": 10523, "1800": 34929, "181": 23245, "1819": 47864, "182": 22653, "183": 20619, "184": 19928, "185": 15360, "186": 14722, "187": 21387, "188": 20509, "189": 19032, "19": 708, "190": 14861, "1900": 33603, "191": 22374, "1918": 49936, "192": 18396, "1920": 24565, "193": 19860, "1930": 47100, "1939": 48037, "194": 20587, "1940": 38933, "1944": 48150, "1945": 38374, "1947": 48310, "1948": 43822, "1949": 46308, "195": 19077, "1950": 35808, "1951": 46422, "1952": 48169, "1953": 46234, "1954": 46306, "1955": 45043, "1956": 44967, "1957": 41419, "1958": 40747, "1959": 41495, "196": 18688, "1960": 29840, "1961": 38259, "1962": 36216, "1963": 35523, "1964": 34388, "1965": 34072, "1966": 34975, "1967": 30353, "1968": 30123, "1969": 31429, "197": 17606, "1970": 23680, "1971": 32314, "1972": 28855, "1973": 30652, "1974": 28651, "1975": 28564, "1976": 29550, "1977": 29397, "1978": 29532, "1979": 28211, "198": 20280, "1980": 21939, "1981": 28006, "1982": 26670, "1983": 26076, "1984": 24497, "1985": 24585, "1986": 25305, "1987": 23972, "1988": 23261, "1989": 22135, "199": 4121, "1990": 16903, "1991": 20943, "1992": 19510, "1993": 20369, "1994": 19621, "1995": 18278, "1996": 18159, "1997": 17682, "1998": 16571, "1999": 14303, "2": 51, "20": 350, "200": 1355, "2000": 7720, "2001": 12722, "2002": 12751, "2003": 11570, "2004": 10538, "2005": 9465, "2006": 9364, "2007": 8656, "2008": 7915, "2009": 7568, "201": 814, "2010": 6518, "2011": 5971, "2012": 5321, "2013": 4557, "2014": 4324, "20140": 47469, "2015": 3718, "2016": 3246, "20160": 42446, "2017": 3016, "20170": 47073, "2018": 3141, "20180": 42940, "2019": 2288, "202": 14699, "2020": 2176, "20200": 39367, "2021": 28625, "2022": 48789, "203": 18662, "204": 18593, "2048": 37212, "205": 18210, "206": 19858, "207": 20664, "208": 19087, "209": 18494, "21": 2060, "210": 15330, "2100": 45868, "211": 22266, "212": 20536, "213": 23128, "214": 22461, "215": 20857, "216": 24111, "217": 25301, "218": 25875, "219": 26909, "22": 1608, "220": 13726, "221": 24284, "222": 21638, "223": 17775, "224": 19268, "225": 12185, "226": 21568, "227": 19669, "228": 20886, "229": 22193, "23": 1715, "230": 14619, "231": 23337, "232": 23830, "233": 22177, "234": 21795, "235": 16829, "236": 18248, "237": 22958, "238": 23112, "239": 22255, "24": 1409, "240": 10721, "2400": 33550, "241": 26327, "242": 22569, "243": 23789, "244": 22326, "245": 21560, "246": 25299, "247": 21198, "248": 21229, "249": 21935, "25": 1290, "250": 5231, "2500": 41114, "251": 24367, "252": 14114, "2525": 32091, "25252": 22799, "253": 23351, "254": 22289, "255": 15983, "256": 16198, "257": 27585, "258": 24281, "259": 27253, "26": 1801, "260": 18875, "261": 30224, "262": 27942, "263": 22521, "264": 19220, "265": 22592, "266": 25071, "267": 25088, "268": 26201, "269": 26847, "27": 1862, "270": 18105, "271": 32956, "272": 30128, "273": 29661, "274": 30330, "275": 20739, "276": 28871, "277": 27470, "278": 26876, "279": 27682, "28": 1806, "280": 14515, "281": 28394, "282": 31975, "283": 26733, "284": 23828, "285": 25194, "286": 28906, "287": 29256, "288": 23622, "289": 28378, "29": 1958, "290": 20949, "291": 33334, "292": 33133, "293": 30622, "294": 30112, "295": 25136, "296": 29436, "297": 26534, "298": 29129, "299": 23089, "3": 52, "30": 1126, "300": 2919, "3000": 27736, "301": 22762, "302": 26388, "303": 20338, "304": 22868, "305": 20659, "306": 18315, "307": 25235, "308": 24039, "309": 24588, "31": 2932, "310": 21579, "311": 32448, "312": 26469, "313": 29913, "314": 34526, "315": 27677, "316": 31187, "317": 35465, "318": 34552, "319": 36308, "32": 2415, "320": 12335, "321": 34442, "322": 36077, "323": 36066, "324": 34941, "325": 29048, "326": 37864, "327": 37597, "328": 37019, "329": 38815, "33": 1935, "330": 21075, "331": 17260, "332": 32616, "333": 22619, "334": 27441, "335": 28607, "336": 16974, "337": 28169, "338": 21418, "339": 30071, "3390": 38184, "34": 2301, "340": 23474, "341": 34519, "342": 34215, "343": 31936, "344": 30046, "345": 27287, "346": 33907, "347": 32543, "348": 27186, "349": 28257, "35": 1539, "350": 10924, "351": 33051, "352": 27197, "353": 31935, "354": 30748, "355": 25389, "356": 29677, "357": 26776, "358": 30102, "359": 29855, "36": 2481, "360": 12339, "361": 35087, "362": 34352, "363": 35779, "364": 41004, "365": 20208, "366": 31982, "367": 28635, "368": 34769, "369": 30734, "37": 2634, "370": 22955, "371": 36339, "372": 34914, "373": 29772, "374": 34643, "375": 21511, "376": 32697, "377": 31800, "378": 30747, "379": 31948, "38": 2306, "380": 19475, "381": 31193, "382": 34827, "383": 34310, "384": 26892, "385": 19533, "386": 25878, "387": 31671, "388": 31692, "389": 31275, "39": 2566, "390": 23849, "391": 38812, "392": 37165, "393": 32011, "394": 32941, "395": 30757, "396": 33886, "397": 33084, "398": 31213, "399": 27289, "4": 53, "40": 1336, "400": 5473, "4000": 36153, "401": 24659, "402": 29262, "403": 29434, "404": 18273, "405": 22365, "406": 29470, "407": 28392, "408": 26232, "409": 28718, "41": 3657, "410": 27496, "411": 37722, "412": 36994, "413": 37049, "414": 32194, "415": 28793, "416": 35088, "417": 28878, "418": 39946, "419": 41029, "42": 3491, "420": 17729, "421": 44312, "422": 28356, "423": 28753, "424": 39135, "425": 28614, "426": 39440, "427": 26294, "428": 41661, "429": 41658, "43": 3574, "430": 21013, "431": 41691, "432": 33402, "433": 40766, "434": 47372, "435": 24404, "436": 45737, "437": 46736, "438": 40092, "439": 48555, "44": 2508, "440": 20822, "441": 40486, "44138": 37975, "442": 38656, "443": 32633, "444": 30167, "445": 40797, "446": 30380, "447": 36755, "448": 43448, "449": 34043, "45": 2022, "450": 10909, "451": 33828, "452": 38547, "453": 35908, "454": 33749, "455": 29733, "456": 19641, "457": 34668, "458": 32966, "459": 33780, "46": 3216, "460": 26810, "461": 41448, "462": 43849, "463": 43176, "464": 44386, "465": 34853, "466": 39856, "467": 37313, "468": 29385, "469": 36773, "47": 2742, "470": 22506, "471": 26660, "472": 38364, "473": 39985, "474": 36510, "475": 32482, "476": 36348, "477": 37348, "478": 47698, "479": 32083, "48": 2077, "480": 15173, "481": 40840, "482": 42022, "483": 38132, "484": 37625, "485": 30940, "486": 35726, "487": 27604, "488": 34426, "489": 36088, "49": 2764, "490": 32195, "491": 45368, "492": 45133, "493": 44792, "494": 42581, "495": 31731, "496": 39325, "497": 39374, "498": 37845, "499": 28582, "5": 54, "50": 876, "500": 3887, "5000": 26351, "501": 29366, "502": 35460, "503": 26879, "504": 30809, "505": 28715, "506": 30058, "507": 32027, "508": 31356, "509": 27702, "51": 4403, "510": 28088, "511": 43392, "512": 18839, "513": 42923, "514": 42230, "515": 41672, "516": 33881, "517": 42980, "518": 40665, "52": 4224, "520": 28560, "521": 39045, "522": 48268, "524": 48139, "525": 33810, "528": 49244, "53": 4201, "530": 35314, "533": 37781, "534": 45206, "535": 45906, "536": 45244, "537": 45639, "538": 50052, "54": 4231, "540": 27054, "545": 48909, "548": 28220, "55": 2683, "550": 18864, "551": 44035, "552": 44870, "553": 49466, "554": 47008, "555": 34301, "556": 44708, "557": 39984, "558": 43628, "559": 40203, "56": 3910, "560": 24469, "561": 49952, "562": 46942, "563": 42387, "564": 39663, "565": 50078, "567": 49353, "568": 46794, "57": 3176, "570": 28548, "571": 47637, "572": 48393, "575": 37839, "576": 24851, "577": 46157, "578": 15878, "579": 45571, "58": 3886, "580": 21164, "584": 49543, "585": 38696, "586": 48835, "588": 47278, "59": 3504, "590": 37383, "595": 41726, "597": 48302, "598": 43926, "599": 38107, "6": 55, "60": 1471, "600": 5383, "6000": 42785, "601": 28293, "602": 37258, "603": 32292, "604": 33564, "605": 30091, "606": 31644, "607": 30119, "608": 29744, "609": 31340, "61": 5228, "610": 29049, "612": 43537, "614": 48641, "615": 38974, "616": 47773, "617": 41715, "618": 47374, "62": 4973, "620": 22503, "624": 39495, "625": 26627, "626": 48288, "628": 46383, "63": 4833, "630": 26009, "634": 12967, "635": 44024, "636": 49392, "637": 49014, "64": 1877, "640": 11879, "641": 35215, "642": 37559, "643": 33040, "644": 24135, "645": 32996, "646": 33270, "647": 31316, "648": 31746, "649": 33726, "65": 2304, "650": 16395, "651": 41340, "652": 39176, "653": 38537, "654": 40296, "655": 31285, "656": 37047, "657": 38477, "658": 39345, "659": 33494, "66": 3529, "660": 34050, "661": 49395, "662": 46533, "663": 49965, "666": 30853, "667": 34952, "67": 3040, "670": 40554, "671": 43654, "672": 43549, "674": 43236, "675": 21043, "676": 40016, "677": 39969, "678": 47533, "679": 30666, "68": 2181, "680": 30535, "681": 42350, "682": 38396, "683": 23227, "684": 39786, "685": 40088, "686": 33048, "687": 39546, "688": 37031, "689": 38404, "69": 3322, "690": 45517, "691": 46606, "692": 36055, "693": 45695, "694": 49265, "695": 44924, "696": 28436, "697": 44229, "698": 41995, "699": 42999, "7": 56, "70": 1735, "700": 8591, "701": 31032, "702": 35618, "703": 39456, "704": 32991, "705": 29944, "706": 32915, "707": 29150, "708": 28032, "709": 30125, "71": 4904, "710": 37179, "72": 4594, "720": 15703, "725": 45862, "728": 20751, "73": 4837, "730": 42592, "734": 31050, "735": 44816, "74": 4726, "740": 37482, "75": 2243, "750": 13451, "751": 45794, "752": 45874, "753": 48614, "754": 43006, "755": 36751, "756": 43749, "757": 40268, "758": 40064, "759": 30116, "76": 4394, "760": 35065, "768": 8800, "77": 3345, "770": 36304, "771": 45762, "773": 49157, "777": 34183, "779": 48665, "78": 2410, "780": 29404, "782": 43069, "784": 43858, "785": 41322, "786": 44576, "787": 38919, "788": 37426, "789": 24132, "79": 3685, "790": 49717, "792": 49972, "796": 48475, "797": 46365, "798": 47110, "799": 44900, "8": 57, "80": 1487, "800": 5437, "8000": 46676, "801": 32246, "802": 35202, "803": 45673, "804": 36039, "805": 28896, "806": 27576, "807": 33170, "808": 27719, "809": 33034, "81": 5085, "810": 36868, "817": 45947, "818": 45386, "82": 4873, "820": 44889, "83": 4732, "830": 42649, "833": 48085, "84": 4452, "840": 35953, "844": 45481, "85": 3378, "850": 21455, "855": 25133, "858": 49693, "859": 47216, "86": 3760, "860": 44835, "866": 42475, "87": 4104, "870": 47714, "875": 49339, "877": 35542, "88": 2993, "880": 41649, "887": 50149, "888": 25213, "889": 49483, "89": 3579, "898": 48533, "9": 58, "90": 1826, "900": 10199, "901": 36345, "902": 43573, "903": 42759, "904": 42165, "905": 32854, "906": 38633, "907": 38020, "908": 25443, "909": 29123, "91": 6574, "910": 45282, "911": 41527, "92": 6053, "920": 42043, "93": 6101, "94": 6381, "940": 43309, "95": 2929, "950": 33920, "951": 49181, "956": 46003, "959": 47032, "96": 4666, "960": 22525, "962": 39036, "964": 44980, "97": 6041, "970": 40738, "978": 35261, "98": 5752, "980": 40937, "99": 1689, "990": 28014, "992": 46549, "995": 34364, "996": 46139, "997": 40638, "998": 42132, "999": 16952, ":": 59, ":\"": 7850, ":#": 43640, ":)": 36082, ":-": 25236, ":.": 36141, ":/": 20936, "://": 695, "::": 5280, ":\\": 23631, ":\\\"": 35035, ":]": 41049, ":{": 24170, ":âĢľ": 23657, ";": 60, ";\"": 11517, ";\">": 30639, ";\"><": 45140, ";+": 27499, ";-": 29473, ";;": 41698, ";\\": 37301, ";}": 29897, ";âĢ¢": 34196, "<": 61, "</": 3584, "<<": 36285, "=": 62, "=\"": 532, "=\"\"": 3501, "=\"\">": 8158, "=\"#": 32760, "=\"(": 5436, "=\"/": 12736, "=\"//": 7656, "=\"<": 49983, "=\"_": 28117, "=\"{\"": 17978, "='": 2609, "=''": 11356, "=-": 40329, "=/": 19742, "=<": 45654, "==": 10571, "==\"": 7560, "==\"><": 26583, "===": 38981, "=>": 3772, "=\\": 46479, "=\\\"": 28581, "={": 35395, "=âĢĿ": 14142, ">": 63, ">\"": 44421, ">(": 43874, ">)": 48054, ">,": 24785, ">.": 29823, ">:": 42868, "><": 1710, "></": 4901, ">>": 6661, ">>>": 20763, ">\\": 49926, "?": 64, "?!": 16655, "?\"": 7015, "?\".": 35352, "?'": 24815, "?)": 11721, "?),": 45561, "?).": 39231, "?,": 30892, "?.": 30638, "?:": 38591, "??": 6922, "???": 21600, "?]": 22339, "?âĢĻ": 18576, "?âĢľ": 43823, "?âĢĿ": 4188, "@": 65, "@@": 23461, "A": 66, "AA": 2287, "AAA": 47736, "AAAA": 7506, "AAAAACH": 7975, "AAP": 37045, "AB": 3052, "ABA": 44863, "ABC": 27203, "ABILITY": 25251, "ABLE": 11120, "AC": 1893, "ACA": 29803, "ACC": 26103, "ACE": 14417, "ACH": 6043, "ACI": 47680, "ACK": 10038, "ACP": 41560, "ACT": 10836, "ACTION": 40390, "ACY": 35098, "AD": 2519, "ADA": 24895, "ADAD": 37595, "ADD": 21222, "ADE": 22852, "ADO": 35942, "ADVERTISEMENT": 19044, "AE": 16883, "AF": 12301, "AFP": 33863, "AFTA": 48878, "AG": 3796, "AGE": 10367, "AGES": 26001, "AGS": 39046, "AH": 21258, "AI": 15053, "AIDS": 44473, "AIN": 34289, "AJ": 36474, "AK": 11775, "AL": 1759, "ALE": 21156, "ALK": 44432, "ALL": 7605, "ALLY": 27447, "ALOG": 48575, "ALS": 34727, "ALT": 49150, "ALTH": 48754, "AM": 2429, "AMA": 26885, "AMD": 37259, "AME": 12467, "AMES": 45120, "AMI": 41176, "AMP": 21553, "AMS": 25151, "AN": 1550, "ANA": 24114, "ANC": 23378, "ANCE": 18800, "AND": 7425, "ANE": 44600, "ANG": 16899, "ANGE": 34753, "ANI": 45331, "ANK": 18828, "ANN": 23441, "ANO": 45581, "ANS": 19049, "ANT": 7372, "ANY": 32563, "AP": 3030, "APE": 44838, "APH": 46314, "API": 23036, "APP": 30904, "AQ": 5314, "AQAB": 7763, "AR": 1424, "ARA": 30488, "ARC": 31093, "ARCH": 24468, "ARD": 11764, "ARE": 10825, "ARGE": 32239, "ARI": 30463, "ARIA": 44933, "ARK": 37095, "ARM": 35614, "ARN": 24884, "ARP": 41832, "ARS": 13448, "ART": 7780, "ARY": 14174, "AS": 1783, "ASC": 41844, "ASE": 12263, "ASH": 14562, "ASHINGTON": 27991, "ASP": 47764, "ASS": 10655, "AST": 12318, "AT": 1389, "ATA": 13397, "ATCH": 16534, "ATE": 7478, "ATED": 11779, "ATER": 24764, "ATERIAL": 48264, "ATES": 33960, "ATH": 19467, "ATI": 44381, "ATING": 38995, "ATION": 5101, "ATIONAL": 36526, "ATIONS": 28515, "ATIVE": 47016, "ATO": 15274, "ATOR": 28243, "ATS": 32649, "ATT": 21420, "ATURE": 33498, "AU": 13432, "AV": 12045, "AW": 31784, "AWS": 39876, "AX": 20958, "AY": 5289, "AZ": 15112, "Aaron": 37651, "Ab": 3896, "Aber": 44749, "About": 6495, "Above": 45263, "Abs": 25879, "Abstract": 15423, "Ac": 9228, "Acad": 29960, "Acc": 5819, "Accept": 24434, "Access": 14248, "According": 7862, "Account": 24525, "Ach": 43991, "Act": 9576, "Action": 16065, "Active": 30131, "Actual": 47729, "Actually": 39535, "Ad": 2020, "Adam": 24556, "Add": 4617, "Added": 23044, "Adding": 40618, "Additional": 18233, "Additionally": 26501, "Address": 20195, "Adjust": 46310, "Admin": 41848, "Administ": 30708, "Adresse": 20343, "Adult": 47205, "Adv": 16601, "Advanced": 26610, "Advertisement": 6843, "Advertising": 43117, "Af": 12488, "Aff": 24563, "Africa": 39520, "African": 38208, "After": 4794, "Ag": 8709, "Again": 22663, "Age": 21661, "Agent": 39487, "Ah": 14469, "Ai": 48689, "Ain": 39647, "Air": 14986, "Aj": 40629, "Ak": 26346, "Al": 2232, "Alabama": 41554, "Alan": 36155, "Aland": 42363, "Alaska": 48900, "Alb": 27410, "Albania": 34100, "Albert": 47957, "Ale": 32322, "Alex": 13278, "Alexander": 35364, "Alg": 49612, "Algeria": 33944, "Ali": 32285, "Alice": 42977, "All": 2998, "Alle": 37201, "Allen": 45957, "Allow": 43243, "Almost": 32394, "Along": 31903, "Alpha": 47001, "Already": 43290, "Als": 28041, "Also": 9237, "Alt": 25188, "Altern": 24059, "Although": 10079, "Always": 28970, "Am": 4878, "Amazing": 43033, "Amazon": 15259, "Americ": 5850, "America": 21236, "American": 7545, "Americans": 26539, "Among": 22290, "Amsterdam": 48996, "Amy": 36887, "An": 1842, "Anal": 15387, "Analysis": 36920, "Ancient": 45586, "And": 1890, "Andorra": 35635, "Andre": 46947, "Andrea": 46940, "Andrew": 21277, "Android": 24009, "Andy": 35227, "Ang": 9711, "Angel": 41830, "Angola": 35187, "Anguilla": 37325, "Anim": 42335, "Animal": 38762, "Animation": 41817, "Ann": 14629, "Anna": 31648, "Anne": 35254, "Annual": 36614, "Anon": 38064, "Anonymous": 9220, "Anonymoussaid": 23342, "Another": 8906, "Ans": 25794, "Answer": 33325, "Ant": 7448, "Antarctica": 37233, "Anth": 27763, "Anthony": 33969, "Anti": 28561, "Antigua": 35780, "Antworten": 39923, "Any": 7647, "Anyone": 30923, "Anyway": 34615, "Anywhere": 43189, "Ao": 49819, "Ap": 16200, "Apache": 47844, "Apart": 42255, "App": 3715, "Apple": 14561, "Applic": 34997, "Application": 19355, "Apply": 35247, "Appro": 44183, "Apps": 46789, "Apr": 16405, "April": 5607, "Aqu": 32754, "Ar": 2428, "Arab": 33183, "Arc": 33467, "Arch": 12211, "Archive": 35356, "Archives": 37086, "Are": 9415, "Area": 36535, "Arg": 33947, "Argentina": 26323, "Arizona": 37819, "Ark": 40204, "Arm": 34173, "Armen": 29147, "Armenia": 33867, "Around": 37195, "Array": 17067, "Art": 5643, "Arthur": 30973, "Article": 10718, "Articles": 38307, "Artist": 43013, "Arts": 41990, "Aruba": 36201, "As": 1960, "Ash": 26063, "Asia": 31159, "Asian": 41561, "Aside": 48820, "Ask": 17330, "Asked": 38662, "Ass": 8132, "Associ": 22835, "Associated": 45358, "Ast": 27028, "At": 3652, "Atl": 23581, "Atlanta": 44304, "Atlantic": 43768, "Att": 10453, "Attack": 49521, "Attribute": 47070, "Au": 25442, "Auch": 47145, "Aud": 32670, "Audio": 27755, "Auf": 30526, "Aug": 15787, "August": 6247, "Aus": 29241, "Aust": 9583, "Austin": 41648, "Austral": 13467, "Australia": 17791, "Australian": 34512, "Austria": 28678, "Aut": 6650, "Auth": 21461, "Authent": 43186, "Author": 11068, "Authority": 47583, "Authors": 39648, "Auto": 26450, "Autom": 28993, "Automatic": 49280, "Av": 11600, "Available": 23866, "Average": 27119, "Avg": 32678, "Avoid": 45548, "Aw": 22431, "Awesome": 42484, "Aws": 14300, "Ax": 43377, "Ay": 33020, "Az": 23635, "Azerbaijan": 34157, "B": 67, "BA": 4784, "BACK": 47890, "BB": 13192, "BBC": 33602, "BC": 3206, "BD": 8333, "BE": 15625, "BER": 14027, "BF": 23923, "BG": 19149, "BGAY": 31927, "BGAYYCw": 31932, "BI": 6587, "BIT": 30745, "BJ": 27926, "BL": 8559, "BLIC": 38245, "BM": 8941, "BN": 5287, "BO": 7317, "BOOK": 42700, "BOX": 46622, "BP": 23099, "BR": 10450, "BRE": 46975, "BS": 4385, "BSD": 26325, "BT": 10589, "BU": 18630, "BUG": 28824, "BUR": 45421, "BY": 16557, "BZ": 31068, "Ba": 24633, "Bab": 46361, "Baby": 17436, "Back": 8209, "Background": 32352, "Bad": 22277, "Bag": 35876, "Bah": 23600, "Bahrain": 33963, "Bal": 21571, "Ball": 26227, "Balt": 48480, "Ban": 30925, "Band": 29896, "Bang": 22226, "Bangladesh": 30171, "Bank": 21592, "Bar": 9578, "Barb": 23147, "Barbados": 34389, "Barbara": 49331, "Barn": 48901, "Barry": 46285, "Bas": 15457, "Base": 18337, "Based": 16249, "Basic": 30429, "Bat": 31598, "Bath": 42378, "Battle": 28623, "Bay": 16344, "Be": 3750, "Bear": 32458, "Beat": 41986, "Beaut": 22920, "Beautiful": 33795, "Beauty": 42744, "Bec": 23169, "Because": 10432, "Become": 42750, "Bed": 31498, "Before": 10587, "Begin": 32428, "Bei": 33680, "Being": 20424, "Bel": 8770, "Belarus": 33486, "Belg": 25223, "Belgium": 28497, "Belize": 35099, "Bell": 38539, "Below": 25797, "Ben": 9873, "Benef": 33251, "Benefits": 45740, "Benin": 36073, "Benz": 38582, "Ber": 18719, "Bermuda": 34741, "Bern": 25998, "Berry": 31724, "Bes": 22550, "Besides": 34712, "Best": 8463, "Bet": 13041, "Better": 30875, "Between": 33832, "Bew": 47580, "Beyond": 30319, "Bh": 24012, "Bhutan": 35710, "Bi": 18605, "Bib": 47674, "Bibli": 38822, "Big": 12896, "Bill": 16922, "Bio": 34550, "Birth": 36718, "Bissau": 33508, "Bit": 16931, "Bitch": 45880, "Bitcoin": 35424, "Bl": 3651, "Black": 9401, "Blo": 37302, "Block": 20307, "Blog": 15120, "Blood": 30037, "Bloom": 48435, "Blu": 39086, "Blue": 16411, "Bn": 45373, "Bo": 11119, "Board": 35171, "Bob": 20026, "Body": 25524, "Bol": 23588, "Bolivia": 34203, "Bon": 19655, "Bonus": 43516, "Book": 6880, "Books": 17332, "Born": 30905, "Bos": 24888, "Bosnia": 33646, "Boston": 33384, "Bot": 33786, "Both": 15275, "Botswana": 35491, "Bott": 34262, "Bottom": 43870, "Bou": 29758, "Bouvet": 39194, "Bow": 43917, "Box": 14540, "Boy": 31568, "Br": 6165, "Bra": 27749, "Brad": 28844, "Brain": 37579, "Brand": 32112, "Brazil": 22170, "Bre": 13230, "Break": 30295, "Breaking": 42703, "Brian": 26565, "Bridge": 20792, "Brien": 27304, "Bright": 45000, "Bring": 31507, "Brit": 12969, "British": 15653, "Bro": 15455, "Broad": 30865, "Bron": 24722, "Brook": 46908, "Brown": 24013, "Browse": 40737, "Browser": 41552, "Bruce": 41044, "Brunei": 35586, "Bs": 37923, "Bu": 20826, "Bud": 29371, "Buffer": 37163, "Bug": 31708, "Build": 18179, "Builder": 41747, "Building": 26416, "Built": 46319, "Bul": 18068, "Bulgaria": 32249, "Bund": 41011, "Bur": 13377, "Burkina": 35623, "Burn": 44137, "Burundi": 36117, "Bus": 34881, "Business": 14644, "But": 2101, "Button": 25851, "Buy": 12463, "By": 3271, "C": 68, "CA": 6545, "CAD": 38777, "CAN": 43566, "CAP": 25224, "CAR": 21440, "CAS": 24932, "CAT": 34524, "CB": 19901, "CBS": 28904, "CC": 3953, "CD": 7450, "CDC": 36295, "CE": 5595, "CENT": 40403, "CEO": 45970, "CES": 43771, "CF": 21172, "CG": 43633, "CH": 3552, "CHA": 26538, "CHAR": 35001, "CHARGER": 50076, "CI": 14793, "CK": 20894, "CL": 5664, "CLA": 19726, "CLAIM": 45732, "CLUD": 29118, "CLUDING": 36150, "CLUS": 33871, "CM": 15858, "CMS": 40886, "CN": 9657, "CNN": 27651, "CNhs": 36878, "CO": 5585, "COL": 33220, "COM": 11101, "COMP": 44681, "CON": 10599, "CONFIG": 36065, "CONNECT": 45725, "CONT": 31573, "COP": 48454, "COR": 48512, "COUNT": 45530, "COVID": 17338, "CP": 7403, "CPU": 39790, "CR": 6881, "CRE": 39289, "CRIP": 28611, "CRIPTION": 32833, "CS": 7191, "CSS": 44165, "CT": 5583, "CTION": 26062, "CTV": 47200, "CV": 28950, "CVE": 47936, "CY": 46034, "Ca": 19975, "Cab": 42895, "Cache": 36708, "Cad": 48330, "Cal": 8703, "California": 19809, "Call": 12947, "Calling": 32412, "Cam": 13229, "Cambodia": 34342, "Camera": 45703, "Cameroon": 35577, "Camp": 17942, "Campaign": 46576, "Can": 5476, "Canada": 15604, "Canadian": 37751, "Cancel": 37413, "Candid": 43774, "Cann": 49743, "Canon": 33441, "Cap": 14094, "Cape": 29978, "Capital": 37984, "Capt": 23507, "Captain": 39365, "Car": 7809, "Card": 18658, "Care": 15587, "Career": 49314, "Caribbean": 35318, "Carl": 25006, "Carol": 45830, "Cars": 46243, "Cart": 31853, "Cas": 22838, "Case": 23599, "Cash": 35589, "Cast": 22081, "Cat": 16251, "Categories": 17664, "Category": 15975, "Cath": 40845, "Cause": 14607, "Cay": 33062, "Cayman": 35877, "Ce": 22246, "Celebr": 38069, "Cell": 31411, "Cent": 11473, "Center": 26312, "Central": 17495, "Cer": 45394, "Cert": 24772, "Certain": 34597, "Certificate": 48000, "Cette": 46497, "Ch": 1516, "Cha": 46498, "Chad": 29882, "Chain": 46675, "Chair": 38253, "Chall": 43472, "Change": 10052, "Changed": 45067, "Changes": 33587, "Channel": 35608, "Chapter": 15992, "Char": 12461, "Character": 36901, "Charl": 24127, "Charles": 22440, "Charlie": 41278, "Chat": 28839, "Che": 6033, "Check": 8929, "Chel": 46398, "Chem": 33047, "Cher": 31790, "Chi": 41604, "Chicago": 24706, "Chicken": 45224, "Chief": 27188, "Child": 15149, "Children": 23688, "Chile": 29020, "China": 11592, "Chinese": 24546, "Chip": 43258, "Cho": 16165, "Chocolate": 47941, "Choose": 23761, "Chor": 7517, "Chorus": 7630, "Chris": 16725, "Christ": 8462, "Christian": 20084, "Christmas": 21839, "Christopher": 37825, "Chrome": 16084, "Church": 40939, "Ci": 37289, "Cir": 43527, "Circ": 29043, "Cit": 33685, "City": 15441, "Civil": 33109, "Cl": 2876, "Cla": 24309, "Clar": 46958, "Class": 8528, "Classic": 37569, "Claude": 49833, "Cle": 17010, "Clean": 33030, "Clear": 27361, "Clearly": 49846, "Click": 3394, "Client": 13925, "Climate": 30649, "Clinton": 34846, "Clique": 36235, "Close": 19362, "Closed": 45741, "Cloud": 15697, "Club": 36514, "Co": 6728, "CoV": 24822, "Coach": 46654, "Coc": 28306, "Cocos": 37909, "Cod": 30983, "Code": 14251, "Codertocat": 48701, "Coff": 46294, "Coin": 40988, "Col": 5320, "Cola": 44195, "Cold": 40695, "Coll": 22301, "Collect": 28705, "Collection": 36811, "College": 35316, "Colombia": 30393, "Color": 13964, "Colorado": 33331, "Columb": 36129, "Column": 44422, "Com": 2485, "Comb": 32096, "Come": 14593, "Comedy": 37659, "Coming": 38771, "Comm": 7338, "Command": 35060, "Comment": 10524, "Comments": 13786, "Commerce": 23425, "Commercial": 32647, "Common": 24660, "Commun": 25619, "Community": 23965, "Como": 28811, "Comoros": 37102, "Comp": 9654, "Companies": 47585, "Company": 26986, "Compar": 35615, "Compare": 38664, "Compat": 49986, "Compet": 37919, "Compl": 43441, "Complete": 30260, "Component": 27731, "Comput": 50077, "Computer": 31835, "Con": 2980, "Conc": 38576, "Concept": 49777, "Conclusion": 26187, "Cond": 22774, "Conf": 17362, "Config": 20898, "Configuration": 40436, "Cong": 14808, "Congo": 32331, "Congratulations": 44676, "Congress": 32511, "Conn": 17588, "Connect": 18537, "Connection": 36125, "Connell": 21040, "Connor": 35199, "Cons": 8449, "Consider": 22307, "Const": 35512, "Construction": 44926, "Consumer": 37922, "Cont": 3197, "Contact": 8640, "Content": 16212, "Contents": 15813, "Context": 20638, "Contin": 25384, "Continue": 12419, "Contract": 46752, "Contrib": 40202, "Control": 21411, "Controller": 29213, "Cook": 12212, "Cookie": 24824, "Cookies": 19420, "Cool": 33338, "Cop": 44920, "Copy": 29361, "Copyright": 13493, "Cor": 9072, "Core": 20768, "Corn": 34284, "Coronavirus": 27524, "Corporate": 45494, "Cos": 31069, "Cost": 22946, "Costa": 29568, "Cou": 31237, "Could": 27925, "Count": 12231, "Counter": 42191, "Country": 23898, "County": 46340, "Cour": 34315, "Course": 43023, "Court": 45605, "Courtesy": 46415, "Cover": 24150, "Covid": 46680, "Cr": 14517, "Cra": 27337, "Craft": 30512, "Craig": 45139, "Cre": 10191, "Creat": 16074, "Create": 13459, "Created": 41981, "Creating": 32356, "Creative": 39075, "Cred": 37913, "Credit": 21902, "Crime": 42563, "Crit": 24194, "Cro": 45816, "Croat": 27748, "Croatia": 30872, "Cross": 7895, "CrossRef": 11674, "CrossRefPubMed": 19727, "Crossref": 21521, "CrossrefSearch": 28819, "Cru": 35052, "Cry": 33321, "Cs": 26371, "Cu": 24649, "Cultural": 42765, "Culture": 35229, "Cup": 49519, "Cur": 20603, "CuraÃ§ao": 41091, "Current": 13753, "Currently": 28118, "Curt": 46983, "Custom": 12067, "Customer": 25131, "Cut": 30158, "Cy": 16619, "Cyber": 48329, "Cyprus": 33021, "Czech": 26119, "D": 69, "DA": 4867, "DAQ": 50099, "DAY": 27109, "DB": 9823, "DC": 9002, "DD": 17534, "DE": 6374, "DEBUG": 43369, "DEC": 49733, "DEF": 37834, "DEL": 46879, "DEN": 23813, "DENY": 34485, "DEP": 42232, "DER": 14453, "DES": 29295, "DESCRIPTION": 49052, "DEX": 42655, "DF": 1560, "DG": 45538, "DH": 41507, "DI": 10531, "DIR": 44979, "DIRECT": 49304, "DIS": 27112, "DIY": 47024, "DJ": 29839, "DK": 47388, "DL": 19093, "DM": 22035, "DN": 19549, "DNA": 29106, "DO": 14459, "DOC": 46072, "DOI": 41786, "DOM": 41242, "DP": 6666, "DR": 8909, "DS": 4844, "DSC": 23551, "DT": 7622, "DU": 16759, "DUCT": 35987, "DVD": 41009, "DW": 45873, "DX": 47171, "Da": 17693, "Daily": 24584, "Dal": 46056, "Dallas": 43575, "Dam": 22212, "Dan": 11425, "Dance": 44145, "Daniel": 19859, "Dans": 28525, "Dar": 26889, "Dark": 20915, "Das": 15208, "Dat": 16544, "Data": 8097, "Database": 43260, "Date": 9394, "Dave": 29117, "David": 9382, "Davis": 48986, "Day": 12157, "Days": 48099, "Db": 40009, "De": 3494, "Dead": 27979, "Dear": 20370, "Death": 27118, "Deb": 15944, "Debug": 35949, "Dec": 4605, "December": 6643, "Deep": 27989, "Def": 8951, "Default": 26134, "Defense": 49176, "Defin": 28353, "Definition": 45790, "Del": 13896, "Dele": 3964, "Delete": 4019, "DeleteReplies": 4418, "DeleteRepliesReply": 4583, "DeleteRepliesReplyReply": 39338, "Delivery": 31814, "Delta": 49503, "Dem": 10693, "Democratic": 22573, "Democrats": 45171, "Demon": 50001, "Den": 12464, "Denmark": 28364, "Dep": 9997, "Department": 20429, "Depending": 47668, "Der": 11384, "Des": 5068, "Description": 11071, "Design": 13836, "Desktop": 47449, "Despite": 13015, "Dest": 31302, "Det": 9169, "Detailed": 49815, "Details": 21664, "Detroit": 49748, "Deutsch": 45306, "Dev": 18208, "Develop": 16721, "Developer": 49300, "Development": 37046, "Device": 39632, "Di": 15846, "Dial": 42903, "Diam": 38140, "Did": 13399, "Die": 7395, "Dies": 39434, "Diese": 40290, "Dig": 32813, "Digital": 18056, "Dim": 27356, "Dimensions": 49324, "Dir": 46816, "Direct": 11270, "Director": 27827, "Directory": 41544, "Dis": 6457, "Disc": 18051, "Disclaimer": 26811, "Discover": 32868, "Disney": 33443, "Display": 31176, "Disputed": 43909, "Dist": 18725, "District": 41516, "Dit": 47211, "Div": 26737, "Dj": 26795, "Djibouti": 36343, "Do": 4393, "Doc": 30060, "Docs": 27368, "Doctor": 40229, "Document": 20539, "Does": 16006, "Dog": 34698, "Dom": 19948, "Domain": 35417, "Domin": 17695, "Dominica": 36430, "Dominican": 34255, "Don": 3987, "Donald": 9249, "Donate": 48734, "Donnell": 48799, "Door": 46840, "Dou": 15584, "Double": 27535, "Doug": 45788, "Down": 23238, "Download": 7787, "Dr": 7026, "Draft": 37997, "Drag": 47633, "Dragon": 33834, "Drama": 45836, "Draw": 28613, "Dream": 28682, "Drive": 30936, "Driver": 16946, "Drop": 33252, "Drug": 42376, "Dry": 47974, "Ds": 33604, "Du": 14684, "Dub": 47837, "Due": 23186, "Dun": 40928, "Dur": 30671, "Duration": 41790, "During": 10559, "Dutch": 28609, "E": 70, "EA": 8067, "EB": 34536, "EBT": 26630, "EC": 2417, "ECD": 32924, "ECH": 24840, "ECK": 26895, "ECT": 7468, "ECTION": 21209, "ECTR": 28836, "ED": 2084, "EE": 7368, "EEE": 29331, "EEK": 37344, "EF": 24697, "EG": 7142, "EL": 2624, "ELD": 29563, "ELL": 12425, "ELY": 42544, "EM": 3067, "EMA": 20315, "EMAIL": 46665, "EMBER": 46650, "EMBL": 30647, "EMBLY": 32943, "EMENT": 10528, "EMS": 45620, "EN": 1567, "ENA": 43449, "ENC": 24395, "ENCE": 21643, "END": 12209, "ENE": 39180, "ENER": 29165, "ENG": 33067, "ENS": 17684, "ENSE": 41483, "ENT": 3298, "ENTO": 44567, "ENTS": 23428, "EO": 4063, "EP": 4914, "EPA": 37358, "EPT": 28539, "ER": 1118, "ERA": 39725, "ERE": 9489, "ERN": 25498, "ERO": 28911, "ERR": 28235, "ERS": 6936, "ERSON": 28956, "ERT": 15243, "ERY": 45268, "ES": 1403, "ESA": 41121, "ESCO": 35361, "ESE": 36114, "ESPN": 26839, "ESS": 6886, "EST": 6528, "ET": 2570, "ETA": 21105, "ETE": 46065, "ETF": 46335, "ETH": 28945, "ETS": 41737, "EU": 15986, "EUR": 31279, "EV": 21756, "EX": 7036, "EXT": 17568, "EZ": 46615, "Each": 13038, "Earlier": 23714, "Early": 22119, "Earth": 25005, "East": 17721, "Eastern": 39794, "Easy": 24177, "Ec": 48081, "Econ": 27182, "EconGroupMedia": 28829, "Econom": 16322, "Economic": 39136, "Economist": 34898, "EconomistGroupMedia": 45146, "Ecuador": 32008, "Ed": 5070, "Edge": 19667, "Edit": 15624, "Editor": 19448, "Educ": 19712, "Education": 24809, "Edward": 38008, "Een": 23682, "Eff": 19502, "Effect": 45493, "Effective": 42219, "Egypt": 24210, "Eight": 40908, "Ein": 21313, "Eine": 40605, "Either": 46480, "El": 5374, "Ele": 29865, "Elect": 13876, "Electric": 36754, "Electronic": 40630, "Element": 19294, "Elim": 17160, "Elimina": 48897, "Eliminar": 22622, "EliminarResp": 23874, "EliminarRespuestas": 25366, "Elizabeth": 36164, "Ell": 25385, "Em": 6648, "Email": 5624, "EmailLike": 37629, "EmailPrint": 30887, "Embed": 32406, "Emer": 29732, "Emergency": 49317, "Emily": 44864, "Emp": 29792, "Employ": 31842, "En": 3251, "Enabling": 37137, "Enc": 29642, "End": 13706, "Energy": 27908, "Eng": 8296, "Engine": 22080, "England": 43158, "English": 14134, "Enjoy": 24396, "Ent": 11691, "Enter": 8767, "Entity": 46934, "Entre": 43876, "Entry": 37059, "Environment": 26672, "Environmental": 41309, "Ep": 13108, "Episode": 26039, "Equ": 18590, "Equatorial": 36681, "Er": 6967, "Eric": 22284, "Eritrea": 36611, "Error": 12193, "Es": 11581, "Esc": 28354, "Esp": 29056, "Ess": 21905, "Est": 9742, "Este": 39749, "Estimated": 26231, "Estonia": 32326, "Et": 14567, "Eth": 19140, "Ethiopia": 33861, "Eu": 26974, "Euro": 9993, "Europe": 12543, "European": 20772, "Ev": 14151, "Even": 8514, "Event": 11793, "Events": 32536, "Ever": 25883, "Every": 6243, "Everybody": 30420, "Everyone": 20776, "Everything": 21352, "Ex": 2540, "Example": 20878, "Examples": 36471, "Exc": 25639, "Excellent": 36219, "Except": 41929, "Exception": 11193, "Excluir": 40954, "ExcluirResp": 44556, "ExcluirRespostasResponder": 49094, "Exec": 42529, "Executive": 34413, "Exp": 14758, "Expanded": 42801, "Exper": 19066, "Experience": 36668, "Expert": 42061, "Expl": 17231, "Explore": 31744, "Export": 36813, "Express": 34711, "Expression": 47281, "Ext": 12682, "External": 20476, "Extra": 38207, "Ey": 35552, "Eye": 39161, "F": 71, "FA": 8451, "FAQ": 25515, "FAQs": 38753, "FAULT": 43014, "FB": 22423, "FC": 4895, "FD": 25796, "FE": 14873, "FER": 33633, "FET": 42292, "FF": 7467, "FG": 40804, "FI": 17075, "FIG": 21827, "FIL": 41478, "FILE": 33123, "FIN": 29644, "FK": 29442, "FL": 4621, "FM": 21730, "FN": 40657, "FO": 9668, "FOR": 10808, "FORE": 46262, "FORM": 14663, "FP": 8968, "FR": 9963, "FREE": 18661, "FROM": 41471, "FS": 10769, "FT": 9649, "FU": 48619, "FUN": 36410, "FW": 35702, "FX": 23504, "FY": 31280, "Fa": 29783, "Fab": 29790, "Fac": 31215, "Face": 33830, "Facebook": 5360, "FacebookTwitter": 21894, "Fact": 35518, "Factory": 38458, "Fair": 29800, "Falkland": 37668, "Fall": 29174, "False": 42277, "Family": 21307, "Fan": 39702, "Fans": 48781, "Fant": 32867, "Far": 17167, "Farm": 39529, "Faroe": 37892, "Fashion": 39672, "Fast": 24124, "Fat": 44555, "Father": 48401, "Favorite": 30462, "Fax": 39433, "Fe": 7561, "Fear": 46272, "Feature": 27750, "Featured": 26824, "Features": 23092, "Feb": 17020, "February": 6467, "Fed": 47780, "Feder": 32140, "Federal": 25029, "Federated": 42034, "Feed": 22090, "Feel": 33722, "Fel": 39947, "Fem": 25412, "Female": 42854, "Fer": 41831, "Fest": 44777, "Few": 47143, "Fi": 9537, "Field": 19736, "Fields": 48220, "Fig": 6866, "Fight": 37173, "Figure": 12050, "Fiji": 34646, "Fil": 11560, "File": 11306, "Filed": 20488, "Files": 35293, "Fill": 38944, "Film": 29271, "Filter": 25512, "Fin": 7779, "Final": 21053, "Finally": 14709, "Financial": 30294, "Find": 3351, "Finding": 34366, "Finland": 28837, "Fire": 10486, "Firefox": 16698, "First": 6867, "Fish": 40389, "Fit": 31898, "Five": 24650, "Fix": 29156, "Fixed": 26174, "Fl": 6535, "Flag": 27582, "Flash": 34923, "Flex": 38142, "Flo": 44955, "Flor": 23352, "Florida": 28171, "Flow": 38039, "Fly": 35324, "Fo": 48513, "Focus": 33244, "Fol": 49140, "Follow": 6133, "FollowJul": 49512, "Following": 19799, "Font": 39464, "Food": 19184, "Foot": 21032, "Football": 38173, "For": 2133, "Force": 18572, "Ford": 38166, "Fore": 17059, "Foreign": 39167, "Forest": 48569, "Forg": 36594, "Form": 7955, "Format": 23865, "Former": 21181, "Fort": 23033, "Fortunately": 45698, "Forum": 41141, "Foto": 36872, "Found": 19784, "Foundation": 42399, "Founded": 49329, "Founder": 45350, "Four": 19037, "Fox": 26158, "Fr": 4839, "Fra": 31848, "Frame": 25841, "Fran": 29876, "Franc": 30866, "France": 16650, "Frank": 15791, "FranÃ§": 48894, "Fre": 17336, "Fred": 26532, "Free": 8250, "Freedom": 41877, "French": 11370, "Frequ": 36919, "Fresh": 36151, "Fri": 26345, "Friday": 18511, "Fried": 47260, "Friend": 24023, "Friends": 43523, "From": 5635, "Front": 27100, "Fs": 22407, "Fsites": 29693, "Fstatic": 30359, "Ft": 34285, "Fu": 41578, "Fuck": 29414, "Full": 11153, "Fun": 18148, "Function": 24294, "Fund": 23567, "Funnels": 34654, "Fuploads": 27227, "Further": 15071, "Furthermore": 36616, "Future": 30202, "Fwp": 24122, "Fwww": 35751, "FÃ¼r": 35222, "G": 72, "GA": 11065, "GB": 5065, "GBT": 10081, "GC": 17292, "GD": 22512, "GE": 9031, "GEL": 41750, "GER": 25430, "GET": 21472, "GF": 21126, "GG": 26695, "GH": 20161, "GHz": 30132, "GI": 17838, "GL": 11994, "GM": 18125, "GN": 21528, "GNU": 45167, "GO": 11960, "GOD": 7596, "GP": 14824, "GR": 11893, "GRE": 44718, "GRO": 47603, "GS": 15334, "GT": 15264, "GTM": 42720, "GU": 10121, "GV": 27234, "GVO": 16007, "GW": 39896, "GY": 37805, "Ga": 30630, "Gab": 22571, "Gabon": 36227, "Gal": 21746, "Galaxy": 48294, "Gallery": 38293, "Gam": 34480, "Gambia": 36788, "Game": 14058, "Games": 30704, "Gar": 23287, "Garden": 48919, "Gary": 39608, "Gas": 42385, "Gate": 32846, "Gay": 43487, "Ge": 6921, "Gem": 47460, "Gen": 12634, "Gender": 36429, "Gene": 43042, "Gener": 8636, "General": 12692, "Generally": 49765, "Genre": 46502, "Gent": 45406, "George": 18613, "Georgia": 22100, "Ger": 23691, "Germ": 16597, "German": 25787, "Germany": 18878, "Ges": 45887, "Get": 4203, "Getting": 21388, "Getty": 14718, "Gh": 22007, "Ghana": 32925, "Ghost": 36667, "Gi": 24492, "Gib": 27698, "Gibraltar": 35752, "Gift": 42996, "Gil": 44497, "Girl": 21648, "Girls": 49242, "Git": 39048, "Give": 19644, "Given": 20846, "Gl": 7470, "Glass": 48811, "Global": 17205, "Go": 3377, "God": 14673, "Going": 33175, "Gold": 13721, "Golden": 31000, "Good": 9743, "Google": 5081, "Got": 21221, "Gov": 32203, "Govern": 30117, "Government": 28361, "Gr": 7892, "Gra": 39789, "Grad": 29628, "Gram": 48595, "Grand": 25199, "Grant": 44533, "Graph": 22516, "Graphics": 49407, "Gre": 19931, "Great": 11754, "Greece": 26806, "Greek": 42491, "Green": 11762, "Greenland": 34996, "Greg": 20395, "Gren": 30932, "Grenada": 36167, "Grid": 49116, "Gro": 39675, "Ground": 41492, "Group": 11235, "GroupMedia": 18111, "Grow": 43619, "Gs": 38298, "Gu": 5638, "Guadeloupe": 36902, "Guam": 34475, "Guard": 32097, "Guatemala": 33316, "Guest": 36852, "Guide": 37369, "Guinea": 22379, "Gun": 40544, "Guy": 25182, "Guyana": 35973, "Gy": 49698, "H": 73, "HA": 8351, "HB": 31603, "HC": 17021, "HD": 7651, "HE": 14081, "HEAD": 48544, "HER": 17382, "HERE": 49969, "HF": 31653, "HG": 31230, "HH": 34181, "HI": 26159, "HJ": 48318, "HK": 38457, "HL": 7612, "HM": 29206, "HN": 47836, "HO": 18530, "HOME": 49694, "HOW": 43719, "HP": 8565, "HQ": 28150, "HR": 13456, "HS": 7520, "HT": 6965, "HTML": 19866, "HTTP": 37884, "HU": 41015, "HV": 36666, "HY": 34447, "Ha": 14049, "Hack": 39788, "Had": 34468, "Hair": 40460, "Haiti": 33990, "Hal": 39232, "Half": 39120, "Hall": 28994, "Ham": 18574, "Hamilton": 44363, "Han": 38029, "Hand": 13273, "Handler": 33621, "Hans": 49699, "Happy": 19745, "Har": 14346, "Hard": 19659, "Harm": 40986, "Harris": 46150, "Harry": 32454, "Hart": 30749, "Hartman": 46830, "Harvard": 49439, "Has": 24749, "Hash": 47505, "Have": 11451, "Having": 18453, "Haw": 26866, "Hay": 30527, "Haz": 40401, "He": 2170, "Head": 13929, "Header": 43648, "Health": 11987, "Heard": 35275, "Heart": 27421, "Heat": 44884, "Heavy": 48718, "Heb": 45748, "Height": 30138, "Hel": 10382, "Hell": 41430, "Hello": 11143, "Help": 15361, "Helper": 37906, "Hen": 20085, "Henry": 28921, "Her": 11145, "Here": 5080, "Hero": 33849, "Het": 17758, "Hey": 12047, "Hi": 10802, "Hidden": 37063, "Hide": 48769, "Hier": 39490, "Hig": 41057, "High": 10876, "Hill": 23650, "Hillary": 38913, "His": 10928, "Hist": 10883, "Historical": 47574, "History": 16055, "Hit": 31227, "Ho": 20563, "Hol": 19619, "Hold": 33961, "Holy": 26397, "Hom": 25560, "Home": 10187, "Hon": 23973, "Honduras": 34667, "Honey": 48881, "Hong": 23309, "Hook": 16703, "Hop": 37943, "Hope": 24788, "Hopefully": 47167, "Hor": 28216, "Host": 20388, "Hot": 15773, "Hotel": 35814, "Hour": 47556, "House": 15640, "Houston": 42948, "How": 2386, "Howard": 49772, "However": 6989, "Http": 34513, "Hu": 28221, "Hub": 12929, "Hum": 33900, "Human": 20696, "Hung": 21773, "Hungary": 29057, "Hur": 43602, "Hy": 19146, "Hyd": 36034, "Hyper": 42389, "Hz": 9328, "I": 74, "IA": 4190, "IAL": 11774, "IAN": 28543, "IB": 6926, "IBE": 47464, "IBLE": 41854, "IBM": 49291, "IC": 1825, "ICA": 20359, "ICAL": 20000, "ICATION": 13312, "ICAg": 45162, "ICE": 9837, "ICES": 23577, "ICH": 24470, "ICI": 40576, "ICK": 14229, "ICO": 18847, "ICON": 49163, "ICS": 20487, "ICT": 26105, "ICY": 44129, "ID": 1691, "IDA": 40586, "IDE": 18594, "IDENT": 33209, "IDS": 16666, "IE": 6082, "IEC": 46096, "IEEE": 38450, "IER": 37477, "IES": 10254, "IF": 4582, "IFA": 23656, "IFE": 37133, "IFF": 29187, "IFI": 27050, "IFIC": 44370, "IFICATION": 15766, "IFIED": 39438, "IFT": 43340, "IG": 3650, "IGH": 22510, "IGHT": 13642, "IGHTS": 37604, "IGN": 17203, "IH": 15692, "II": 3453, "III": 13132, "IJ": 36086, "IK": 14477, "IL": 2837, "ILD": 34208, "ILE": 17017, "ILITY": 20157, "ILL": 9977, "ILLE": 43315, "ILS": 43685, "ILY": 37161, "IM": 3130, "IME": 14507, "IMG": 12155, "IMIT": 20757, "IMP": 47848, "IMS": 40432, "IN": 1275, "INA": 24269, "INC": 36642, "IND": 15451, "INE": 10359, "INESS": 41533, "INFO": 30938, "ING": 2839, "INGS": 24700, "INGTON": 24913, "INK": 15971, "INO": 41407, "INS": 18651, "INSERT": 46764, "INT": 12178, "INTER": 29486, "IO": 8374, "ION": 2617, "IONAL": 47055, "IONE": 45382, "IONS": 14407, "IOUS": 49333, "IP": 3407, "IPA": 46775, "IPC": 49523, "IPP": 30354, "IPPING": 46237, "IPS": 28424, "IQ": 28313, "IR": 4674, "IRC": 41705, "IRD": 42083, "IRE": 13682, "IRED": 38957, "IRS": 36186, "IRST": 30145, "IS": 1788, "ISA": 25893, "ISBN": 27518, "ISC": 39125, "ISE": 22860, "ISH": 22292, "ISM": 45633, "ISO": 29847, "ISS": 17556, "ISSION": 41976, "IST": 7949, "ISTER": 45080, "ISTOR": 35551, "ISTR": 47892, "IT": 1852, "ITA": 38040, "ITAL": 29545, "ITCH": 47336, "ITE": 11406, "ITED": 38462, "ITES": 46962, "ITH": 11402, "ITIES": 47917, "ITION": 22894, "ITIONS": 41720, "ITOR": 37509, "ITS": 26659, "ITT": 28826, "ITY": 9661, "IU": 39516, "IV": 3851, "IVE": 10131, "IVER": 26120, "IVERS": 42095, "IX": 9606, "IZ": 10980, "IZE": 26836, "Ian": 40043, "Ice": 35581, "Iceland": 29918, "Ich": 15595, "Icon": 22650, "Id": 8277, "Ide": 25831, "Ident": 22071, "If": 1647, "Ig": 46408, "Ign": 42775, "Ik": 22065, "Il": 8554, "Ill": 20265, "Illinois": 47427, "Im": 3580, "Image": 7697, "ImageLazyLoad": 30803, "ImageLazyLoadNoScript": 49301, "Images": 25885, "Imagine": 29157, "Imm": 25330, "Imp": 31049, "Impact": 48818, "Imper": 49942, "Implement": 43696, "Import": 17129, "Important": 23578, "Impro": 38848, "In": 833, "Inc": 26421, "Includ": 24530, "Includes": 41779, "Incre": 27931, "Ind": 4487, "Indeed": 29785, "Independent": 39310, "Index": 19589, "India": 16032, "Indian": 26392, "Indiana": 41653, "Individual": 34085, "Indonesia": 26897, "Indust": 27010, "Industry": 45560, "Inf": 23152, "Info": 15338, "Inform": 34103, "Information": 14929, "Ing": 19343, "Ingredients": 35571, "Initial": 39711, "Innov": 43425, "Input": 32208, "Ins": 15051, "Inside": 29229, "Insp": 29446, "Inst": 6731, "Instagram": 30153, "Install": 25049, "Instance": 44163, "Instead": 18848, "Instructions": 47578, "Int": 5315, "Integr": 31123, "Intel": 21751, "Inter": 7312, "Interest": 26365, "Interface": 42196, "Intern": 9802, "Internal": 41175, "International": 16554, "Internet": 17868, "Interview": 38112, "Intro": 22722, "Introduced": 34651, "Introduction": 23962, "Inv": 37927, "Invest": 21256, "Io": 39843, "Iowa": 43178, "Ir": 21067, "Iran": 25294, "Iraq": 20485, "Ireland": 25525, "Irish": 48199, "Iron": 29402, "Is": 3136, "Isa": 46617, "Islam": 25988, "Islamic": 46747, "Isra": 14740, "Israel": 17737, "Israeli": 46669, "Iss": 25993, "Issue": 39562, "It": 1235, "Ital": 27686, "Italia": 33099, "Italian": 40338, "Italy": 22088, "Item": 16986, "Items": 39571, "Iter": 45528, "Its": 24942, "Iv": 28662, "Ivory": 38427, "Iz": 48542, "J": 75, "JA": 25916, "JB": 48493, "JC": 39576, "JD": 32160, "JE": 31020, "JECT": 44801, "JF": 49896, "JI": 33902, "JJ": 39015, "JM": 49705, "JO": 27343, "JP": 17523, "JPG": 22315, "JR": 34765, "JROOT": 48548, "JS": 21318, "JSON": 50042, "JV": 41034, "JW": 28879, "Ja": 21991, "Jac": 26419, "Jack": 14805, "Jackson": 37174, "Jacob": 45436, "Jak": 36888, "Jam": 31497, "Jamaica": 32790, "James": 13227, "Jan": 11992, "Jane": 37388, "January": 6219, "Japan": 13535, "Japanese": 27426, "Jason": 27194, "Java": 26964, "Jay": 30097, "Je": 9551, "Jean": 27418, "Jeff": 19036, "Jeg": 43604, "Jen": 46948, "Jenn": 30199, "Jennifer": 37306, "Jer": 25953, "Jeremy": 43397, "Jess": 32762, "Jessica": 44047, "Jesus": 29625, "Jet": 27463, "Jew": 25873, "Jewish": 37052, "Ji": 49895, "Jim": 18669, "Jimmy": 50079, "Jo": 3543, "Job": 24179, "Jobs": 47778, "Joe": 21270, "Joh": 48993, "John": 6671, "Johnson": 34722, "Join": 10469, "Joined": 25648, "Jon": 18209, "Jonathan": 32692, "Jones": 31908, "Jordan": 23932, "Jos": 39378, "Jose": 21289, "Joseph": 27433, "Josh": 28467, "Journal": 18931, "Joy": 42004, "Js": 43943, "Ju": 31471, "Jud": 29330, "Jul": 10091, "July": 5502, "Jump": 41858, "Jun": 13395, "June": 5843, "Just": 6218, "Justice": 40789, "Justin": 38910, "K": 76, "KA": 25748, "KB": 25166, "KC": 27390, "KD": 32639, "KE": 9152, "KEN": 39873, "KET": 45105, "KEY": 27157, "KG": 37262, "KH": 43401, "KI": 34492, "KK": 21931, "KL": 31656, "KM": 47041, "KN": 33345, "KO": 26451, "KP": 44639, "KR": 33236, "KS": 13251, "KT": 30792, "KW": 31592, "KY": 30558, "Ka": 28792, "Kal": 39270, "Kam": 44005, "Kan": 46384, "Kansas": 41618, "Kar": 31994, "Karen": 42008, "Karl": 45240, "Kat": 35627, "Kate": 41613, "Kath": 45063, "Kay": 44818, "Kaz": 27609, "Kazakhstan": 34477, "Ke": 4745, "Keeling": 36326, "Keep": 13681, "Keeping": 42827, "Keith": 48001, "Kelly": 38484, "Ken": 17649, "Kenn": 38194, "Kent": 35660, "Kenya": 31778, "Kevin": 24407, "Key": 10582, "Kh": 33044, "Ki": 43347, "Kickstarter": 29355, "Kids": 36744, "Kill": 48450, "Kim": 24996, "Kind": 30590, "King": 18820, "Kings": 49187, "Kir": 25544, "Kiribati": 36649, "Kit": 26535, "Kitchen": 47856, "Kl": 29962, "Kn": 20947, "Know": 20428, "Ko": 28765, "Kom": 28191, "Kon": 36293, "Kont": 40218, "Kore": 30438, "Korea": 49619, "Kos": 30976, "Kosovo": 39767, "Kr": 43832, "Krist": 34087, "Ku": 46534, "Kubernetes": 18182, "Kuwait": 34190, "Ky": 34419, "Kyrgyzstan": 36288, "L": 77, "LA": 8172, "LAN": 26394, "LAND": 35118, "LARGE": 40423, "LB": 45855, "LC": 4917, "LD": 14308, "LE": 3232, "LEASE": 26169, "LED": 24266, "LEFT": 43985, "LEG": 49352, "LEN": 48845, "LER": 37228, "LES": 23003, "LET": 31763, "LEX": 39560, "LEY": 42606, "LG": 33993, "LGBT": 42202, "LI": 20133, "LIB": 47683, "LIED": 48727, "LIN": 32228, "LINE": 23988, "LINK": 29703, "LIST": 45474, "LL": 23440, "LM": 37794, "LO": 18728, "LOCK": 37550, "LOG": 44253, "LP": 20252, "LR": 16633, "LS": 6580, "LT": 26528, "LU": 49778, "LV": 32599, "LY": 11202, "La": 4495, "Lab": 16129, "Label": 38201, "Labor": 39130, "Labour": 48031, "Lad": 47982, "Lady": 44500, "Lake": 37915, "Land": 19216, "Language": 26533, "Laos": 38080, "Large": 21778, "Larry": 39710, "Las": 27976, "Last": 6549, "Lastly": 49642, "Lat": 21776, "Late": 36626, "Later": 32423, "Latest": 23166, "Latin": 41885, "Latvia": 33884, "Launch": 43241, "Laura": 35690, "Lauren": 49791, "Law": 18465, "Lay": 26161, "Layout": 47793, "Lazy": 27930, "LazyLoad": 30717, "Le": 3065, "Lead": 19950, "League": 34302, "Leaks": 30181, "Lean": 41337, "Learn": 9653, "Learning": 29935, "Leave": 11161, "Leb": 26497, "Lebanon": 32185, "Lee": 26536, "Left": 28501, "Leg": 12489, "Legacy": 41030, "Legal": 28717, "Legend": 46182, "Len": 38882, "Length": 29318, "Leon": 38482, "Les": 8639, "Lesotho": 36221, "Less": 16317, "Let": 5675, "Letter": 42647, "Level": 18842, "Lew": 36517, "Lewis": 43319, "Lex": 44225, "Li": 18903, "Lib": 19724, "Liber": 17945, "Liberia": 35670, "Library": 32993, "Libya": 34981, "Lic": 23320, "License": 33229, "Lie": 38234, "Liechtenstein": 35768, "Life": 12486, "Light": 17538, "Like": 3594, "LikeLike": 16191, "LikeLiked": 48967, "Liked": 42237, "Lilliput": 37945, "Lim": 18390, "Limited": 34133, "Limo": 25773, "Lin": 17275, "Lincoln": 45271, "Line": 14877, "Link": 7220, "LinkedIn": 12621, "Links": 21210, "Linux": 22291, "Lisa": 37799, "List": 6835, "Listen": 23291, "Listener": 41954, "Listing": 46884, "Liter": 34962, "Lithuania": 33507, "Little": 23181, "Live": 15845, "Living": 29844, "Lo": 15910, "Load": 17806, "Loading": 20053, "Loc": 37591, "Local": 13611, "LocalVolumeType": 44574, "Location": 15721, "Lock": 34408, "Log": 7185, "Logic": 41073, "Login": 31616, "Logo": 26574, "London": 23233, "Long": 15056, "Look": 8993, "Looking": 16474, "Looks": 50053, "Lord": 31992, "Los": 18956, "Lost": 31173, "Lot": 32229, "Lou": 18874, "Louis": 25367, "Love": 12828, "Low": 20416, "Lower": 43142, "Lu": 29232, "Luc": 17839, "Luke": 41138, "Lux": 23162, "Luxembourg": 31918, "Ly": 23514, "M": 78, "MA": 5798, "MAC": 44649, "MAIL": 48463, "MAN": 17634, "MAP": 49472, "MAR": 28673, "MAS": 32062, "MAX": 28760, "MB": 10275, "MC": 9750, "MD": 8687, "MDP": 46112, "MDPTN": 49336, "ME": 9955, "MED": 41894, "MEN": 32882, "MENT": 13449, "MENTS": 46458, "MENU": 47226, "MER": 33812, "MF": 26732, "MG": 19918, "MH": 45107, "MHz": 46531, "MI": 10338, "MIN": 23871, "MIT": 41385, "MK": 42318, "ML": 4276, "MLS": 32224, "MM": 10508, "MN": 26372, "MO": 9219, "MOD": 35715, "MON": 37853, "MORE": 32815, "MP": 5275, "MQ": 45338, "MR": 17720, "MS": 4840, "MT": 6501, "MV": 27803, "MW": 13914, "MX": 41570, "MY": 30697, "Ma": 13043, "Mac": 11344, "Macao": 40720, "Macedonia": 36253, "Mach": 28402, "Machine": 41042, "Mad": 13568, "Madagascar": 34810, "Made": 24100, "Madison": 44139, "Mag": 13233, "Magic": 33480, "Mah": 24046, "Mail": 10916, "Main": 10959, "Maint": 47122, "Mais": 30052, "Major": 27103, "Make": 10035, "Maker": 50139, "Making": 23968, "Mal": 10781, "Malawi": 35749, "Malaysia": 26686, "Maldives": 35742, "Male": 37361, "Mali": 33444, "Malta": 33199, "Man": 5887, "Management": 39557, "Manager": 23136, "Manchester": 46811, "Mand": 43427, "Manufact": 38842, "Many": 8838, "Map": 16013, "Mar": 4546, "Marc": 25667, "March": 5488, "Marco": 45983, "Marcus": 50243, "Marg": 34149, "Maria": 34399, "Marie": 35034, "Mario": 43466, "Mark": 8124, "Market": 25146, "Marketing": 31660, "Mars": 49259, "Marshall": 29030, "Mart": 11522, "Martin": 16916, "Martinique": 37081, "Marvel": 43048, "Mary": 19628, "Mas": 24611, "Mass": 16327, "Massachusetts": 46815, "Master": 18214, "Mat": 13629, "Match": 34627, "Matches": 44897, "Material": 25019, "Materials": 47617, "Math": 32301, "Matt": 14164, "Matthew": 29585, "Maur": 19038, "Mauritania": 36478, "Mauritius": 35575, "Max": 13154, "Maximum": 47311, "May": 3683, "Maybe": 16156, "Mayotte": 38087, "Mc": 11475, "McC": 43304, "Me": 4681, "Meanwhile": 17197, "Measure": 49689, "Med": 3164, "Media": 9086, "Medical": 29040, "Medium": 23430, "Meet": 26235, "Meg": 49078, "Mel": 18489, "Mem": 13323, "Member": 27946, "Members": 26595, "Memory": 35120, "Men": 12591, "Mental": 49501, "Menu": 41974, "Mer": 16409, "Merc": 35747, "Mes": 47656, "Mess": 33948, "Message": 19649, "Met": 8466, "Meta": 46820, "Metal": 44692, "Method": 19582, "Methods": 46064, "Mex": 18222, "Mexico": 22057, "Mi": 17952, "Miami": 45230, "Mic": 19483, "Mich": 25890, "Michael": 11458, "Michel": 28671, "Michelle": 43988, "Michigan": 36525, "Micro": 13024, "Microsoft": 17956, "Mid": 24373, "Middle": 31137, "Mike": 16764, "Mil": 25746, "Military": 36991, "Mill": 24515, "Miller": 49220, "Min": 7840, "Mind": 29700, "Mini": 39983, "Minimum": 47723, "Minnesota": 39869, "Minor": 46550, "Mir": 24910, "Mis": 46105, "Miss": 15926, "Missing": 42140, "Mission": 41099, "Missouri": 49662, "Mit": 22481, "Mix": 32849, "Mj": 32001, "Mo": 13537, "Mobile": 15778, "Mod": 6306, "Moda": 25553, "Mode": 28311, "Model": 17216, "Moder": 49170, "Modern": 27333, "Module": 32175, "Moldova": 35606, "Mom": 33389, "Mon": 7167, "Monaco": 32580, "Mond": 19211, "Monday": 20469, "Money": 23745, "Mongolia": 35694, "Monitor": 40603, "Monkey": 47980, "Mont": 12695, "Montenegro": 35340, "Month": 26643, "Monthly": 45489, "Montserrat": 37061, "Moon": 41400, "Mor": 13136, "More": 4682, "MoreClick": 42100, "Moreover": 38311, "Morocco": 33661, "Morristown": 48359, "Mort": 47663, "Most": 7539, "Mot": 23135, "Mother": 37185, "Motor": 37530, "Mount": 31701, "Mountain": 48497, "Move": 28881, "Movie": 35596, "Moving": 37270, "Moz": 24609, "Mozambique": 35436, "Mr": 8520, "Mrs": 38619, "Ms": 13373, "Mt": 49143, "Mu": 30149, "Much": 24432, "Mul": 42229, "Mult": 14875, "Multi": 31392, "Multiple": 37079, "Mur": 22917, "Mus": 10536, "Music": 17489, "Muslim": 31668, "Must": 34045, "Mut": 46178, "My": 3483, "Myanmar": 33674, "Myst": 36746, "Mystery": 49500, "Mz": 32304, "N": 79, "NA": 4550, "NAL": 45045, "NAME": 27310, "NAS": 18526, "NASA": 32863, "NB": 29127, "NBA": 34912, "NBC": 20784, "NC": 10663, "ND": 15723, "NE": 9234, "NECT": 31082, "NER": 29841, "NES": 42181, "NESS": 40715, "NET": 14408, "NEW": 21028, "NEWS": 41625, "NF": 35590, "NFL": 42194, "NG": 7869, "NH": 32843, "NI": 21153, "NING": 41964, "NJ": 41935, "NK": 49811, "NL": 9046, "NM": 31769, "NN": 36867, "NO": 13394, "NOR": 48503, "NOT": 16671, "NOTE": 26781, "NP": 24018, "NR": 24532, "NS": 8180, "NT": 13248, "NU": 13716, "NV": 35426, "NW": 44452, "NX": 45846, "NY": 13081, "NYSE": 50087, "NZ": 34960, "Na": 13950, "Nach": 32164, "Nam": 23243, "Name": 6976, "Names": 40177, "Namibia": 35671, "Nancy": 45843, "Nap": 49110, "Nat": 41548, "Nathan": 49227, "Nation": 45328, "National": 11610, "Native": 43348, "Natur": 49085, "Natural": 28716, "Nature": 37221, "Nauru": 36742, "Nav": 25082, "Ne": 4243, "Nearly": 43722, "Neb": 38743, "Need": 22421, "Neg": 35499, "Neil": 34290, "Neill": 37581, "Neither": 46513, "Nel": 49827, "Nepal": 32712, "Net": 8878, "Netflix": 40085, "Nether": 25407, "Netherlands": 26130, "Network": 28475, "Neuro": 45832, "Never": 15443, "Nevertheless": 47369, "New": 3050, "News": 7970, "Newsletter": 34636, "Next": 9193, "Ni": 20666, "Nic": 36199, "Nicaragua": 34915, "Nice": 35050, "Nich": 48012, "Nick": 23002, "Nie": 35341, "Niger": 32855, "Nigeria": 30038, "Night": 28941, "Nik": 48645, "Nintendo": 38954, "Niue": 37701, "Nj": 36687, "No": 2931, "NoScript": 43165, "Nobody": 32615, "Node": 19656, "Nom": 34027, "Non": 11476, "None": 18430, "Nor": 10613, "Nord": 44580, "Norfolk": 35265, "Norm": 29782, "Normal": 36401, "North": 11033, "Northern": 23090, "Norway": 28616, "Nos": 43434, "Not": 4001, "Note": 8418, "Notes": 15533, "Nothing": 22919, "Notice": 31105, "Notify": 28035, "Nous": 30268, "Nov": 13500, "November": 6690, "Now": 4631, "Ns": 48361, "Nu": 32605, "Num": 48603, "Number": 16527, "Nut": 35100, "Ny": 43074, "Nz": 44102, "NÃ£o": 33468, "O": 80, "OA": 41872, "OAD": 31061, "OB": 11203, "OBAL": 42069, "OC": 2256, "OCK": 14457, "OD": 3332, "ODE": 24149, "ODY": 45524, "OE": 36676, "OF": 22855, "OFF": 34343, "OG": 7909, "OH": 17809, "OIP": 39583, "OK": 7649, "OL": 3550, "OLD": 20843, "OLL": 26030, "OLOG": 33753, "OM": 3466, "OME": 15952, "ON": 1280, "OND": 25086, "ONE": 13545, "ONG": 22658, "ONS": 25028, "ONT": 31002, "OO": 28529, "OOL": 48412, "OP": 3921, "OPE": 36418, "OPS": 37901, "OR": 1568, "ORD": 17719, "ORE": 8458, "ORIG": 34891, "ORK": 18843, "ORN": 38373, "ORS": 18501, "ORT": 9831, "ORTS": 36710, "ORY": 18570, "OS": 2162, "OSE": 19238, "OSS": 18934, "OST": 10178, "OT": 2643, "OTA": 41397, "OTE": 37033, "OTES": 49643, "OTH": 44400, "OTO": 28192, "OTT": 42845, "OU": 6974, "OUR": 8469, "OURCE": 33991, "OUT": 17581, "OV": 34217, "OW": 4715, "OWER": 28880, "OWN": 26443, "OWNL": 34356, "OWNLOAD": 34632, "OX": 46613, "OY": 24324, "OYO": 48590, "Oak": 45020, "Ob": 7206, "Obama": 26389, "Object": 12876, "Obs": 28694, "Obviously": 32736, "Occ": 26335, "Occup": 44147, "Ocean": 42729, "Oct": 14425, "October": 6468, "Od": 14910, "Odpow": 25302, "Odpowiedz": 32378, "Of": 7179, "Off": 9348, "Offic": 18162, "Office": 19943, "Official": 27124, "Often": 50030, "Og": 35366, "Oh": 5942, "Ohio": 31832, "Oi": 48376, "Oil": 39483, "Ok": 14789, "Okay": 23718, "Oklahoma": 46453, "Ol": 21351, "Old": 16706, "Olymp": 48234, "Om": 22154, "Oman": 34499, "On": 2276, "Once": 9037, "One": 3920, "Online": 13784, "Only": 12296, "Ont": 42256, "Ooh": 34367, "Oops": 42457, "Op": 17879, "Open": 6906, "OpenUrl": 22836, "OpenUrlCrossRefPubMed": 36832, "Opening": 46718, "Opens": 4097, "Oper": 10933, "Opera": 17500, "Operation": 34895, "Opinion": 46261, "Opp": 32085, "Ops": 32809, "Opt": 21391, "Optim": 46389, "Option": 24548, "Optional": 43215, "Options": 30755, "Or": 3908, "Orange": 34331, "Order": 18629, "Oregon": 36172, "Organ": 17793, "Ori": 39190, "Orig": 12131, "Original": 19213, "Originally": 29719, "Os": 14310, "Ot": 40710, "Other": 6747, "Others": 35860, "Our": 4180, "Out": 6949, "Output": 36552, "Outro": 24698, "Outside": 44907, "Over": 6988, "Overall": 23419, "Overview": 32953, "Own": 26465, "Ox": 30226, "P": 81, "PA": 6147, "PAR": 23348, "PART": 49708, "PASS": 28105, "PATCH": 36412, "PATH": 45979, "PB": 45602, "PC": 8748, "PD": 11114, "PDF": 8065, "PE": 9921, "PER": 16189, "PF": 37840, "PG": 7858, "PGA": 50084, "PH": 13009, "PI": 16802, "PL": 6417, "PM": 6425, "PMC": 19394, "PN": 8738, "PO": 16707, "POL": 49047, "POR": 44455, "PORT": 20466, "POS": 31844, "POSE": 46091, "POST": 38694, "PP": 10390, "PR": 5106, "PRE": 33553, "PRESS": 31855, "PRO": 16730, "PS": 4056, "PT": 13368, "PU": 30056, "PUT": 38658, "PV": 48446, "PY": 26931, "Pa": 21646, "Pac": 19076, "Pacific": 24275, "Pack": 12167, "Package": 40462, "Packaging": 21608, "Pad": 9301, "Page": 10002, "Pages": 28802, "Pain": 37319, "Pak": 20702, "Pakistan": 25383, "Pal": 8254, "Palau": 36260, "Palest": 46854, "Palestine": 34863, "Pan": 13556, "Panama": 32431, "Pand": 45692, "Panel": 36137, "Pap": 25747, "Paper": 28592, "Papua": 35611, "Par": 7370, "Para": 22325, "Paraguay": 35046, "Param": 22416, "Parameter": 46484, "Parameters": 44158, "Parent": 27167, "Paris": 35567, "Park": 23879, "Part": 6649, "Particip": 33215, "Party": 25663, "Pas": 40059, "Pass": 10944, "Passed": 40835, "Password": 24568, "Past": 35891, "Pat": 10625, "Patch": 38479, "Path": 13956, "Patrick": 34706, "Paul": 11331, "Pay": 13774, "Payment": 38973, "Pe": 6464, "Peace": 43869, "Pear": 50138, "Ped": 34892, "Peer": 49033, "Pen": 32719, "Penn": 35535, "Pennsylvania": 49648, "People": 9453, "Per": 5636, "Perfect": 33846, "Performance": 28547, "Perhaps": 19881, "Perm": 36465, "Permalink": 36577, "Pero": 41913, "Pers": 28324, "Person": 12202, "Personal": 18947, "Peru": 31833, "Pet": 21585, "Peter": 16367, "Ph": 2590, "Phase": 50060, "Phil": 10886, "Philadelphia": 45297, "Philip": 48753, "Philipp": 22261, "Philippines": 29305, "Phone": 5514, "Phones": 40108, "Phot": 24606, "Photo": 9153, "Photos": 26509, "Phys": 42442, "Physical": 36093, "Pi": 18684, "Pic": 42102, "Pick": 32614, "Pict": 29678, "Picture": 41509, "Pieces": 33599, "Pier": 26859, "Pierre": 35036, "Pin": 19759, "Ping": 28275, "Pingback": 33760, "Pink": 48604, "Pinterest": 11460, "Pit": 31180, "Pitcairn": 38305, "Pl": 3577, "Place": 22970, "Plan": 18619, "Planet": 45924, "Plant": 47562, "Platform": 37702, "Play": 11004, "Player": 29879, "Players": 44961, "Playing": 49513, "Please": 5430, "Pledge": 19416, "Plug": 26691, "Plugin": 40606, "Plus": 14924, "Po": 15958, "Pocket": 22523, "Pod": 12766, "Podcast": 33110, "Point": 13578, "Points": 47391, "Pok": 31813, "Pol": 8282, "Poland": 26967, "Police": 20890, "Policy": 34671, "Polit": 17350, "Political": 35219, "Politics": 36854, "Poll": 36846, "Poly": 47313, "Pont": 46015, "Pool": 43860, "Pop": 15859, "Popular": 39642, "Population": 47343, "Por": 17131, "Port": 9113, "Portal": 39201, "Portland": 46454, "Portugal": 26837, "Pos": 29130, "Position": 32944, "Post": 2954, "Posted": 4491, "Posts": 17467, "Pot": 23239, "Pour": 17145, "Power": 12514, "Powered": 41270, "Pr": 4239, "Pra": 35354, "Pract": 38324, "Pre": 5857, "Prec": 38621, "Pred": 40482, "Pref": 40960, "Prem": 33854, "Premium": 34308, "Pres": 11023, "Present": 28141, "President": 14560, "Press": 6209, "Pretty": 43355, "Preview": 47704, "Previous": 23769, "Pri": 42573, "Price": 13930, "Prim": 22064, "Primary": 41503, "Prime": 25992, "Princ": 38384, "Prince": 42106, "Print": 9605, "Prior": 27602, "Privacy": 13200, "Private": 28676, "Pro": 2419, "Problem": 37072, "Process": 23279, "Produ": 29696, "Product": 13565, "Production": 39449, "Products": 45722, "Prof": 13738, "Profess": 19672, "Professional": 35095, "Professor": 30427, "Profile": 31516, "Program": 17640, "Project": 15481, "Prom": 14106, "Prop": 23289, "Properties": 49553, "Property": 23237, "Pros": 30101, "Prot": 18107, "Prov": 14006, "Provide": 46352, "Provider": 37027, "Proxy": 45606, "Ps": 16684, "Psych": 29685, "Pu": 49445, "Pub": 30954, "PubMed": 6787, "Publ": 12295, "Public": 11663, "Publication": 48792, "Published": 18814, "Publisher": 32005, "Puerto": 29651, "Pull": 39686, "Pur": 27575, "Purchase": 49919, "Pure": 50240, "Put": 18092, "Py": 24757, "Python": 35096, "Q": 82, "QL": 8039, "QM": 49741, "QQ": 39570, "QR": 49249, "QU": 9330, "QUE": 45265, "QUEST": 41031, "Qaeda": 46563, "Qatar": 32498, "Qt": 34594, "Qu": 3866, "Qual": 17198, "Quality": 29616, "Quando": 42727, "Quant": 28025, "Que": 12709, "Queen": 33258, "Query": 17792, "Quest": 14148, "Question": 30230, "Questions": 35524, "Qui": 49295, "Quick": 19274, "Quote": 27563, "QuÃ©": 32645, "R": 83, "RA": 4116, "RAM": 32028, "RANT": 22269, "RAW": 14008, "RAWING": 17166, "RAY": 46338, "RB": 30800, "RC": 8482, "RCX": 47333, "RD": 39590, "RE": 1950, "READ": 17901, "REAM": 48738, "REC": 49467, "RECT": 23548, "RED": 25455, "REE": 7564, "REG": 32606, "REL": 24620, "RELATED": 31183, "RES": 15797, "RESISTOR": 45430, "RET": 31380, "RF": 30416, "RFC": 17398, "RG": 41663, "RI": 8147, "RIS": 46911, "RL": 5917, "RM": 31011, "RN": 29613, "RNA": 21913, "RO": 2938, "ROL": 14194, "ROM": 12526, "ROOT": 37518, "ROP": 38854, "RP": 20172, "RR": 29736, "RS": 7887, "RSS": 31460, "RT": 12704, "RU": 39667, "RX": 46068, "RY": 23427, "Ra": 32413, "Rab": 42943, "Race": 40057, "Rachel": 42989, "Rad": 15425, "Radio": 27259, "Rain": 34721, "Raj": 43280, "Ram": 33865, "Random": 37729, "Range": 36273, "Rank": 30874, "Rap": 35276, "Rare": 49753, "Rate": 21668, "Rather": 41183, "Rating": 26315, "Raw": 30478, "Ray": 21404, "Re": 1266, "Read": 3530, "Reader": 40831, "Reading": 36018, "Ready": 31466, "Real": 14912, "Really": 30701, "Reb": 22349, "Rec": 5978, "Rece": 25062, "Recent": 25880, "Recently": 31292, "Recht": 49734, "Recipe": 48752, "Recomm": 25416, "Recommended": 33076, "Record": 27661, "Red": 9202, "Redd": 12243, "Reddit": 12416, "RedditLike": 46625, "Ref": 6504, "Refer": 37560, "Reference": 24156, "References": 16835, "Refrain": 38969, "Reg": 6756, "Regardless": 40534, "Region": 43067, "Regional": 47525, "Register": 26747, "Registration": 29224, "Regular": 40696, "Rel": 4504, "Related": 5482, "Relations": 46730, "Release": 26473, "Religion": 48815, "Rem": 8858, "Remember": 18077, "Remote": 42685, "Remove": 33201, "Ren": 25781, "Render": 44956, "Rep": 1584, "Replace": 23917, "Replies": 4383, "Reply": 1849, "ReplyDelete": 22526, "ReplyDeleteReplies": 39656, "ReplyDeleteRepliesReply": 5005, "ReplyDeleteRepliesReplyAnonymous": 23794, "ReplyDeleteRepliesReplyUnknown": 20997, "Report": 10782, "Reporting": 30632, "Reports": 48526, "Represent": 44779, "Represents": 34277, "Republic": 18113, "Republican": 29521, "Republicans": 44196, "Requ": 25290, "Request": 16851, "Require": 48589, "Required": 40607, "Res": 5225, "Research": 15514, "Researchers": 36731, "Reset": 48362, "Resource": 38703, "Resources": 36213, "Resp": 6059, "Responder": 9141, "ResponderEliminarRespuestas": 27542, "ResponderEliminarRespuestasResponder": 30700, "Respons": 41332, "Response": 28638, "Rest": 18317, "Result": 26669, "Results": 26182, "Ret": 8283, "Retail": 47609, "Return": 20557, "Returns": 26163, "Retweet": 43096, "Reuse": 27106, "Reuters": 21261, "Rev": 32856, "Review": 12782, "Reviewed": 42485, "Reviews": 42222, "Rew": 33737, "Rh": 27938, "Ri": 49852, "Ric": 45564, "Rich": 13309, "Richard": 18808, "Rick": 39572, "Right": 13927, "Ring": 46019, "Ris": 18999, "Risk": 47251, "Rispondi": 28454, "River": 42915, "Ro": 19540, "Road": 35911, "Rob": 13446, "Rober": 12746, "Robert": 14626, "Robin": 45016, "Rock": 19629, "Rod": 30144, "Roger": 43676, "Role": 48261, "Roll": 26486, "Rom": 24297, "Roman": 19132, "Romania": 30317, "Ron": 26678, "Room": 31634, "Root": 44213, "Ros": 32188, "Rose": 32069, "Ross": 42794, "Rot": 37656, "Round": 30776, "Route": 44601, "Row": 37522, "Roy": 33537, "Royal": 27912, "Rs": 31973, "Ru": 37216, "Rub": 26167, "Ruby": 48235, "Rule": 42872, "Run": 18424, "Running": 33463, "Runtime": 46158, "Russ": 11107, "Russia": 18893, "Russian": 23313, "Rwanda": 35468, "Ry": 43999, "Ryan": 27013, "RÃ©": 15187, "RÃ©pondre": 26236, "RÃ©union": 41472, "S": 84, "SA": 5160, "SAN": 48079, "SB": 21998, "SC": 5901, "SCH": 41100, "SD": 12302, "SE": 6083, "SEC": 32219, "SEE": 39545, "SEL": 23485, "SELECT": 37189, "SEM": 46877, "SEO": 49630, "SER": 35437, "SET": 32012, "SF": 12428, "SFW": 26218, "SG": 43504, "SH": 9849, "SHARE": 37436, "SI": 14714, "SIZE": 49494, "SK": 15150, "SL": 13402, "SM": 14021, "SN": 11823, "SO": 11511, "SON": 14181, "SOURCE": 44893, "SP": 4645, "SQL": 15398, "SR": 14655, "SS": 3843, "SSL": 26977, "ST": 3063, "STAR": 48260, "STE": 44489, "STEM": 28770, "STR": 23150, "SU": 13868, "SUP": 46594, "SV": 41615, "SW": 11212, "SX": 46121, "SY": 29153, "Sa": 21692, "Sab": 40066, "Sac": 42134, "Sad": 33295, "Saf": 13771, "Safari": 17762, "Safe": 34708, "Safety": 41493, "Sah": 43843, "Saint": 8981, "Sal": 13371, "Sale": 40245, "Sales": 33683, "Salt": 45550, "Sam": 14539, "Same": 36036, "Samo": 34318, "Samoa": 36074, "Sample": 34575, "Samsung": 17612, "San": 11573, "Sand": 22994, "Sanders": 47777, "Sant": 50061, "Santa": 34554, "Sao": 32816, "Sar": 19873, "Sarah": 27907, "Sat": 19639, "Saturday": 21489, "Saudi": 20556, "Sav": 37332, "Save": 12894, "Sax": 44138, "Say": 22468, "Sc": 4242, "Scale": 47781, "Sch": 7496, "Sche": 27009, "School": 23361, "Sci": 43751, "Science": 22253, "Scient": 24929, "Scientists": 39730, "Scope": 47898, "Score": 33225, "Scot": 43417, "Scott": 19580, "Screen": 19725, "Screenshot": 42890, "Script": 6766, "Scroll": 46276, "Se": 2694, "Sea": 35270, "Sean": 34679, "Search": 9245, "Season": 23571, "Seattle": 44327, "Sec": 7203, "Second": 15139, "Secret": 28512, "Section": 21202, "Secure": 47888, "Security": 21485, "See": 5628, "Seg": 27949, "Sel": 30784, "Select": 9308, "Self": 18835, "Sem": 17170, "Semitic": 48438, "Semitism": 44271, "Sen": 12112, "Senate": 34235, "Senator": 47462, "Send": 18338, "Senegal": 35430, "Senior": 29902, "Sense": 40559, "Sent": 43320, "Sep": 16238, "Sept": 45204, "September": 6481, "Ser": 8116, "Serbia": 31954, "Serial": 37362, "Series": 27236, "Serv": 34121, "Server": 23362, "Service": 13184, "Services": 29523, "Session": 29699, "Set": 9385, "Sets": 34553, "Setting": 41882, "Settings": 45332, "Seven": 41372, "Sever": 20506, "Several": 23902, "Sex": 15943, "Sexual": 48118, "Seychelles": 36085, "Sh": 1594, "Shadow": 44410, "Share": 2923, "ShareTweet": 41530, "Shares": 46214, "Sharing": 47148, "She": 4891, "Shell": 36250, "Sher": 32886, "Shift": 50119, "Ship": 40731, "Shipping": 21710, "Ships": 36618, "Shirt": 46460, "Shop": 15204, "Short": 19720, "Shot": 25326, "Should": 21154, "Show": 11910, "Si": 11433, "Side": 28008, "Sie": 20468, "Sierra": 30669, "Sign": 7487, "Signed": 45675, "Sil": 12316, "Silicon": 30004, "Silver": 27811, "Sim": 8662, "Similar": 37176, "Similarly": 40760, "Simon": 33050, "Simple": 29672, "Simply": 37022, "Sin": 35561, "Since": 8473, "Sing": 13005, "Singapore": 25184, "Single": 27721, "Sint": 38027, "Sir": 32525, "Sismo": 18432, "Sit": 44082, "Site": 15424, "Six": 28999, "Size": 15710, "Sk": 12216, "Skin": 42501, "Skip": 38335, "Sky": 21339, "Skype": 46205, "Sl": 7439, "Sleep": 43681, "Slovakia": 34340, "Slovenia": 32251, "Slow": 22779, "Sm": 7497, "Small": 20680, "Smart": 21810, "Smith": 22013, "Smo": 44342, "Sn": 19407, "Snap": 48445, "Snow": 34978, "So": 2659, "Soc": 42351, "Social": 14121, "Socket": 47659, "Soft": 29491, "Software": 23940, "Sol": 16713, "Solar": 36896, "Sold": 47910, "Solid": 49871, "Solomon": 32763, "Som": 22199, "Somalia": 35548, "Some": 5468, "Someone": 37796, "Something": 25840, "Sometimes": 17681, "Son": 24887, "Song": 41962, "Sony": 30826, "Soon": 46737, "Soph": 45913, "Sorry": 17472, "Sort": 29829, "Sou": 25742, "Soul": 49837, "Sound": 28149, "Source": 8849, "Sources": 32727, "South": 8620, "Southern": 35178, "Sp": 3321, "Space": 18417, "Spain": 22670, "Spanish": 33636, "Spe": 11164, "Speaking": 22454, "Spec": 9516, "Special": 15164, "Specific": 37119, "Speed": 27601, "Spl": 35829, "Sport": 28492, "Sports": 19119, "Spot": 27264, "Spr": 24162, "Spratly": 44415, "Spread": 48670, "Spring": 24008, "Square": 44071, "Sri": 29135, "St": 1237, "Stack": 30065, "Staff": 31357, "Stage": 35117, "Stan": 30346, "Stand": 13610, "Standard": 20233, "Star": 8940, "StarWars": 46645, "Stars": 37539, "Start": 10740, "Starting": 28240, "Stat": 18614, "State": 10732, "States": 45582, "Station": 14950, "Stats": 47893, "Status": 16905, "Stay": 18100, "Ste": 7986, "Steel": 49013, "Step": 9016, "Stephen": 26566, "Steve": 18411, "Steven": 34373, "Still": 15276, "Sto": 43181, "Stock": 24332, "Stone": 34361, "Stop": 22648, "Storage": 35569, "Store": 24635, "Storm": 44525, "Story": 23885, "Str": 13888, "Stra": 36332, "Stre": 33057, "Stream": 19645, "Street": 31390, "String": 11897, "Strong": 35740, "Stud": 10918, "Student": 35574, "Students": 28477, "Studio": 32264, "Study": 41282, "Sty": 18972, "Style": 24656, "Su": 12937, "Sub": 8493, "Subject": 28294, "Submit": 26148, "Subs": 31815, "Subscribe": 14377, "Success": 40215, "Such": 24472, "Sud": 23679, "Sudan": 34503, "Suggest": 36003, "Suite": 45854, "Sum": 18609, "Summary": 25935, "Summer": 26116, "Sun": 14689, "Sund": 20038, "Sunday": 22321, "Sup": 39704, "Super": 12101, "Supp": 7563, "Supply": 21558, "Support": 14920, "Sur": 10535, "Sure": 26996, "Surface": 49673, "Suriname": 36222, "Survivor": 49086, "Sus": 23372, "Susan": 41326, "Sv": 38312, "Svalbard": 38672, "Sw": 9810, "Swaziland": 36837, "Sweden": 25917, "Sweet": 33485, "Switch": 37096, "Switzerland": 28639, "Sy": 15698, "Sydney": 47878, "Sym": 34545, "Symbol": 46474, "Syn": 40818, "Sync": 40386, "Synt": 32053, "Syntax": 43467, "System": 14953, "Sz": 46419, "T": 85, "TA": 6167, "TAIN": 32225, "TB": 22474, "TC": 5013, "TCHA": 34504, "TD": 13692, "TE": 8966, "TER": 5705, "TF": 37109, "TG": 48586, "TH": 4996, "THE": 14888, "THER": 21840, "TI": 23375, "TIM": 43959, "TION": 21378, "TIS": 15547, "TIT": 43884, "TL": 25192, "TM": 20993, "TN": 17164, "TO": 10337, "TON": 17444, "TOP": 42392, "TOR": 32119, "TP": 7152, "TPS": 34200, "TR": 5355, "TS": 4505, "TSD": 28989, "TT": 16023, "TU": 45356, "TV": 6287, "TW": 40909, "TWEET": 48671, "TX": 26899, "TY": 10142, "TYPE": 22710, "Ta": 30159, "Tab": 35038, "Table": 10624, "Tag": 20219, "Tagged": 17185, "Tags": 11791, "Taiwan": 27184, "Tajikistan": 36353, "Tak": 35957, "Take": 11376, "Taking": 31721, "Tal": 32952, "Talk": 19060, "Tam": 45729, "Tanzania": 35007, "Tap": 39272, "Tar": 19240, "Target": 26301, "Task": 41193, "Tax": 23381, "Taylor": 36784, "Te": 5304, "TeX": 49305, "Team": 17496, "Tech": 15949, "Techn": 14659, "Technical": 37653, "Technology": 33931, "Ted": 48582, "Tek": 38416, "Tel": 25891, "Tele": 14783, "Telegram": 39765, "Tell": 20393, "Tem": 25395, "Template": 34418, "Ten": 23184, "Tennessee": 46286, "Ter": 20311, "Term": 13265, "Terms": 20842, "Tes": 41970, "Tesla": 50254, "Test": 9740, "Testing": 48971, "Testpattern": 21446, "Tex": 18046, "Texas": 22045, "Text": 11175, "Th": 765, "Thailand": 28463, "Thank": 8531, "Thanks": 8465, "That": 3411, "The": 545, "Their": 22151, "Then": 8881, "Ther": 29042, "There": 2389, "Therefore": 35568, "These": 5392, "They": 4241, "Thing": 48287, "Things": 25654, "Think": 22703, "Third": 23028, "This": 1313, "Thom": 48279, "Thomas": 19384, "Those": 14197, "Though": 16935, "Thought": 45393, "Thread": 26266, "Three": 16687, "Through": 17209, "Throughout": 37649, "Throw": 49432, "Thu": 32048, "Thursday": 22472, "Thus": 31056, "Ti": 30596, "Tickets": 43916, "Tim": 13461, "Time": 8343, "Times": 31432, "Tip": 29728, "Tips": 34223, "Title": 18568, "To": 2557, "Today": 9803, "Together": 41773, "Togo": 36031, "Tok": 17263, "Tokelau": 38191, "Token": 39413, "Tom": 13775, "Ton": 35114, "Tone": 46921, "Tonga": 35636, "Tony": 30675, "Too": 26387, "Tool": 31920, "Tools": 32168, "Top": 7291, "Topics": 16881, "Tor": 17288, "Toronto": 42023, "Torrent": 49737, "Tot": 48355, "Total": 14120, "Touch": 38701, "Tour": 27530, "Tout": 47626, "Town": 42680, "Toy": 41594, "Tr": 2944, "Tra": 10727, "Track": 24696, "Trad": 49096, "Trade": 35819, "Traditional": 46859, "Train": 45525, "Training": 39968, "Trans": 7740, "Transfer": 37484, "Transport": 30692, "Transportation": 47077, "Trav": 48852, "Travel": 22429, "Tre": 35243, "Treat": 46870, "Tree": 29161, "Trend": 38889, "Tri": 23678, "Trib": 49620, "Trinidad": 33523, "Tro": 42856, "True": 23228, "Trump": 9265, "Trust": 28630, "Truth": 42103, "Try": 18366, "Ts": 37278, "Tu": 16509, "Tube": 6473, "Tue": 35302, "Tuesday": 22679, "Tumblr": 16136, "TumblrPinterest": 47071, "Tunes": 17710, "Tunisia": 34574, "Tur": 11122, "Turk": 26185, "Turkey": 23934, "Turkmenistan": 36542, "Turks": 36490, "Turn": 22686, "Tuvalu": 36711, "Tw": 20224, "Tweet": 11926, "Twitter": 6771, "TwitterFacebook": 47120, "Two": 10226, "Ty": 24348, "Typ": 32449, "Type": 7598, "Types": 32970, "U": 86, "UA": 28845, "UAL": 27975, "UB": 12044, "UC": 11021, "UCK": 39417, "UD": 8367, "UE": 7783, "UF": 24552, "UG": 10913, "UGH": 39073, "UI": 14882, "UIT": 33001, "UK": 11883, "UL": 4051, "ULA": 49868, "ULAR": 34832, "ULD": 29298, "ULE": 27104, "ULL": 10295, "ULT": 16003, "UM": 6239, "UMBER": 36395, "UMN": 35156, "UMP": 39957, "UN": 3967, "UND": 17810, "UNG": 31281, "UNT": 21740, "UP": 6647, "UPD": 25612, "UPDATE": 29974, "UR": 2741, "URA": 45927, "URE": 12423, "URES": 38729, "URI": 49168, "URL": 13833, "URN": 33894, "URR": 40987, "URS": 44104, "US": 2279, "USA": 12730, "USB": 36269, "USD": 18754, "USE": 18944, "USER": 41370, "USH": 32621, "USS": 36663, "UST": 11288, "USTOM": 49475, "USTR": 39033, "UT": 3573, "UTC": 20711, "UTE": 29534, "UTERS": 31297, "UTH": 23768, "UTHOR": 47233, "UTION": 43552, "UU": 44650, "UV": 28107, "UX": 20913, "UY": 24802, "UZ": 47551, "Ub": 35421, "Uganda": 34224, "Uh": 29448, "Uk": 19992, "Ukraine": 26980, "Ul": 39234, "Ult": 19020, "Ultimately": 41368, "Ultra": 48228, "Um": 22637, "Un": 2199, "Una": 31940, "Und": 19704, "Under": 10355, "Understanding": 39614, "Une": 27978, "Unfortunately": 19517, "Union": 28806, "Unis": 38105, "Unit": 30891, "United": 7182, "Univers": 17223, "Universal": 34015, "University": 14903, "Unknown": 10560, "Unknownsaid": 40195, "Unless": 36987, "Unlike": 27224, "Uns": 37194, "Until": 24422, "Up": 5744, "Update": 14717, "Updated": 17586, "Upload": 39734, "Upon": 29159, "Ur": 21517, "Urban": 44264, "Url": 9735, "Uruguay": 33390, "Us": 6081, "Usage": 46188, "Use": 9618, "Used": 34078, "User": 12480, "Username": 45543, "Users": 29462, "Using": 14483, "Usually": 50120, "Ut": 12483, "Utah": 45341, "Util": 46763, "Utilisateur": 39473, "Uz": 45125, "Uzbekistan": 35549, "V": 87, "VA": 9717, "VAIL": 38552, "VAILABLE": 45103, "VAL": 18368, "VALUE": 27878, "VB": 44052, "VC": 15716, "VD": 9383, "VE": 6850, "VED": 37706, "VEL": 22805, "VEN": 43940, "VER": 6198, "VERS": 32832, "VERSION": 45002, "VERTIS": 16611, "VERTISEMENT": 17734, "VG": 15963, "VI": 16377, "VICE": 43143, "VID": 3112, "VIDEO": 44581, "VIDIA": 26490, "VIE": 21540, "VIEW": 26665, "VIS": 28675, "VL": 42665, "VM": 16037, "VO": 10018, "VP": 13181, "VPN": 31964, "VR": 16524, "VS": 26151, "VT": 33968, "Va": 34737, "Vac": 47717, "Val": 7917, "Valid": 48341, "Value": 13751, "Van": 23164, "Vanuatu": 36310, "Var": 24709, "Vari": 29581, "Various": 49330, "Vatican": 33361, "Ve": 15530, "Vector": 49135, "Vegan": 46839, "Vel": 41684, "Ven": 29347, "Venezuela": 30493, "Ver": 9095, "Vers": 12550, "Verse": 7827, "Version": 20383, "Verso": 41841, "Vert": 38617, "Very": 19014, "Veter": 46931, "Vi": 17705, "Via": 33623, "Vict": 22087, "Victor": 48898, "Victoria": 46168, "Video": 11924, "Videos": 43879, "Vietnam": 29189, "View": 5292, "Views": 47902, "Vin": 32742, "Virgin": 19587, "Virginia": 34606, "Virtual": 30468, "Vis": 10656, "Vision": 40406, "Visit": 18495, "Visual": 32690, "Vit": 34328, "Vo": 20443, "Voc": 47105, "Voice": 43848, "Vol": 10784, "Volume": 21736, "VolumeType": 44466, "Von": 47347, "Voor": 44361, "Vor": 42539, "Vote": 16481, "Vous": 29578, "Vs": 25033, "W": 88, "WA": 14550, "WAR": 49995, "WARE": 38536, "WASHINGTON": 32345, "WAY": 35310, "WB": 41262, "WC": 22534, "WD": 20073, "WE": 9569, "WEB": 45630, "WEET": 36560, "WF": 27988, "WG": 33906, "WH": 12219, "WHAT": 44353, "WHO": 39034, "WI": 27457, "WIN": 49874, "WL": 33427, "WM": 32474, "WN": 20827, "WO": 23024, "WORK": 41766, "WP": 22020, "WR": 18258, "WS": 6937, "WT": 27653, "WV": 37315, "WW": 25466, "WY": 38180, "Wa": 39149, "Wait": 31793, "Wal": 27863, "Walk": 22432, "Wall": 19180, "Wallis": 37253, "Walter": 48282, "Want": 16608, "War": 15011, "Ware": 41206, "Warning": 27953, "Warren": 49987, "Wars": 31408, "Was": 17531, "Washington": 17829, "Wat": 29494, "Watch": 10577, "Water": 17182, "Wave": 49491, "Way": 25274, "We": 1156, "Weather": 44031, "Web": 8048, "WebView": 34775, "Website": 17003, "Wed": 16257, "Wedding": 26454, "Wednesday": 23266, "Week": 18807, "Weekly": 45651, "Weight": 28273, "Wel": 37003, "Welcome": 12043, "Well": 7687, "Wenn": 25438, "Wer": 34264, "West": 12536, "Western": 19570, "Wh": 1217, "What": 2230, "Whatever": 29745, "WhatsApp": 22011, "When": 2604, "Whenever": 42145, "Where": 8599, "Whether": 16442, "Which": 16296, "While": 5004, "White": 12989, "Who": 8671, "Why": 5457, "Wi": 41595, "Widget": 40081, "Width": 38783, "Wie": 30919, "Wik": 19746, "Wiki": 16753, "Wikimedia": 49875, "Wikipedia": 34851, "Wil": 23561, "Wild": 25782, "Will": 8309, "William": 18816, "Williams": 35938, "Wilson": 46637, "Win": 19297, "Wind": 40413, "Window": 31318, "Windows": 16971, "Winter": 32346, "Wir": 17996, "Wire": 26827, "Wisconsin": 42865, "With": 3759, "Within": 30933, "Without": 22963, "Wo": 31393, "Wolf": 41401, "Women": 19236, "Won": 41140, "Wonder": 39394, "Wood": 22633, "Wor": 49210, "Word": 18399, "WordPress": 36841, "Words": 31306, "Work": 10557, "Working": 26098, "Works": 20729, "World": 8537, "WorldCat": 42605, "Would": 21189, "Wow": 23231, "Wr": 43394, "Writ": 13523, "Write": 21082, "Writer": 39243, "Writing": 30682, "Written": 27777, "Wu": 21806, "Wy": 30643, "X": 89, "XL": 19252, "XM": 36076, "XML": 33635, "XP": 30545, "XR": 35981, "XT": 29687, "XV": 39423, "XX": 11249, "XXX": 45196, "XY": 38693, "Xi": 50146, "Xiv": 40375, "Xk": 38067, "Y": 90, "YA": 47297, "YC": 19807, "YCw": 31845, "YE": 36601, "YES": 46771, "YL": 43154, "YN": 33997, "YP": 41598, "YR": 50185, "YS": 16473, "YT": 48068, "YW": 35237, "YX": 41899, "YY": 27634, "Ya": 33509, "Ye": 45416, "Yeah": 10136, "Year": 17410, "Years": 48946, "Yellow": 43136, "Yemen": 32583, "Yes": 5911, "Yesterday": 37687, "Yet": 18033, "Yo": 21422, "York": 46541, "You": 1536, "YouTube": 32730, "Young": 22906, "Your": 4819, "Z": 91, "ZA": 24101, "ZD": 47787, "ZE": 33357, "ZN": 44866, "ZT": 39119, "ZW": 35348, "ZX": 31256, "ZY": 42566, "ZZ": 19232, "Za": 39178, "Zambia": 35708, "Ze": 26083, "Zero": 37501, "Zimbabwe": 32289, "Zm": 48627, "Zo": 45636, "Zone": 44595, "Zu": 47375, "Zw": 40117, "[": 92, "[\"": 33153, "['": 25721, "[/": 10620, "[[": 23195, "[]": 4532, "[âĢ¦]": 18555, "\\": 93, "\\\"": 7501, "\\\",": 24389, "\\\",\\": 44419, "\\\":": 20166, "\\\":\\\"": 48879, "\\\";": 31210, "\\'": 16241, "\\',": 24299, "\\',\\'": 24425, "\\)": 25427, "\\-": 48963, "\\/": 17905, "\\\\": 13343, "]": 94, "](": 37918, "])": 16312, "]).": 45365, "]+": 38627, "],": 5778, "].": 4630, "]/": 35769, "]:": 14273, "];": 16141, "]=>": 3994, "][": 4749, "]]": 8525, "]]>": 19834, "^": 95, "^\"": 5398, "^{": 23389, "_": 96, "_%": 38475, "_-": 22785, "_-_": 34416, "_.": 23026, "__": 3780, "___": 20347, "_{": 17604, "`": 97, "`,": 32636, "`.": 34560, "`.`": 43383, "``": 40723, "a": 98, "aF": 46735, "aM": 34191, "aa": 5838, "aaS": 32355, "aaa": 48452, "aaf": 41125, "aal": 13908, "aan": 5554, "aar": 28407, "aard": 35299, "aat": 7197, "ab": 382, "aba": 7925, "abad": 16936, "abal": 33144, "abama": 11454, "aban": 23155, "abank": 38628, "abase": 5348, "abases": 15779, "abay": 42379, "abb": 23642, "abc": 42836, "abe": 5126, "abei": 14401, "abel": 9149, "aben": 13862, "aber": 28218, "abet": 7301, "abetes": 9855, "abeth": 9830, "abetic": 36550, "abi": 17625, "abil": 6348, "abile": 15220, "abili": 25219, "abilidad": 37726, "abilidade": 30966, "abilit": 13372, "abilities": 5900, "ability": 1726, "abilitÃ©": 25144, "abilitÃł": 30342, "abin": 35464, "abino": 32862, "abis": 9514, "abit": 38647, "abl": 13020, "able": 524, "abled": 5446, "ables": 2732, "abling": 11250, "ablish": 21249, "ablished": 24833, "ablishment": 36698, "ablo": 20295, "ably": 1765, "abo": 25753, "abol": 30273, "abolic": 40561, "abor": 2259, "abord": 42046, "about": 10948, "above": 41094, "abre": 37070, "abs": 9695, "abul": 18854, "abulary": 24225, "abus": 37139, "abwe": 18641, "aby": 3254, "abyrin": 45486, "abyrinth": 49403, "ac": 312, "aca": 10475, "acad": 40316, "acado": 40718, "acao": 39481, "acas": 43059, "acc": 3173, "accept": 15728, "acceptable": 24260, "access": 12611, "accessible": 41993, "acci": 28637, "accia": 37068, "accio": 43423, "acco": 12204, "accomp": 48119, "accord": 44535, "account": 22564, "accur": 17918, "accÃ¨s": 35470, "ace": 573, "acebook": 1714, "aced": 3084, "acedonia": 25511, "acement": 6150, "acements": 33735, "acer": 6788, "acerb": 28936, "aces": 2236, "acet": 37852, "aceut": 14622, "aceutical": 15466, "acey": 26176, "ach": 588, "acha": 33343, "achat": 41468, "ache": 3837, "acheca": 41753, "ached": 3604, "achel": 8974, "achelor": 16410, "achen": 20183, "acher": 5412, "achers": 18380, "aches": 4145, "achi": 20419, "achim": 46424, "aching": 3413, "achment": 5775, "acho": 47802, "achsen": 48566, "acht": 3697, "achte": 29786, "achten": 14856, "achu": 41947, "achusetts": 10398, "aci": 8549, "acia": 15549, "acial": 19350, "acias": 27790, "acidad": 47182, "acie": 33137, "acier": 31363, "acies": 15218, "acija": 42983, "acije": 38834, "acin": 28707, "acing": 4815, "acio": 27485, "acion": 12525, "acionais": 47995, "acional": 10617, "aciones": 10283, "acious": 21942, "acity": 13779, "aciÃ³": 18447, "aciÃ³n": 3608, "acja": 22872, "acje": 29113, "acji": 12872, "acjÄĻ": 39619, "ack": 480, "acked": 9277, "acker": 6865, "acking": 6420, "ackle": 48467, "acks": 5689, "acl": 49807, "acle": 6952, "acles": 13346, "aco": 9315, "acock": 49676, "acom": 33778, "acon": 10458, "acons": 33204, "acqu": 22815, "acqua": 49667, "acre": 17665, "acs": 22271, "act": 502, "acted": 41356, "acter": 5102, "acterial": 46706, "acters": 27039, "actic": 15837, "actical": 34568, "acting": 35709, "action": 2819, "actions": 6160, "activ": 13360, "activate": 48853, "activated": 43974, "active": 7363, "actively": 40604, "activity": 22222, "activitÃ©": 49843, "actly": 31291, "actor": 12495, "actory": 16742, "acts": 12511, "actual": 37057, "actus": 47899, "acular": 15108, "aculture": 46477, "acy": 1334, "acyj": 28318, "acz": 18564, "acÃŃ": 43220, "acÄĥ": 48284, "ad": 324, "ada": 1418, "adal": 21311, "adalafil": 44553, "adam": 49858, "adamente": 36287, "adan": 32878, "adapt": 49380, "adas": 5807, "adata": 16079, "adav": 49177, "aday": 49266, "adays": 21838, "adchoices": 47060, "add": 3334, "added": 35868, "adder": 27853, "adding": 24518, "addle": 25919, "addr": 34870, "address": 25162, "addy": 14996, "ade": 706, "aded": 10896, "adel": 7792, "adeloupe": 30963, "adelph": 10467, "adelphia": 10654, "adem": 22904, "ademie": 49120, "aden": 8320, "adena": 45480, "adeon": 30220, "adequ": 22817, "ader": 6112, "aders": 22973, "ades": 2336, "adesh": 12409, "adh": 28104, "adi": 9188, "adia": 31311, "adian": 18481, "adic": 32485, "adin": 35011, "ading": 5708, "aditional": 28604, "adium": 8553, "adjust": 31865, "adjusted": 45130, "adle": 46098, "admin": 18665, "administ": 34762, "ado": 1522, "ador": 4251, "adora": 17384, "adoras": 40121, "adores": 10987, "adors": 38371, "ados": 3222, "adow": 7051, "adows": 17713, "adresse": 35166, "ads": 5738, "adt": 10140, "adu": 35240, "adv": 24612, "advant": 17747, "ady": 5322, "ae": 4919, "aeda": 27305, "ael": 3304, "aer": 35397, "af": 1472, "afa": 32323, "afe": 7867, "afel": 44028, "afen": 36436, "aff": 1939, "affe": 22532, "affen": 25775, "affer": 49044, "affirm": 44206, "afi": 28357, "afia": 32467, "afil": 25172, "afka": 42602, "afone": 39494, "afood": 26788, "aft": 4711, "after": 11130, "ag": 353, "aga": 7548, "again": 23305, "against": 45496, "agan": 9945, "agar": 25719, "agara": 45865, "agascar": 24968, "age": 481, "aged": 3014, "agem": 11799, "agement": 3646, "agen": 3632, "agency": 50009, "agens": 14015, "agent": 22448, "ager": 3339, "agers": 12806, "ages": 911, "agg": 7129, "agged": 8548, "agger": 12465, "aggi": 19121, "agging": 44177, "aggio": 11912, "agh": 27420, "agher": 41001, "aghetti": 42548, "agi": 19708, "agin": 34033, "agine": 12656, "aging": 3002, "agini": 37762, "agit": 29761, "agl": 49224, "agle": 23823, "agles": 50234, "agli": 43824, "aglia": 44705, "agment": 29824, "agn": 3540, "agna": 24622, "agne": 11070, "agner": 18506, "agno": 45131, "ago": 3572, "agog": 24067, "agogue": 43399, "agon": 4204, "agonal": 34365, "agoon": 47010, "agos": 48082, "agr": 16385, "agra": 10410, "agram": 4708, "agrams": 31235, "agraph": 10264, "ags": 3055, "agt": 18517, "agu": 9729, "agua": 21957, "aguay": 26412, "ague": 2814, "agues": 7493, "agus": 36762, "agy": 44814, "ah": 801, "aha": 8779, "ahah": 45929, "ahan": 17983, "ahaw": 25965, "ahawks": 29813, "ahi": 36652, "ahl": 5979, "aho": 17435, "ahoma": 12426, "ahoo": 10195, "ahr": 5144, "ahren": 8752, "ahu": 14320, "ai": 1161, "aiM": 29890, "aic": 40471, "aid": 1944, "aide": 38033, "aient": 25601, "aign": 2555, "aii": 36196, "ail": 504, "ailability": 8181, "ailable": 1053, "ailand": 12825, "ailed": 9123, "ailing": 12125, "aille": 20108, "ailleurs": 38188, "ails": 1887, "ailure": 23749, "aily": 3060, "ailym": 12277, "ailymail": 12696, "aim": 1757, "aime": 32109, "ain": 436, "aina": 46080, "aine": 4993, "ained": 2024, "ainen": 31828, "ainer": 15844, "ainers": 43838, "aines": 17030, "aining": 2726, "ainless": 14340, "ainment": 49306, "ains": 1684, "aint": 2395, "ainte": 40414, "ainted": 20464, "aints": 8547, "air": 1055, "aird": 42778, "aire": 5353, "aired": 22127, "aires": 6688, "airie": 24570, "airo": 23529, "airs": 4108, "airy": 14690, "ais": 1261, "aise": 5303, "aiser": 24758, "aison": 25674, "aisse": 34427, "aisy": 31624, "ait": 1545, "aiti": 19444, "aiting": 16333, "aiver": 22337, "aiwan": 11821, "aj": 992, "aja": 10671, "ajan": 37122, "aje": 10627, "ajes": 37969, "aji": 27690, "ajik": 28124, "ajikistan": 29919, "ajo": 10853, "ajor": 1864, "aju": 18235, "ajÃŃ": 38533, "ajÄħ": 8705, "ajÄħc": 20979, "ajÄħce": 40855, "ak": 466, "aka": 7715, "akam": 19561, "akamai": 27567, "akan": 16696, "akc": 47210, "ake": 569, "aked": 6536, "aken": 2235, "akening": 29945, "aker": 3105, "akers": 4027, "akes": 1283, "akespe": 20017, "akespeare": 20256, "akh": 11807, "akhstan": 23574, "aki": 8830, "akia": 19680, "akin": 21070, "aking": 1008, "akis": 32575, "akk": 21597, "ako": 13575, "akov": 36707, "aks": 4237, "akse": 39617, "aksi": 41788, "akt": 4420, "akte": 16392, "akter": 25221, "aktion": 29535, "aktiv": 32476, "aku": 16232, "aky": 19424, "al": 279, "ala": 3835, "alable": 44921, "alach": 45388, "alah": 26021, "alam": 25298, "alan": 23994, "aland": 7609, "alar": 29931, "album": 33739, "alc": 11020, "ald": 2010, "alda": 24123, "alde": 29015, "aldi": 35864, "aldives": 26655, "aldo": 30727, "ale": 841, "aleb": 42616, "aled": 4066, "aleigh": 39271, "alen": 15552, "aler": 10496, "alers": 47976, "ales": 2710, "alex": 47542, "aley": 21569, "alez": 27114, "alf": 2112, "alg": 20671, "algia": 26731, "ali": 3492, "alia": 10263, "alie": 47660, "aliers": 43735, "align": 6188, "aligncenter": 11659, "alignleft": 36679, "alignnone": 14670, "alignright": 43850, "alin": 22864, "aling": 4048, "alink": 32710, "alion": 43710, "alis": 26034, "alism": 26748, "alities": 40407, "ality": 1504, "alk": 1145, "alkland": 32179, "all": 459, "alla": 7807, "allah": 45974, "allas": 10152, "alle": 5137, "alled": 6250, "allel": 11501, "allen": 20350, "aller": 4462, "alleries": 22671, "allery": 6409, "alles": 39182, "allets": 32755, "alli": 25000, "allic": 26321, "alling": 10687, "allis": 40339, "allo": 24383, "alloc": 42455, "allon": 47758, "allow": 10955, "allowed": 44427, "allows": 49605, "alls": 4124, "ally": 531, "alm": 48200, "almost": 40231, "alo": 6919, "alog": 38403, "alogy": 48883, "alon": 31972, "alone": 21772, "along": 31630, "alore": 29163, "alous": 21807, "alph": 18987, "alpha": 26149, "als": 917, "alsa": 31007, "alse": 4607, "also": 16496, "alt": 1984, "alta": 11698, "alte": 48719, "alten": 29088, "alter": 21514, "altern": 33439, "altet": 50158, "alth": 1026, "although": 22649, "alties": 15795, "alto": 44440, "altra": 38318, "altro": 35652, "altung": 22631, "alty": 10197, "alu": 30961, "always": 39123, "aly": 8625, "am": 327, "amM": 44552, "ama": 1748, "amaan": 50251, "amac": 17907, "amacare": 18983, "amaha": 17869, "amaica": 20555, "aman": 9920, "amar": 30089, "amas": 12091, "amat": 36559, "amation": 40411, "amazon": 15340, "amazonaws": 44728, "amb": 2226, "amba": 27761, "ambda": 41805, "amber": 9899, "ambi": 39407, "ambia": 16860, "ambique": 26273, "ambo": 23022, "ambodia": 22235, "amboo": 30902, "ambots": 48477, "amburg": 20188, "amburger": 38160, "amd": 41027, "ame": 542, "amed": 3344, "amedi": 44478, "amel": 19705, "amen": 11012, "ament": 1339, "amental": 29958, "amente": 3446, "amenti": 20138, "amento": 3906, "amentos": 19401, "aments": 25445, "amer": 6990, "americ": 41809, "american": 38915, "ameron": 48932, "ames": 1224, "ami": 5028, "amic": 16694, "amide": 39753, "amiento": 16672, "amil": 25158, "amiliar": 27208, "amily": 11163, "amin": 4995, "amina": 31457, "amination": 21733, "amine": 11601, "aming": 4579, "amis": 39137, "amise": 36851, "amm": 6088, "amme": 44245, "ammen": 12379, "amment": 17804, "ammers": 33580, "amo": 7433, "amojo": 48849, "amon": 19179, "among": 50081, "amor": 38012, "amore": 47056, "amos": 5958, "amoto": 45658, "amount": 36396, "amour": 25644, "amous": 17272, "amp": 747, "ampa": 13652, "amped": 25637, "amping": 37373, "ampion": 9434, "ampions": 5647, "ampire": 23816, "ample": 1579, "amples": 26546, "ampoo": 32753, "amps": 10628, "ampton": 25586, "ams": 2074, "amsung": 5530, "amt": 17622, "amus": 31219, "amy": 11935, "an": 270, "ana": 1876, "anal": 11132, "analy": 35079, "analys": 48759, "analyse": 44701, "analysis": 21885, "anan": 23674, "anas": 14018, "anc": 711, "anca": 20425, "ance": 606, "anced": 3431, "ancel": 14062, "ancell": 18392, "ancellor": 21005, "ancement": 11441, "ancements": 23797, "ancer": 7849, "ancers": 21995, "ances": 2083, "anch": 3923, "anche": 6270, "anches": 13159, "anchester": 11520, "anchez": 28238, "anci": 35514, "ancia": 21396, "ancial": 7678, "ancies": 21157, "ancing": 5298, "anck": 45647, "anco": 15415, "ancock": 43505, "ancouver": 13239, "ancy": 4538, "and": 385, "anda": 4446, "andal": 10749, "andals": 37826, "andard": 46025, "ande": 8293, "anded": 14853, "andel": 32009, "anden": 17262, "ander": 4139, "andes": 33575, "andex": 45458, "andez": 24439, "andi": 33184, "andid": 13253, "andin": 20056, "anding": 26141, "andise": 18961, "ando": 2294, "andom": 5312, "andon": 6946, "andra": 13800, "andre": 44603, "andro": 24577, "android": 16115, "androidauthority": 29244, "ands": 1971, "andum": 37406, "andy": 10485, "ane": 1473, "aned": 35970, "aneous": 15345, "anes": 8784, "aney": 26559, "ang": 612, "anga": 17539, "angan": 20176, "ange": 900, "angeb": 42498, "anged": 7303, "angel": 10635, "angen": 20062, "anger": 3392, "angered": 24789, "angers": 8529, "anges": 6525, "angi": 45234, "anging": 5785, "angle": 11097, "angled": 43712, "angler": 49347, "angles": 40599, "ango": 13715, "angs": 27003, "angu": 2313, "anguage": 2895, "anguages": 7999, "anguard": 36627, "angular": 28128, "anh": 8916, "anha": 30541, "ani": 3775, "ania": 3384, "anic": 27859, "anical": 42978, "anie": 6740, "anied": 15777, "aniem": 31373, "anies": 2469, "anim": 15124, "animal": 46411, "aning": 8423, "anish": 7431, "anism": 45708, "anity": 30564, "aniu": 24071, "anium": 24466, "anj": 30505, "anja": 28059, "anje": 20626, "ank": 970, "anka": 12758, "anke": 38866, "anken": 23740, "anker": 47052, "ankind": 42669, "anking": 37117, "anks": 2461, "ankt": 35906, "anleitung": 2761, "anmar": 20614, "ann": 936, "anna": 5895, "annah": 25244, "anne": 9184, "anned": 4966, "anneer": 26997, "annel": 5015, "annels": 9449, "annen": 31239, "anner": 8232, "anners": 18973, "annes": 21026, "anni": 21699, "annie": 38751, "anno": 6322, "annon": 11554, "annot": 34719, "annt": 45326, "anny": 8901, "annÃ©e": 34944, "ano": 2510, "anol": 24892, "anon": 23505, "anor": 26210, "anormal": 45526, "anos": 21755, "another": 38481, "anova": 49927, "anqu": 19521, "ans": 500, "ansa": 36194, "ansas": 7205, "anse": 27244, "ansen": 31272, "anship": 46251, "ansing": 44775, "ansion": 7477, "ansk": 22597, "anske": 46603, "ansom": 26962, "anson": 21474, "anst": 21443, "anstalt": 40041, "answer": 30449, "answered": 49307, "ant": 414, "anta": 4331, "antage": 45026, "antal": 24517, "antan": 45044, "antas": 44340, "ante": 2318, "anted": 10489, "anten": 19329, "anter": 36385, "antes": 6687, "anth": 12142, "antha": 36912, "anthrop": 24196, "anti": 6619, "antiago": 30768, "antic": 5826, "anticip": 48987, "antics": 30698, "antie": 44618, "antine": 38635, "antis": 27207, "antly": 4892, "anto": 4766, "antom": 26110, "anton": 27444, "ants": 1294, "antwort": 13257, "antz": 45574, "anu": 2174, "anuar": 33314, "anuari": 49999, "anuary": 2456, "anuatu": 30290, "anut": 20039, "anuts": 48089, "anwhile": 9744, "any": 952, "anya": 18150, "anyahu": 23955, "anyak": 45300, "anych": 13447, "anye": 29346, "anyon": 24930, "anz": 4857, "anza": 11374, "anzania": 23611, "anze": 17244, "anzeigen": 45288, "anzen": 39888, "anzi": 29333, "anÃ§": 8780, "anÃ§a": 29370, "anÃ§as": 48043, "ao": 5162, "ap": 484, "apa": 12065, "apache": 32521, "apan": 3200, "apat": 21341, "ape": 2115, "aped": 8614, "aper": 2159, "apers": 5510, "apert": 15799, "aperture": 16958, "apes": 8511, "apest": 36006, "apeut": 14701, "apeutic": 20014, "apeutics": 47884, "aph": 11390, "aphone": 37828, "api": 7883, "apie": 40327, "aping": 11324, "apixel": 31887, "apo": 43877, "apolis": 12367, "apon": 19302, "apons": 30310, "apor": 16113, "apore": 9198, "app": 1302, "appa": 27427, "appe": 33322, "apped": 9180, "appen": 20736, "append": 48265, "apper": 19841, "apping": 7394, "apple": 21712, "applic": 39551, "application": 21109, "apply": 49378, "appro": 20591, "appropri": 15193, "appropriate": 17902, "approved": 33528, "apps": 29716, "appy": 7417, "apr": 33632, "aprÃ¨s": 41938, "aps": 2072, "apse": 10124, "apsed": 48478, "apt": 3072, "apter": 4434, "apters": 42988, "aptic": 43386, "apur": 38521, "apy": 13951, "aq": 25323, "aqu": 18699, "aque": 22304, "ar": 282, "ara": 2300, "arak": 20741, "aram": 14180, "aran": 15636, "arant": 4137, "arante": 8197, "arantee": 7654, "aranteed": 40126, "arantine": 40683, "aras": 26191, "arashtra": 45797, "arat": 25632, "arb": 33071, "arbe": 5794, "arbeit": 23366, "arbeiten": 41767, "arbeitung": 9908, "arc": 11648, "arch": 840, "architecture": 45594, "archive": 24595, "archy": 13763, "arctic": 32778, "arctica": 22874, "ard": 467, "arda": 23780, "arde": 14498, "arded": 17708, "arden": 5113, "ardi": 14475, "ardim": 45749, "ardin": 25909, "arding": 15510, "ardless": 19164, "ardo": 9996, "ardog": 36521, "ardon": 26234, "ards": 1666, "are": 463, "area": 10602, "ared": 1469, "arel": 18362, "arella": 46844, "arem": 26756, "aren": 3913, "arena": 34339, "arence": 45163, "arend": 34867, "arendra": 48612, "arent": 1863, "arenthood": 28283, "arently": 21820, "arer": 33285, "ares": 3688, "arest": 15883, "aret": 9719, "areth": 36962, "arette": 22428, "arettes": 22038, "arez": 39822, "arf": 25541, "arg": 1134, "arga": 22511, "argar": 45027, "arge": 1447, "argent": 33453, "argin": 27081, "argo": 12912, "argon": 47889, "args": 25832, "ari": 1321, "aria": 6734, "arial": 36683, "ariamente": 38638, "arian": 9214, "arians": 16067, "arias": 27115, "ariat": 24541, "arie": 26988, "aries": 3323, "arii": 37131, "arily": 3929, "arin": 20279, "arine": 45559, "aring": 1970, "ario": 3518, "arios": 9275, "arious": 45096, "aris": 20346, "arity": 13218, "arium": 19598, "arius": 21953, "ark": 652, "arked": 49247, "arks": 5714, "arl": 1762, "arla": 23144, "arle": 47160, "arlier": 3872, "arlo": 15221, "arly": 1363, "arm": 1154, "arma": 12249, "armac": 34378, "arme": 38776, "armed": 25413, "armi": 34214, "armin": 21617, "arming": 19808, "arms": 15921, "arn": 1190, "arna": 13544, "arness": 22449, "arning": 3190, "arnos": 44172, "aro": 7584, "aron": 7466, "around": 17659, "arov": 49889, "arp": 7261, "arr": 1858, "arra": 44746, "arrant": 6639, "arrants": 35145, "arrass": 14428, "array": 20566, "arring": 12857, "arrings": 37528, "arris": 31200, "arrison": 35980, "arriv": 49859, "arro": 42447, "arroll": 27980, "arrow": 29940, "arry": 8811, "ars": 1180, "arsch": 50043, "arse": 14065, "arser": 29319, "arsi": 15810, "art": 424, "arta": 19389, "arte": 10099, "arten": 9466, "arter": 3004, "arters": 9912, "arth": 2717, "arthy": 23762, "arti": 29290, "artic": 31261, "article": 10516, "articles": 21130, "articolo": 47038, "artisan": 27452, "artment": 2261, "artner": 41021, "arto": 21524, "arton": 45644, "arts": 7178, "arty": 41071, "aru": 17469, "arus": 18078, "ary": 572, "arz": 45165, "arÃ¡": 19464, "arÃ©": 37275, "arÃŃa": 39469, "arÄ±": 34795, "as": 292, "asa": 10964, "asaki": 25354, "asan": 37673, "asant": 11385, "asc": 3180, "asca": 43471, "ascal": 30055, "ascar": 22826, "asch": 45281, "asci": 46373, "asco": 46959, "ascore": 26447, "ascular": 15596, "ascus": 43432, "ase": 583, "ased": 969, "asen": 39196, "aser": 10662, "asers": 44658, "ases": 1492, "aset": 33358, "ash": 1198, "asha": 18788, "ashed": 11192, "ashes": 12844, "ashi": 17593, "ashing": 2827, "ashington": 3207, "ashion": 4941, "asi": 7308, "asia": 21705, "asin": 32693, "asing": 2737, "asio": 37412, "asion": 5526, "asionally": 49015, "asis": 20544, "asive": 21031, "asje": 23200, "asjon": 27693, "ask": 2383, "aska": 12149, "askell": 26954, "asket": 15504, "asking": 48713, "asm": 9650, "asma": 16047, "asmine": 42571, "aso": 17320, "ason": 1082, "asonable": 30169, "asonic": 15464, "asons": 3448, "asp": 7273, "aspberry": 24029, "asper": 34266, "aspx": 34008, "ass": 522, "assa": 17299, "assage": 43456, "asse": 7265, "assed": 36282, "assem": 35958, "assen": 8926, "asser": 12286, "assert": 48040, "asses": 13266, "asset": 27191, "assets": 13693, "assi": 38871, "assic": 34368, "assin": 30308, "assing": 26829, "assion": 13593, "assis": 28514, "assium": 36148, "asso": 21056, "associ": 20986, "associated": 33197, "association": 47506, "asst": 49498, "assuming": 49446, "assy": 26914, "ast": 486, "asta": 8417, "astandard": 50106, "aste": 4785, "asted": 11847, "asten": 41963, "aster": 1888, "astern": 8187, "asters": 17399, "astery": 42879, "asti": 22499, "astic": 3473, "astically": 23179, "astics": 23377, "asting": 12331, "asto": 29690, "aston": 49799, "astra": 43638, "astre": 43693, "astricht": 40109, "astro": 35522, "asts": 9416, "asty": 10017, "asu": 38772, "asure": 6516, "asures": 18522, "asuring": 46787, "asy": 4404, "async": 38959, "asz": 18102, "at": 266, "ata": 670, "atable": 27461, "atal": 2657, "atalog": 3963, "atamente": 36113, "atan": 23569, "atar": 2384, "atas": 32313, "atch": 1122, "atche": 31067, "atcher": 24522, "atches": 42663, "atchewan": 38467, "atching": 15630, "ate": 403, "ateau": 46426, "ated": 551, "ateful": 12061, "ateg": 1786, "ategor": 31131, "ategorie": 45707, "ategories": 8664, "ategory": 7618, "ategy": 4651, "atel": 39380, "ately": 1663, "atem": 15775, "atemala": 21370, "aten": 2975, "ater": 750, "ateral": 13839, "aterial": 2014, "atern": 22279, "aternal": 33174, "aternity": 34064, "aters": 9889, "ates": 724, "atest": 2468, "ateur": 6161, "ateurs": 14879, "atever": 4488, "atform": 2928, "ath": 871, "atha": 33280, "atham": 44021, "athan": 7479, "athe": 38597, "ather": 1242, "atherine": 15546, "athering": 35203, "athers": 12586, "athi": 40410, "athing": 47212, "athlon": 47783, "athom": 49908, "athon": 14761, "athy": 11258, "ati": 2341, "atia": 22451, "atial": 38095, "atibility": 41257, "atible": 20067, "atic": 1341, "atica": 23338, "atical": 39142, "atically": 4774, "atican": 19520, "atico": 48324, "atics": 28038, "atie": 6363, "aties": 28111, "atif": 26302, "atii": 37449, "atile": 13966, "atility": 21794, "atin": 5812, "ating": 820, "atinum": 18037, "atio": 40691, "ation": 343, "ational": 890, "ationen": 41980, "ations": 600, "atios": 27371, "atique": 17393, "atiques": 25649, "atis": 3041, "atisation": 47832, "atische": 37042, "atisf": 4925, "atisfaction": 35656, "atisfied": 37521, "atism": 31140, "ativ": 7971, "ativa": 11275, "ativas": 27753, "ative": 1023, "atively": 4970, "ativen": 46691, "atives": 3385, "ativi": 36423, "ativity": 34192, "ativo": 14268, "ativos": 35896, "atl": 21892, "atlantic": 49787, "atly": 37933, "ato": 1734, "atoes": 12952, "atography": 47258, "atoire": 31797, "atom": 46181, "aton": 14115, "atoon": 46636, "ator": 1375, "atora": 47327, "atore": 15980, "atori": 13755, "atorial": 17403, "atories": 21947, "atorio": 36584, "atorium": 31469, "ators": 2523, "atory": 3011, "atos": 15447, "atra": 26238, "atre": 8385, "atri": 28427, "atrice": 30641, "atro": 18628, "ats": 1318, "atsApp": 10027, "atsapp": 30910, "atsch": 40786, "atson": 17031, "atsu": 30466, "att": 1048, "atta": 12576, "attach": 44418, "attachment": 7673, "attack": 37457, "atte": 18645, "atted": 24186, "atten": 23982, "atter": 1646, "attered": 16110, "attering": 23876, "attery": 18343, "attet": 47707, "attform": 36793, "atti": 11969, "attie": 49610, "atting": 15714, "attle": 3312, "atto": 9507, "atton": 31542, "attoo": 19833, "attoos": 35705, "attr": 39851, "attro": 36653, "atty": 15325, "atu": 9656, "atud": 40114, "atum": 27134, "atung": 48860, "atur": 1464, "atura": 13128, "atural": 2754, "aturated": 47085, "aturday": 4654, "ature": 1221, "atured": 12326, "atures": 2187, "aturing": 30386, "atus": 10759, "atuur": 43231, "aty": 14356, "atz": 6882, "atÄĥ": 34414, "au": 549, "aub": 30856, "auc": 6633, "aucas": 40911, "auch": 27480, "aucoup": 17807, "aucus": 23469, "aud": 4829, "audi": 8847, "audio": 27419, "auen": 26582, "auer": 10704, "auf": 5608, "aufen": 16221, "auff": 22171, "auft": 24431, "auftrag": 46130, "aug": 8691, "augh": 3124, "aughed": 25728, "aughs": 38419, "aught": 4562, "aughter": 5128, "aughters": 19027, "aughty": 37955, "auk": 44423, "auks": 47473, "aul": 2766, "aulk": 39907, "aulkner": 44164, "ault": 2513, "aund": 13096, "aunders": 47657, "aupt": 17661, "aur": 2629, "aura": 22986, "aurant": 44496, "auru": 29977, "aurus": 18094, "aus": 5038, "ausch": 40636, "ause": 731, "aust": 27436, "aut": 1396, "auth": 22542, "authent": 39496, "author": 7572, "authority": 25584, "authorized": 19331, "authors": 42966, "autical": 48274, "autions": 25215, "auto": 13256, "autom": 24108, "autor": 35926, "autre": 26668, "autres": 17801, "auts": 24115, "aux": 4866, "av": 534, "ava": 3187, "avad": 35767, "available": 14125, "avais": 43711, "aval": 15229, "avam": 32220, "avan": 14787, "avanaugh": 47510, "avano": 49360, "avant": 31861, "avas": 14067, "avascript": 16019, "avat": 29561, "avatar": 4702, "ave": 1112, "avec": 46509, "aved": 15254, "avel": 14872, "avelength": 34079, "aven": 7209, "aver": 14209, "average": 33411, "aves": 3800, "avez": 32581, "avi": 13725, "avia": 18206, "avian": 36940, "avic": 45389, "avid": 7947, "avier": 20569, "avil": 24648, "avilion": 35125, "avin": 22074, "aving": 2999, "avis": 23472, "avit": 36463, "avo": 17331, "avoid": 39595, "avoir": 30423, "avor": 2069, "avorite": 13094, "avors": 28015, "avour": 25265, "avs": 43418, "avtodet": 39217, "avtodetstvo": 39218, "avy": 11479, "aw": 999, "awa": 7555, "award": 45154, "aware": 10859, "awasaki": 31286, "awat": 40139, "away": 8568, "aways": 23728, "awi": 15879, "awia": 39755, "awk": 41670, "awn": 11001, "awng": 44343, "aws": 8851, "awsze": 47314, "awy": 36701, "ax": 889, "axies": 30955, "axis": 29724, "axy": 7022, "ay": 331, "aya": 7878, "ayan": 25500, "aye": 35284, "ayed": 24680, "ayer": 5921, "ayette": 40442, "aying": 39940, "aylor": 8358, "ayo": 42757, "ays": 611, "aysia": 12014, "az": 729, "aza": 7653, "azar": 24449, "aze": 9145, "azed": 19130, "azeera": 45127, "azen": 45166, "azer": 22028, "azers": 38665, "azi": 10207, "aziland": 31747, "azin": 41177, "azine": 5389, "azines": 16243, "azing": 4179, "azio": 27127, "azionale": 41538, "azione": 3667, "azioni": 7603, "azo": 28527, "azon": 3172, "azu": 13865, "azy": 5748, "azz": 7595, "azzi": 48489, "azzo": 25482, "azÄĥ": 44317, "aÃ§Ã£o": 4624, "aÃ§Ãµes": 11333, "aÃ±": 10133, "aÃ±a": 23509, "aÃ±ol": 27326, "aÄĩ": 28587, "aÅ¼": 25628, "b": 99, "ba": 3226, "baar": 18058, "bab": 38914, "bable": 42990, "bably": 17341, "baby": 27484, "bach": 14781, "back": 2086, "backed": 27363, "background": 32302, "backs": 11800, "bad": 15230, "bag": 15047, "bagai": 44269, "bage": 14138, "bags": 30464, "bah": 47131, "bahn": 42850, "bak": 33868, "bal": 7161, "balance": 28507, "balanced": 41198, "ball": 2402, "balls": 31458, "ban": 3845, "band": 4319, "bands": 32150, "bane": 22322, "bang": 30362, "bank": 13825, "banks": 49310, "bar": 4298, "bard": 20643, "bare": 17287, "baren": 34444, "barkeit": 39991, "bars": 38249, "bart": 23743, "bas": 11087, "base": 5064, "based": 3324, "basic": 43677, "bass": 15035, "bassy": 32823, "bast": 18753, "bat": 9929, "bath": 31508, "bau": 22178, "baugh": 36165, "baum": 26941, "bay": 20972, "bb": 7188, "bbe": 22964, "bc": 12752, "bd": 11050, "be": 894, "bean": 12144, "beans": 45932, "bear": 26716, "bearing": 41019, "beat": 15667, "beaut": 28684, "bec": 7811, "because": 17955, "beck": 31502, "becue": 33819, "bed": 1967, "beding": 28617, "bedingungen": 42365, "bedroom": 39847, "bee": 22621, "beeld": 23369, "been": 42658, "beer": 46289, "bef": 31933, "before": 24020, "beg": 47221, "begin": 28631, "bei": 25041, "being": 11032, "beit": 11939, "beiter": 29926, "bek": 21049, "bel": 7031, "bele": 39115, "belief": 39330, "bell": 9761, "bellion": 48791, "below": 45856, "belt": 46655, "ben": 3095, "bench": 31962, "benef": 38287, "benhav": 45646, "bens": 15899, "benso": 49719, "ber": 498, "bere": 16640, "bereich": 38639, "berg": 3766, "berger": 22338, "bern": 28818, "bero": 23516, "berra": 39775, "berries": 23495, "berry": 8976, "bers": 1323, "bersecurity": 25824, "bert": 5537, "berto": 43581, "bery": 24759, "bes": 5326, "besch": 34095, "besondere": 26684, "best": 6631, "bestellen": 14537, "bet": 7123, "beta": 24475, "beth": 48914, "better": 32341, "between": 28403, "bew": 16874, "bewer": 48930, "bey": 18790, "bez": 8809, "bf": 14193, "bg": 32841, "bh": 34806, "bi": 4460, "bia": 14146, "bial": 21057, "bian": 12846, "biased": 42082, "bid": 15923, "bidden": 47825, "bidity": 46721, "bie": 9121, "bier": 23920, "bies": 37896, "bieter": 25386, "big": 14212, "bih": 38623, "bij": 18581, "bike": 17870, "bikeexif": 27315, "bil": 25185, "bild": 16911, "bildung": 33619, "bill": 35271, "billion": 36379, "bilt": 46692, "bin": 9003, "binary": 43358, "bind": 14913, "binding": 38793, "bindung": 29928, "bing": 4806, "bio": 38760, "bior": 34294, "bir": 27454, "bird": 18780, "birds": 37869, "birth": 23790, "bis": 24589, "bishop": 43007, "bit": 3307, "bits": 17750, "biz": 35025, "bj": 30878, "bl": 1104, "black": 12805, "blad": 39279, "blade": 49309, "blance": 37694, "blank": 16772, "blatt": 50057, "ble": 941, "bled": 7645, "blem": 1392, "bleme": 34542, "bler": 20639, "bles": 9525, "blic": 10325, "blich": 40457, "blick": 32651, "blind": 38968, "bling": 7276, "blkB": 13313, "blkBorder": 13315, "block": 10237, "blocking": 46248, "blockquote": 44194, "blocks": 46366, "blog": 4076, "blogs": 35143, "blogspot": 7936, "blood": 30817, "blower": 34620, "blown": 47106, "blue": 18397, "bly": 7177, "bm": 25557, "bn": 8857, "bnb": 31309, "bo": 1884, "boa": 26433, "board": 3825, "boarding": 28248, "boards": 15456, "boat": 30750, "bob": 47834, "bod": 37112, "body": 3857, "bog": 43787, "bohyd": 25309, "bok": 40777, "bol": 4612, "bold": 34928, "bole": 39386, "bolt": 42279, "bon": 4135, "bone": 19112, "bons": 28884, "book": 1385, "books": 11822, "bool": 42290, "boot": 22991, "bor": 3567, "border": 12186, "borg": 18238, "borhood": 31167, "born": 9520, "borne": 17479, "boro": 25611, "borough": 20806, "bors": 42543, "bos": 36938, "bot": 12697, "both": 21663, "bott": 13300, "bottom": 25779, "bou": 25937, "bound": 13389, "bour": 5977, "bourg": 15633, "bourne": 13130, "bout": 25767, "bouw": 49839, "bow": 9851, "bows": 41275, "bowych": 39645, "box": 3721, "boxes": 40244, "boy": 8566, "boys": 19527, "bp": 9120, "bpo": 28842, "bps": 24028, "br": 1444, "bra": 8812, "bracht": 46542, "brahim": 41022, "brain": 26310, "bral": 27001, "branch": 49202, "brand": 21167, "branded": 44655, "bras": 38891, "brauch": 36590, "bre": 1945, "bread": 32644, "break": 8346, "breaker": 44667, "breaking": 16372, "breaks": 27267, "brecht": 48795, "bred": 49069, "brella": 26237, "brero": 45473, "bres": 19278, "brew": 20031, "brid": 10473, "bridge": 8561, "brief": 42642, "brig": 39177, "bright": 33387, "bring": 36011, "bringen": 45355, "bris": 21150, "brit": 17356, "brities": 21950, "bro": 5129, "broad": 46399, "broider": 30534, "broken": 34872, "bron": 45018, "brook": 23669, "brown": 39052, "browser": 30740, "bru": 22175, "brush": 38905, "bs": 761, "bsd": 25823, "bsite": 1380, "bsites": 5131, "bsp": 28438, "bst": 9600, "bt": 4320, "bu": 7794, "buch": 5018, "bucks": 26572, "bud": 14526, "budget": 39631, "buds": 46122, "buf": 36147, "buffer": 35163, "bug": 28389, "build": 12136, "builder": 42559, "building": 18082, "built": 23523, "bul": 11867, "bull": 25026, "bum": 4533, "bund": 25664, "bung": 17169, "buquerque": 46642, "bur": 6192, "burg": 5878, "burger": 42450, "burgh": 11492, "burn": 14486, "burse": 24238, "burst": 36935, "bury": 11190, "bus": 15509, "business": 16149, "buster": 33256, "busters": 45311, "but": 4808, "butt": 25040, "button": 18513, "buttons": 28916, "buy": 15231, "bw": 25578, "by": 1573, "bye": 17735, "byte": 38108, "byter": 46671, "bytes": 36489, "bÃ©": 25060, "bÃ¼": 47879, "c": 100, "ca": 2434, "cab": 44314, "cache": 18009, "cad": 37821, "caf": 31681, "cafd": 43148, "cair": 28208, "cairn": 33807, "cake": 31051, "cakes": 37774, "cal": 9195, "cale": 27718, "call": 15906, "called": 10552, "cam": 7871, "camera": 13933, "camp": 15903, "campaign": 44560, "campus": 47527, "can": 5620, "canic": 34953, "cano": 21809, "canon": 46935, "cap": 12235, "cape": 28649, "capital": 33648, "capt": 25681, "captcha": 44624, "caption": 10806, "car": 6302, "carbon": 30906, "card": 9151, "cards": 29551, "care": 5133, "cars": 40256, "cart": 25032, "cas": 8892, "case": 8658, "cases": 36828, "cash": 39497, "casino": 26683, "cast": 2681, "caster": 26568, "casters": 35307, "castle": 21501, "cat": 10433, "catalog": 29092, "catch": 48301, "categ": 18336, "categories": 15873, "categorized": 19781, "category": 17060, "catel": 41469, "cation": 49601, "cats": 38399, "cause": 22386, "caution": 38809, "cb": 5122, "cbs": 40470, "cbslocal": 48103, "cc": 539, "ccess": 1639, "ccessful": 27681, "cci": 29317, "cciÃ³n": 21437, "ccoli": 38490, "cd": 3874, "cdn": 5270, "ce": 362, "cean": 5672, "ceans": 21737, "ced": 1107, "cedented": 14790, "cedes": 13673, "ceed": 4042, "ceedings": 25815, "ceeds": 13694, "ceived": 48215, "cej": 22362, "cel": 3891, "celain": 49101, "celand": 15526, "cele": 43297, "cell": 12708, "cellence": 29428, "celona": 14079, "cem": 34458, "cement": 6802, "cen": 30948, "cence": 28075, "cent": 1236, "cente": 40335, "center": 7683, "centered": 40295, "central": 21707, "centric": 31299, "cents": 20828, "century": 17229, "cep": 25391, "cept": 1258, "cepter": 45314, "ception": 3513, "ceptions": 15818, "cer": 2422, "ceries": 35833, "cerpt": 29905, "cers": 12515, "cert": 20122, "certain": 35713, "cery": 14713, "ces": 1309, "cess": 1081, "cesso": 44228, "cest": 35985, "cester": 28841, "cf": 11254, "cgi": 39988, "ch": 344, "cha": 10763, "chaft": 10497, "chain": 9575, "chair": 20027, "chall": 40008, "chan": 29394, "change": 4202, "changes": 28359, "changing": 25540, "channel": 28577, "chant": 17096, "char": 12402, "character": 31691, "chard": 35688, "charg": 7443, "charge": 13073, "charged": 25303, "chargement": 38511, "charger": 11220, "charges": 50040, "charging": 49325, "chart": 32502, "chat": 15383, "che": 751, "cheap": 30216, "check": 9259, "checked": 37602, "checking": 44009, "checks": 47876, "ched": 2332, "chedel": 31343, "cheduled": 35260, "cheid": 32822, "cheiden": 36712, "chel": 29276, "chell": 11780, "chelles": 28801, "chem": 16699, "chemical": 38485, "chen": 2800, "chend": 20909, "chende": 43120, "cheon": 50187, "cher": 4653, "ches": 2031, "chess": 42079, "chester": 26354, "chet": 17789, "chez": 40841, "chi": 7893, "chia": 32439, "chie": 49371, "chied": 19717, "chief": 28108, "chien": 42179, "child": 10611, "children": 19436, "chin": 25563, "china": 20257, "chine": 28043, "chinen": 48931, "ching": 19722, "chini": 40084, "chio": 19738, "chip": 30113, "chl": 40508, "chlieÃŁlich": 30848, "chlor": 41494, "chluss": 31824, "chner": 47566, "cho": 6544, "chocolate": 49293, "chod": 24998, "choice": 36839, "choices": 38732, "chool": 24243, "chor": 14430, "chorus": 32835, "christ": 29606, "chrom": 42118, "chron": 18283, "cht": 4690, "chte": 14923, "chten": 18172, "chter": 25011, "chts": 21085, "chu": 33702, "church": 33449, "chure": 35335, "chy": 34794, "chÃ©": 10920, "ci": 1022, "cia": 3930, "cial": 2955, "cialis": 23665, "cias": 16940, "cido": 37408, "cie": 9680, "cience": 7828, "cient": 14133, "cies": 14677, "cig": 34250, "cin": 15189, "cing": 3690, "cio": 14317, "cion": 12051, "ciones": 46894, "cios": 21506, "cious": 6206, "cipl": 7194, "ciples": 31638, "ciplinary": 23945, "cipline": 46004, "cir": 39368, "circ": 21107, "circle": 41084, "cis": 43901, "cision": 22515, "cit": 23754, "citation": 27643, "cite": 35776, "city": 19610, "ciu": 33754, "cium": 21088, "civil": 49578, "ciÃ³": 31501, "ciÃ³n": 9892, "cji": 39056, "ck": 741, "cke": 26694, "cken": 38022, "cker": 26736, "cknow": 6342, "cknowled": 39935, "cks": 5448, "cl": 586, "claim": 8224, "claimed": 21149, "claimer": 15652, "clair": 25709, "clam": 19850, "clamation": 29950, "class": 4311, "classes": 41050, "cle": 2818, "clean": 25887, "clear": 11819, "cler": 22384, "clerosis": 39164, "cles": 6563, "click": 13782, "client": 15073, "cliffe": 42666, "climate": 41852, "cling": 42596, "clinical": 47973, "clips": 40929, "clipse": 20640, "clock": 24376, "close": 21963, "closed": 19651, "closure": 14731, "closures": 35689, "cloud": 19909, "cloudf": 20963, "cloudfront": 21801, "club": 20973, "clud": 784, "clude": 48938, "cluir": 34581, "clus": 2397, "clusion": 6283, "clusions": 39510, "clusive": 9080, "cm": 6914, "cmd": 39798, "cn": 19137, "co": 948, "coach": 47939, "coal": 31065, "coat": 45681, "cock": 28329, "cod": 21860, "code": 7576, "codes": 37424, "cohol": 6713, "coin": 5522, "coins": 25080, "col": 3737, "cole": 21914, "coli": 40408, "coll": 29050, "collect": 22505, "collection": 46176, "collectively": 45504, "colm": 24600, "colo": 33529, "cology": 41873, "color": 11081, "colored": 39388, "coloring": 37850, "column": 26992, "com": 556, "comb": 26423, "come": 3167, "comed": 19737, "comes": 7695, "comfort": 12159, "comfortable": 17055, "comic": 20764, "comicmix": 25069, "coming": 5194, "comings": 42589, "comm": 2071, "command": 35162, "comment": 21428, "comments": 10914, "commerce": 17440, "commercial": 22329, "commit": 41412, "committed": 44819, "committee": 34445, "common": 12122, "commons": 36874, "commun": 14227, "communication": 37217, "communications": 24015, "community": 28758, "comp": 3924, "company": 34047, "compar": 49872, "compare": 45320, "compatible": 46364, "compet": 36790, "compl": 24047, "complete": 34281, "component": 42674, "components": 36862, "comput": 41043, "computer": 29956, "con": 1054, "conc": 33268, "concept": 39685, "cond": 18620, "condition": 31233, "conduct": 43272, "conf": 12873, "conference": 43400, "confidence": 47699, "config": 11679, "coni": 43344, "conn": 12833, "connect": 16558, "connected": 19735, "connection": 35158, "cono": 26773, "conom": 1558, "cons": 6047, "conscious": 14525, "consequence": 28777, "consequenceofsound": 29389, "consider": 42097, "console": 42997, "const": 11044, "constitutional": 31978, "construct": 46219, "consumer": 30111, "consuming": 42257, "cont": 1021, "contact": 20093, "container": 30184, "content": 1246, "contents": 49088, "context": 27831, "contin": 16498, "continue": 33584, "contract": 28099, "contri": 33956, "contrib": 49808, "control": 18089, "controlled": 21274, "controller": 45773, "cook": 16828, "cookie": 37928, "cookies": 29128, "cool": 22625, "coon": 49706, "cop": 29610, "copy": 24016, "copyright": 15319, "cor": 6260, "core": 8497, "corn": 22652, "coronavirus": 33286, "corp": 23786, "correct": 34263, "cos": 9773, "cost": 17722, "cot": 30620, "cott": 19072, "cou": 23190, "could": 30646, "count": 9446, "counter": 26738, "country": 22040, "course": 27492, "court": 29767, "cover": 3024, "covered": 14596, "covery": 8503, "covid": 45075, "cox": 50083, "cp": 16038, "cpp": 30791, "cr": 9051, "cra": 26180, "craft": 12411, "crafted": 40832, "cre": 6091, "cream": 44299, "creat": 17813, "create": 17877, "created": 12963, "creation": 43610, "creative": 43607, "credit": 13670, "creen": 46207, "crete": 27898, "cri": 727, "cribe": 5006, "cribed": 10328, "criber": 47165, "cribers": 40842, "cribing": 30915, "crime": 40377, "cript": 2409, "cription": 2870, "criptions": 13152, "crire": 35902, "crit": 13185, "critical": 38299, "cro": 21433, "croft": 45200, "crop": 9007, "cross": 24653, "crow": 33551, "cru": 45958, "cry": 34577, "cs": 8534, "css": 14925, "ct": 374, "ctic": 11786, "ctica": 20001, "ction": 646, "ctions": 4034, "ctl": 45243, "ctober": 2584, "ctor": 3977, "ctors": 18151, "ctu": 16927, "ctuary": 24608, "ctx": 47299, "cu": 8583, "cuador": 19588, "cue": 22950, "cul": 3636, "cular": 31561, "culo": 35792, "culos": 43672, "culosis": 44607, "cult": 49409, "cultural": 33038, "culture": 29312, "culus": 25517, "cup": 24816, "cur": 7116, "currency": 43541, "current": 15968, "custom": 14559, "customer": 29747, "cut": 10605, "cuts": 27172, "cutting": 44660, "cv": 34782, "cw": 47373, "cy": 2838, "cycl": 13477, "cycle": 15029, "cycles": 37142, "cz": 4157, "czas": 29709, "cze": 15008, "czeg": 32207, "czenia": 43498, "czenie": 48426, "cznie": 41210, "czy": 15607, "czÄĻ": 46315, "cÃ©": 41086, "cÃ³w": 36360, "cÃŃa": 41534, "d": 101, "dB": 45693, "da": 3493, "dad": 37786, "dade": 49863, "dag": 19125, "daily": 28523, "dailymail": 12902, "dain": 43732, "dal": 27879, "dale": 17195, "dam": 8488, "dan": 18946, "dar": 27904, "dark": 31407, "das": 27295, "dat": 10755, "data": 3144, "database": 46886, "date": 4221, "dated": 6399, "daten": 25812, "dates": 16120, "dating": 31440, "daughter": 39084, "day": 926, "days": 13078, "db": 8002, "dc": 10863, "dd": 9173, "de": 1123, "dead": 30036, "deal": 31354, "death": 34900, "deb": 14786, "debug": 33535, "dec": 9288, "deck": 31594, "ded": 6311, "deen": 47338, "deep": 18213, "def": 4618, "default": 8903, "defense": 38045, "defin": 36499, "define": 20306, "defined": 26850, "deg": 33085, "degree": 28990, "dek": 38274, "del": 9397, "delete": 41116, "delivery": 34001, "dem": 9411, "demand": 30008, "deme": 45840, "den": 1299, "dened": 49470, "denly": 33382, "dens": 29726, "dent": 36757, "dep": 9779, "depend": 44787, "dependent": 24043, "depth": 18095, "der": 866, "derabad": 41907, "derived": 39346, "dern": 37961, "ders": 9748, "des": 4159, "desc": 36311, "described": 19546, "describedby": 23744, "description": 10107, "design": 14952, "designed": 35180, "dess": 18921, "dest": 18610, "det": 10104, "details": 39825, "determ": 32888, "dev": 8059, "devel": 49813, "develop": 13176, "developed": 41845, "developers": 39210, "development": 26138, "device": 30450, "df": 1417, "dff": 45745, "dfunding": 38198, "dg": 44362, "dh": 29517, "di": 6370, "dia": 43691, "diagn": 47187, "dial": 46630, "did": 30627, "die": 11535, "dienst": 36431, "dies": 31774, "diff": 31442, "different": 45090, "dig": 13529, "digit": 32134, "digital": 26361, "digo": 48721, "dim": 37654, "dimensional": 23081, "dims": 13710, "din": 35762, "ding": 14119, "dir": 17424, "dire": 36553, "direct": 13355, "directed": 43127, "direction": 49788, "director": 43455, "directory": 37887, "dis": 4416, "disc": 17561, "disciplinary": 31735, "disk": 44477, "display": 8727, "displaystyle": 16818, "dist": 16263, "distance": 42838, "dit": 8576, "div": 5266, "division": 31096, "dj": 36855, "dk": 16450, "dl": 21364, "dll": 43598, "dm": 36778, "dn": 13654, "dna": 14764, "do": 2916, "doc": 17348, "doch": 41868, "docs": 22072, "doctor": 34025, "doctoral": 44441, "document": 21909, "does": 27706, "dog": 12845, "dogan": 40431, "doi": 14658, "doing": 31543, "doll": 31868, "dollar": 29853, "dom": 3734, "domain": 27551, "dominal": 39098, "don": 10484, "donald": 45614, "done": 38519, "dont": 42013, "door": 7184, "doors": 16820, "dorf": 28588, "dos": 31008, "dot": 20519, "dou": 19040, "double": 28572, "down": 2997, "download": 21147, "downs": 18355, "dp": 23158, "dr": 6945, "draft": 49762, "drag": 44033, "dragon": 29762, "draw": 7739, "drawing": 39121, "dre": 40517, "dream": 30162, "drive": 29877, "driven": 16427, "driver": 30611, "drivers": 37487, "driving": 32287, "dro": 25269, "drop": 18746, "druck": 41417, "drug": 41756, "dry": 44289, "drÃ¼ck": 36075, "ds": 4820, "dt": 19907, "du": 581, "duc": 4238, "duct": 1873, "duction": 26012, "ductor": 21371, "due": 32282, "duino": 34354, "dule": 5902, "dump": 48695, "dup": 45023, "duty": 38120, "dw": 34759, "dx": 32935, "dy": 5045, "dz": 8902, "dzi": 33290, "dzie": 30437, "e": 102, "ea": 10799, "each": 29182, "ead": 1869, "eah": 4306, "eal": 46754, "ear": 506, "earance": 31801, "earch": 2615, "eared": 18738, "earing": 7705, "early": 21191, "earn": 4935, "earning": 9827, "ears": 4366, "earth": 24346, "east": 34637, "easy": 29354, "eat": 19461, "eating": 36249, "eau": 22642, "eb": 1075, "eba": 24666, "ebo": 49954, "ebook": 13931, "ebra": 43118, "ebru": 2455, "ebruar": 41376, "ebruary": 2730, "eby": 41311, "ec": 325, "eca": 13940, "ecake": 46145, "ecal": 50048, "ecause": 4006, "ecc": 32273, "ecca": 35773, "ecciÃ³n": 37941, "ecd": 26122, "ece": 2721, "eced": 37182, "ecer": 22979, "eces": 5350, "ecess": 8261, "ecessary": 11917, "ech": 1421, "echa": 26425, "echan": 4084, "echanical": 46685, "eche": 35602, "eches": 24092, "echn": 1133, "echo": 19246, "echos": 31099, "echsel": 31168, "echt": 9910, "echtenstein": 28843, "eci": 14245, "ecia": 47444, "ecie": 32796, "ecip": 28323, "eck": 5193, "ecke": 24328, "ecken": 29653, "ecker": 41710, "ecko": 42425, "ecks": 43538, "eckt": 41111, "ecl": 34305, "ecn": 11766, "eco": 21173, "ecoin": 43499, "econ": 46814, "econom": 13498, "economic": 20612, "economics": 47503, "ecraft": 12994, "ecs": 45921, "ect": 433, "ectar": 42547, "ected": 1463, "ecter": 36357, "ecting": 31891, "ection": 1270, "ections": 9114, "ective": 7877, "ectomy": 48239, "ector": 8270, "ects": 4568, "ecu": 30189, "ecurity": 18027, "ecut": 2652, "ecution": 23076, "ecutive": 3931, "ecycle": 39421, "ecz": 13783, "ed": 284, "edIn": 6537, "eda": 10046, "edar": 23403, "eday": 29895, "edd": 4100, "edding": 6419, "eddings": 26456, "eddy": 32716, "ede": 5495, "eded": 18866, "eden": 7581, "eder": 1708, "ederal": 2559, "edere": 22746, "edes": 21134, "edge": 16539, "edi": 14775, "edia": 4764, "edin": 20010, "eding": 8162, "edish": 17267, "edit": 3765, "edited": 43561, "edition": 29112, "editor": 32724, "edly": 13750, "edo": 22507, "edom": 4880, "eds": 3423, "edt": 48258, "edu": 11022, "educ": 19249, "educated": 41041, "education": 38735, "edy": 5029, "edÃ¬": 49533, "ee": 1578, "eed": 5150, "eehag": 27307, "eehagpk": 27308, "eem": 33177, "een": 13812, "eenth": 43483, "eer": 39577, "eerde": 26311, "ees": 3509, "ef": 869, "efe": 25776, "eff": 6716, "effect": 25548, "effective": 19855, "effects": 47037, "efficient": 19853, "efin": 21825, "efined": 21078, "efois": 44270, "efore": 5253, "eft": 9390, "eg": 1918, "ega": 14170, "egen": 8484, "eger": 25720, "egg": 39126, "egr": 10637, "egu": 14387, "eh": 18498, "ei": 16114, "eight": 41455, "eil": 16993, "eils": 45385, "ein": 25191, "eing": 17278, "either": 41438, "ej": 14687, "ek": 793, "eka": 31641, "eken": 23565, "eker": 22639, "eki": 43842, "eking": 21961, "eko": 41997, "ekom": 41853, "eks": 3020, "ekt": 7333, "el": 304, "ela": 3599, "elaide": 30001, "eland": 10775, "elas": 34608, "elau": 33957, "elcome": 8143, "eld": 3113, "elda": 28152, "elde": 25640, "elden": 44204, "eldom": 38486, "eldorf": 46117, "ele": 1454, "elebr": 15985, "elect": 10103, "elected": 43149, "election": 17426, "electric": 28314, "eled": 27680, "element": 29240, "elen": 7436, "eler": 5516, "eles": 4599, "elesc": 17035, "elescope": 22457, "eless": 5750, "elf": 887, "elfare": 11518, "elho": 35216, "eli": 3506, "elia": 26411, "elier": 23131, "eliers": 46033, "elig": 15252, "elige": 44128, "eligible": 44212, "elihood": 14881, "elijk": 7086, "elijke": 17979, "elijkheid": 48192, "elin": 24519, "eline": 5581, "elines": 24636, "eliness": 27544, "eling": 5908, "elingen": 36202, "elius": 45379, "elivery": 9962, "ell": 464, "ella": 2245, "ellar": 21453, "ellas": 40506, "ellation": 14966, "elle": 2946, "ellect": 7360, "ellectual": 8596, "elled": 6292, "ellem": 48527, "ellen": 4905, "ellent": 5003, "eller": 4291, "ellers": 13913, "ellery": 30974, "elles": 6609, "elli": 7939, "ellig": 4050, "ellige": 47097, "elligence": 5233, "elligent": 34209, "elling": 2768, "ellington": 29740, "ellite": 29313, "ello": 3938, "ellos": 45478, "ellow": 3828, "ells": 8399, "ellschaft": 21186, "ellt": 13411, "ellular": 35090, "ellung": 27247, "ellungen": 35475, "elly": 7356, "ellÃ¤": 44803, "elm": 19182, "elman": 35878, "eln": 8164, "elo": 5571, "elog": 45766, "elon": 20867, "elong": 23585, "elor": 26801, "elp": 31531, "elry": 15660, "els": 1149, "elsch": 16492, "else": 14361, "elsen": 33853, "elser": 32903, "elsius": 42274, "elsk": 47643, "elson": 12429, "elt": 1938, "elta": 12008, "elte": 32436, "elu": 32526, "elve": 16004, "ely": 636, "elyn": 33820, "em": 352, "ema": 5471, "emaakt": 30827, "emade": 42130, "email": 8922, "emaker": 49061, "eman": 9764, "emand": 29601, "emann": 49456, "emark": 30456, "emb": 17036, "embed": 17677, "ember": 996, "embourg": 19458, "embr": 42924, "embre": 11682, "embro": 31916, "eme": 6201, "emed": 10342, "emen": 9648, "ement": 776, "emente": 14696, "ementia": 25902, "ements": 3022, "emer": 20061, "emet": 20523, "emetery": 22014, "emi": 9712, "emia": 10549, "emiah": 47620, "emic": 2985, "emicon": 33304, "emics": 17748, "emie": 47500, "emies": 11166, "emis": 46793, "emm": 44717, "emment": 43683, "emn": 11139, "emo": 19548, "emon": 8267, "emony": 12664, "emos": 9001, "emp": 8829, "empio": 25327, "empl": 5130, "emplate": 11614, "emplates": 24907, "emplo": 29727, "employ": 37894, "employed": 38483, "employment": 27311, "empor": 20564, "emporary": 8672, "empt": 2842, "emption": 22055, "empty": 35997, "ems": 1733, "emt": 34946, "emu": 28949, "emy": 3876, "emÃ¡s": 27230, "en": 265, "ena": 3675, "enable": 30484, "enabled": 27278, "ename": 20576, "enario": 41077, "enary": 36007, "enas": 13401, "enberg": 35931, "enburg": 32154, "enc": 725, "ence": 578, "enced": 4077, "encer": 12630, "encers": 34596, "ences": 1575, "ench": 30239, "enches": 49884, "enci": 21294, "encia": 7003, "encial": 21897, "encias": 20882, "encies": 4461, "encil": 20875, "encils": 47276, "encing": 6836, "enciÃ³n": 28073, "enco": 41623, "encont": 19376, "ency": 1576, "end": 434, "enda": 6141, "endale": 43713, "endance": 44146, "endant": 12820, "endants": 23450, "endar": 7738, "endas": 30608, "ende": 3195, "ended": 2023, "endees": 20899, "enden": 6174, "endent": 20286, "ender": 2405, "enders": 9639, "endes": 36191, "endet": 47308, "endez": 38670, "endi": 23497, "endif": 48360, "ending": 1846, "endix": 22420, "endment": 8551, "endo": 4011, "endor": 47970, "endorf": 39640, "endra": 34062, "endre": 34473, "ends": 2972, "endum": 14773, "ene": 1541, "ened": 4125, "enegal": 26124, "enegro": 25173, "enen": 7718, "ener": 899, "energy": 25134, "eners": 45869, "enery": 27570, "enes": 22335, "eness": 18671, "enez": 10316, "enezuela": 14651, "enf": 49017, "eng": 1304, "enga": 27318, "engage": 44549, "enge": 3957, "engeance": 43675, "enger": 6959, "engers": 12686, "enges": 27664, "engine": 11673, "engineering": 41396, "engo": 19964, "engono": 26467, "ength": 3736, "enh": 19969, "eni": 14938, "enia": 23476, "enie": 23324, "ening": 3671, "enity": 48702, "enk": 28444, "enment": 31947, "enn": 1373, "enna": 16340, "ennaio": 42334, "enne": 12840, "ennen": 13365, "ennes": 9714, "ennessee": 12755, "ennial": 18821, "ennis": 9591, "enny": 12777, "eno": 11990, "enos": 32193, "ens": 563, "ensa": 31718, "ensation": 32923, "ensch": 6489, "enschaft": 18271, "enschutz": 35983, "ense": 1362, "ensed": 19374, "ensely": 39029, "ensem": 32564, "ensemble": 33173, "ensen": 16168, "enses": 5426, "ensible": 39171, "ensibly": 49647, "ensing": 30324, "ension": 3713, "ensions": 6012, "ensis": 36975, "ensitive": 39318, "ensity": 8206, "ensive": 2950, "ensively": 19749, "ensk": 44945, "enso": 23732, "enson": 23723, "ensor": 25573, "enstein": 18735, "ensus": 7162, "ent": 300, "enta": 10434, "ental": 3476, "entar": 38583, "entation": 28528, "ente": 3119, "ented": 6301, "enten": 32418, "enter": 8104, "entes": 9232, "enth": 13863, "enthal": 37920, "enti": 8930, "ential": 1840, "entially": 4776, "entials": 14844, "entin": 33758, "ention": 1853, "entional": 49114, "entioned": 49034, "ently": 1778, "ento": 14504, "enton": 44642, "entral": 37784, "entre": 16449, "entreprise": 37145, "entric": 30673, "entry": 18394, "ents": 637, "enture": 37288, "enty": 4656, "enu": 21417, "enum": 37963, "env": 24937, "environ": 40874, "environment": 35233, "envol": 22129, "eny": 26905, "enz": 7974, "enza": 7390, "enze": 22821, "enzie": 33965, "enÃ§a": 42226, "enÃŃ": 15401, "eo": 28344, "eon": 37402, "eor": 18476, "eous": 22751, "ep": 505, "epad": 44197, "epal": 17723, "epend": 2775, "ependant": 35971, "ependence": 19388, "ependent": 8622, "eper": 41754, "eph": 29880, "epi": 46321, "epid": 48382, "eping": 9577, "episode": 48739, "eprint": 29639, "eps": 18083, "ept": 31098, "eq": 42545, "equ": 5931, "er": 260, "era": 2149, "eral": 7664, "erals": 18599, "erap": 5410, "eras": 8764, "eraÃ§Ã£o": 41822, "erb": 35650, "erc": 2127, "erca": 13161, "ercial": 28223, "ercise": 22276, "erd": 5299, "erde": 12830, "erdem": 30582, "erdere": 47822, "erdings": 26427, "ere": 390, "erea": 31080, "ered": 2820, "erede": 41056, "eredith": 45547, "ereg": 25675, "erei": 35415, "erek": 16288, "eren": 5543, "erer": 36870, "eres": 11468, "eret": 47383, "ereum": 28869, "erez": 19721, "erg": 6944, "erguson": 21570, "eri": 15381, "eria": 7405, "erick": 23100, "erie": 17582, "eries": 19967, "erin": 46611, "ering": 1805, "eringen": 35407, "erk": 8627, "erland": 46902, "erm": 744, "erma": 35799, "ermaid": 45595, "ermal": 9276, "ermalink": 15142, "erman": 7069, "ermann": 40330, "ermat": 26602, "erme": 28554, "ermo": 27198, "ermon": 35547, "ermont": 44855, "ermuda": 25650, "ern": 1029, "erna": 35056, "ername": 12011, "erne": 24946, "ernel": 11177, "ernen": 17595, "erner": 20554, "erness": 19677, "ernick": 48304, "erno": 49288, "erns": 34917, "ero": 2591, "eron": 12006, "eroon": 25966, "eros": 27226, "erpt": 26368, "err": 7944, "error": 14036, "erry": 6469, "ers": 363, "ersch": 19792, "erse": 4016, "ersen": 40105, "erset": 42142, "ersey": 7378, "erseys": 23192, "ership": 10545, "ersi": 37690, "erson": 792, "erst": 27491, "ert": 773, "erta": 17379, "ertain": 1571, "ertation": 29909, "erte": 30093, "erten": 26483, "erti": 35657, "ertocat": 48647, "erton": 30313, "erts": 7868, "erv": 609, "erva": 44659, "ervation": 13651, "ervative": 28846, "ervatives": 49423, "erve": 3705, "erved": 3853, "erver": 13422, "ervers": 25149, "erves": 13517, "ervice": 7351, "ervices": 14662, "erville": 35327, "erving": 14305, "ervor": 39422, "erweise": 49680, "ery": 1744, "es": 269, "esa": 9392, "esan": 43185, "esar": 24614, "esc": 13980, "esch": 3956, "eschool": 33563, "escort": 46378, "ese": 2885, "esehen": 31225, "esen": 23609, "esh": 15414, "esi": 18272, "esian": 39511, "esign": 40317, "esis": 11195, "esity": 17937, "esk": 15977, "eso": 21434, "esome": 6685, "eson": 45959, "esp": 3090, "espace": 46246, "espan": 34006, "espec": 19432, "especially": 21219, "esper": 30532, "esperson": 16545, "espite": 12208, "esprit": 49348, "esque": 30059, "ess": 404, "essa": 8959, "essage": 13155, "esse": 7756, "essed": 9408, "essel": 33418, "essen": 13241, "essential": 28217, "esser": 17759, "essere": 45009, "esses": 27176, "essi": 26160, "essim": 37338, "ession": 3391, "essional": 31523, "essions": 7212, "essler": 49045, "esso": 5489, "essÃ¤": 40851, "est": 366, "esta": 6655, "established": 36383, "estamp": 13487, "estar": 43376, "estate": 38437, "estation": 40755, "este": 5951, "estead": 43462, "ested": 11750, "esteem": 39866, "estellt": 43564, "esten": 32514, "estens": 35476, "ester": 3836, "esterday": 8179, "estern": 4075, "esterol": 20864, "esters": 11526, "esthes": 35658, "esthesia": 43627, "esthetic": 47956, "esti": 17212, "estial": 40852, "estic": 6042, "estinal": 23975, "estine": 21626, "esting": 46393, "estion": 35960, "estival": 5998, "estly": 28897, "esto": 16424, "eston": 22351, "estone": 15130, "estones": 32299, "estr": 49898, "estra": 35362, "estre": 27002, "estro": 36636, "ests": 3741, "esty": 16285, "estyle": 10356, "estyles": 49184, "estÃ¤": 47492, "esus": 25152, "esy": 10476, "esz": 18873, "eszcze": 37359, "et": 308, "eta": 9808, "etable": 46163, "etary": 8935, "etas": 37812, "etc": 20920, "etch": 9511, "ete": 4680, "eted": 20833, "eteenth": 33388, "eten": 11657, "etent": 26405, "eter": 2169, "eterm": 30109, "eters": 7627, "etes": 39832, "eth": 3152, "ethe": 12042, "etheless": 16779, "ether": 7019, "etheus": 47735, "ethical": 47696, "ethn": 45533, "ethyl": 25507, "eti": 21470, "etic": 6055, "etically": 24007, "etics": 14564, "etime": 8558, "eting": 7543, "eto": 10190, "eton": 16788, "etooth": 15439, "etr": 23881, "etric": 32396, "etry": 10847, "ets": 1171, "etsy": 40297, "ett": 1879, "etta": 11076, "ette": 2558, "etted": 42587, "ettel": 46838, "etten": 28196, "etter": 21035, "ettes": 16217, "etti": 12279, "etting": 41664, "ettings": 11778, "ettle": 32557, "etto": 17117, "ettre": 40214, "ettu": 27190, "etu": 42766, "etur": 34165, "etus": 39314, "ety": 3110, "etz": 9119, "etzen": 39275, "etzt": 16838, "etzung": 38251, "eu": 12441, "eur": 6628, "euro": 30344, "eurs": 12982, "ev": 5329, "eva": 49393, "eval": 32392, "even": 13973, "event": 14088, "events": 23293, "ever": 1222, "every": 19050, "everything": 47568, "ew": 580, "eway": 28732, "eworthy": 36692, "ews": 18185, "ex": 1060, "example": 18018, "exc": 32152, "except": 23492, "exception": 45818, "excerpt": 44771, "exclud": 37114, "exclusive": 37982, "exe": 27884, "exec": 31109, "exif": 25171, "exist": 43366, "existence": 41505, "existent": 46180, "existing": 27633, "exp": 7240, "expand": 38046, "expected": 11580, "exper": 19947, "experimental": 48890, "expert": 48664, "expl": 14904, "export": 32926, "express": 19408, "expression": 34326, "ext": 8813, "extensions": 38195, "external": 28519, "extra": 37700, "ey": 8754, "eye": 37162, "eyed": 35255, "ez": 5445, "eze": 21910, "f": 103, "fa": 7659, "fab": 26071, "fac": 27555, "face": 2891, "facebook": 14620, "faced": 41119, "faces": 28384, "fach": 48486, "facing": 33928, "fact": 26884, "factor": 39184, "factory": 40122, "facts": 46597, "fahr": 17529, "fahren": 22939, "fair": 25201, "faith": 40705, "fake": 43406, "fal": 33890, "fall": 7764, "fallen": 49534, "falls": 14277, "false": 15307, "family": 17340, "fan": 16170, "fang": 16843, "fans": 31549, "fant": 26506, "far": 16668, "fare": 14064, "farm": 31905, "fas": 29710, "fashion": 24217, "fashioned": 40000, "fass": 23627, "fassung": 35610, "fast": 7674, "fat": 26868, "father": 16634, "favorite": 35466, "fax": 28848, "fb": 15300, "fc": 12090, "fd": 15561, "fe": 2043, "feature": 29953, "featured": 29712, "features": 40366, "fect": 2361, "fed": 26216, "federal": 49556, "feed": 18815, "feeding": 28739, "feel": 47135, "fehl": 45987, "feira": 26697, "feit": 28710, "feito": 36212, "fel": 19790, "feld": 16001, "feller": 44053, "felt": 37639, "fem": 23487, "female": 42421, "fen": 9213, "fer": 595, "fera": 46097, "ference": 2146, "ferences": 6741, "fern": 17488, "ferred": 15722, "fers": 12624, "fert": 25446, "fest": 19734, "fet": 43826, "few": 38903, "ff": 493, "ffe": 17923, "ffect": 47364, "ffee": 5967, "ffen": 11927, "ffent": 15033, "ffer": 34534, "fff": 41431, "ffic": 3196, "fficient": 7027, "ffield": 35539, "ffiti": 32601, "fg": 20781, "fi": 8324, "fic": 2196, "fica": 28375, "fico": 28137, "ficos": 46211, "fiction": 23863, "field": 3693, "fielder": 24081, "fields": 28955, "fif": 40525, "fig": 5480, "fight": 23385, "fighter": 40166, "fighters": 29567, "fighting": 42659, "figure": 19133, "fik": 35905, "fil": 6793, "file": 3739, "files": 7017, "fill": 23254, "filled": 25809, "film": 18382, "filter": 22604, "filters": 39222, "fin": 6076, "final": 23995, "finals": 48633, "finance": 45542, "financial": 46079, "find": 16252, "finder": 28665, "findet": 47223, "fine": 48471, "fire": 9538, "fired": 36554, "firefox": 49823, "fires": 32451, "firm": 47124, "first": 12183, "fish": 14326, "fit": 3817, "fits": 15060, "five": 20372, "fix": 10278, "fixed": 34920, "fj": 45755, "fl": 2048, "flag": 32043, "flags": 30575, "flash": 38150, "flat": 31078, "fle": 30907, "flex": 29612, "flickr": 47112, "flies": 32032, "flight": 30893, "flix": 9787, "float": 24676, "floor": 33064, "flow": 8638, "flower": 27392, "flows": 34032, "flu": 13660, "fluss": 47925, "fly": 13335, "flÃ¤che": 47030, "fm": 18173, "fn": 21192, "fo": 3988, "focal": 16798, "focus": 20059, "focused": 28451, "fois": 33469, "fol": 4855, "fold": 14710, "folg": 33953, "folio": 10870, "folios": 37502, "folk": 18697, "follow": 16316, "following": 41075, "fon": 11082, "fond": 39326, "font": 16873, "fony": 47978, "foo": 30430, "food": 14605, "foot": 9358, "for": 1768, "force": 8338, "forced": 50109, "forcement": 21883, "ford": 3712, "forder": 29483, "forderungen": 47534, "fore": 1006, "forest": 29221, "forestation": 50019, "forg": 41572, "forget": 36228, "forgettable": 41325, "fork": 44748, "form": 590, "forma": 26983, "formance": 8268, "format": 12618, "formatics": 43601, "formation": 838, "forme": 29067, "formed": 23306, "former": 21231, "formerly": 40225, "forming": 17324, "forms": 27592, "formular": 46160, "fors": 39153, "fort": 3248, "forth": 38026, "fortunately": 9009, "forum": 29809, "forums": 48121, "forward": 13993, "fot": 45407, "found": 9592, "founded": 38283, "founder": 18440, "four": 19879, "fox": 6888, "foxtv": 34423, "fp": 32774, "fr": 2719, "fra": 27219, "frac": 26580, "frage": 27443, "fragen": 34205, "fragment": 45408, "frame": 11394, "frames": 48238, "framework": 42173, "franch": 46936, "frast": 21220, "frastructure": 25398, "fre": 9225, "fred": 14976, "free": 4890, "freeipmi": 25962, "frei": 37585, "frequency": 43525, "fresh": 44459, "frey": 48803, "fried": 37810, "friend": 6016, "friendly": 12079, "friends": 42668, "friger": 47755, "frist": 36458, "from": 6611, "front": 7313, "fruit": 38828, "fs": 5261, "ft": 687, "fte": 20110, "ften": 9673, "fter": 752, "fts": 40773, "ftw": 34724, "ftware": 2394, "fty": 26721, "fu": 19715, "fuck": 38409, "fucking": 47340, "fuel": 34347, "ful": 824, "full": 6005, "fullscreen": 35380, "fully": 2961, "fulness": 16034, "fun": 12512, "func": 34400, "function": 8626, "functional": 49279, "fund": 14555, "funded": 25789, "fung": 33724, "funk": 49880, "funnels": 49806, "fur": 41979, "furt": 23900, "future": 41375, "fw": 42712, "fx": 38956, "fy": 20527, "fÃ¤h": 44132, "fÃ©": 22274, "fÃ¶r": 30663, "fÃ¼": 7355, "fÃ¼g": 22465, "fÃ¼hr": 20545, "fÃ¼hrer": 49864, "fÃ¼hrt": 36506, "fÃ¼hrung": 30258, "fÃ¼ll": 25311, "fÃ¼llung": 41794, "fÃ¼r": 18928, "g": 104, "ga": 2979, "gaard": 32380, "gab": 35961, "gabe": 23776, "gaben": 40372, "gad": 43090, "gado": 34836, "gae": 30911, "gage": 7361, "gages": 30835, "gal": 6496, "gallery": 20019, "gam": 26438, "game": 9862, "games": 27595, "gaming": 43569, "gan": 990, "ganda": 21136, "gang": 10222, "gangen": 41020, "gano": 40087, "gap": 48464, "gar": 4234, "gard": 31805, "garden": 49495, "garia": 20340, "garian": 49186, "gars": 30242, "gart": 30594, "garten": 38428, "gary": 19557, "gas": 16202, "gat": 40824, "gate": 15557, "gave": 48783, "gay": 31506, "gaz": 39517, "gb": 19064, "gc": 36162, "gcc": 50164, "gd": 25487, "ge": 475, "gear": 41173, "geb": 6466, "geben": 18170, "geber": 31026, "gebra": 23252, "gebung": 38978, "ged": 2350, "gege": 10257, "gegeben": 27705, "gegen": 45820, "gegevens": 13503, "gel": 8409, "gele": 29173, "gem": 19083, "geme": 20253, "gement": 35443, "gen": 2323, "gence": 14465, "gency": 5153, "gend": 20387, "gende": 19265, "genden": 25527, "gender": 11608, "gene": 43797, "gener": 8191, "general": 28481, "generated": 38463, "generation": 21582, "generic": 29343, "genic": 42426, "genommen": 40767, "gens": 21922, "gent": 5802, "gentina": 12999, "geois": 35585, "geon": 12851, "geons": 44740, "ger": 1476, "gerald": 36508, "geria": 23563, "gericht": 30998, "geries": 40376, "gers": 6833, "gery": 7889, "ges": 3023, "gesamt": 42252, "gesch": 15014, "geschlossen": 48957, "gesellschaft": 47146, "gesetz": 44890, "gest": 3639, "gestellt": 32817, "get": 908, "gets": 10661, "gett": 31351, "getti": 30762, "getting": 49129, "getto": 23603, "getty": 46688, "gev": 22623, "geving": 40879, "gew": 18653, "gex": 49105, "gez": 37739, "gf": 28864, "gg": 1263, "gged": 23560, "ggen": 30949, "gger": 24257, "ggi": 12914, "ggie": 29993, "ggies": 35413, "gging": 28430, "ggio": 34744, "ggle": 25068, "ggy": 33539, "gh": 570, "ghai": 19002, "ghan": 8157, "ghi": 23781, "ght": 1153, "gi": 5107, "gia": 12904, "gic": 48337, "gie": 9954, "gif": 4602, "gift": 44598, "gil": 38415, "gin": 1761, "ging": 2957, "gio": 17022, "giore": 47013, "girl": 14866, "girls": 40464, "git": 14400, "github": 10205, "give": 42286, "given": 46697, "giving": 15821, "gj": 44788, "gl": 3275, "glas": 14942, "glass": 24207, "gle": 10855, "gleich": 25599, "gli": 23041, "gling": 46291, "glio": 29854, "global": 20548, "glomer": 47034, "glossy": 34791, "gly": 15478, "glÄħd": 48055, "gm": 42089, "gmail": 11999, "gment": 9455, "gn": 4565, "gnu": 46545, "go": 1496, "god": 16839, "goed": 49573, "goers": 47344, "going": 6105, "gold": 23935, "gom": 21729, "gomery": 24408, "gon": 21320, "gone": 30277, "good": 12595, "goog": 38570, "google": 11512, "googletag": 43673, "googletagmanager": 44341, "gor": 34694, "gos": 19758, "got": 18618, "gou": 38707, "gov": 5986, "government": 18824, "governmental": 42076, "govina": 26044, "gow": 23294, "gp": 35805, "gr": 794, "gra": 15402, "grab": 47742, "grad": 7103, "gradation": 30124, "grade": 6966, "graded": 18034, "grades": 46790, "grading": 44219, "graduate": 16588, "gram": 1137, "gran": 37675, "grand": 26229, "graph": 13911, "gras": 47996, "grass": 34911, "grat": 23907, "grav": 6140, "gravatar": 6735, "grave": 47335, "gray": 47443, "gre": 13695, "great": 19949, "gree": 18093, "green": 16058, "greg": 8635, "gren": 31185, "gres": 33945, "gress": 2439, "gression": 41132, "gressive": 32024, "grid": 28367, "gro": 10064, "groep": 21550, "ground": 3369, "group": 12627, "groups": 26384, "grow": 24971, "growing": 29949, "grown": 30908, "growth": 33917, "gru": 24095, "grund": 15781, "grundlage": 45593, "gruppe": 49149, "grÃ©": 32870, "grÃ¼nd": 49774, "gs": 10028, "gt": 5570, "gte": 48275, "gu": 4264, "gua": 36700, "guard": 22323, "gue": 21010, "guide": 31882, "guided": 33620, "gun": 14095, "guns": 39939, "gust": 20174, "gut": 45395, "guy": 47922, "gw": 48560, "gy": 1387, "gypt": 7413, "gyz": 26658, "gz": 23558, "gÃ¥": 41456, "h": 105, "ha": 2105, "haal": 34155, "hab": 6189, "habi": 39591, "habilit": 17773, "habilitation": 21609, "hack": 34633, "had": 18316, "hadow": 40995, "haft": 29006, "hag": 18674, "hagen": 27125, "hai": 41919, "hair": 40119, "hait": 40169, "hal": 4369, "halb": 14796, "halen": 40466, "half": 19305, "hall": 21915, "halt": 12647, "halte": 23008, "halten": 10965, "halts": 47993, "haltung": 46824, "ham": 2854, "hamed": 31145, "hammad": 18177, "hammer": 30799, "han": 4644, "hand": 4713, "handbuch": 21317, "handed": 26794, "handle": 34755, "handler": 45516, "handlung": 40192, "hands": 45361, "hang": 13470, "hank": 45769, "hanol": 34709, "hao": 29646, "happ": 38782, "happy": 17898, "haps": 3724, "har": 6400, "hard": 10872, "hardt": 33370, "hare": 41120, "harm": 27929, "hart": 25730, "harv": 30231, "has": 8306, "hash": 28666, "hat": 13284, "hatt": 14298, "hattan": 16354, "haul": 27710, "haupt": 38691, "haus": 15105, "hausen": 37551, "haust": 11302, "hav": 9325, "have": 13895, "haven": 42361, "having": 47595, "havior": 37014, "haw": 17074, "hawk": 43812, "hawks": 40019, "hay": 44482, "hc": 36723, "hd": 11925, "hdad": 44977, "he": 261, "hea": 26746, "head": 2893, "headed": 27395, "header": 27327, "heads": 25090, "health": 11259, "healthy": 24120, "heard": 45083, "heart": 14598, "hearted": 35110, "heast": 11748, "heastern": 24739, "heat": 24820, "heavy": 33440, "hec": 20547, "hecy": 37183, "hed": 962, "heden": 26692, "hedral": 24808, "hee": 27870, "heed": 37473, "heel": 16723, "heen": 48659, "heet": 17251, "heets": 32036, "hei": 45351, "heid": 9342, "height": 8923, "heim": 7854, "heimer": 17485, "heiro": 26584, "heit": 8862, "heiten": 28136, "heits": 21273, "hel": 2790, "held": 14542, "helf": 35909, "helial": 35230, "hell": 13901, "hello": 33555, "helm": 34042, "help": 13617, "hem": 3597, "hemat": 7876, "hematical": 15675, "hematics": 11647, "hemer": 49723, "hen": 511, "hend": 12681, "hende": 43209, "henden": 40001, "hene": 26463, "heng": 29467, "hens": 5464, "hensible": 46720, "hension": 28693, "hensive": 8287, "hent": 6027, "her": 550, "herald": 38076, "herd": 27251, "here": 7449, "herence": 44829, "herent": 25435, "heres": 27220, "herical": 42991, "hero": 19802, "heroes": 41214, "herty": 38354, "hes": 1456, "hesda": 44480, "heses": 30142, "hesion": 40384, "hesis": 9946, "hesive": 28552, "hest": 4585, "het": 3478, "hetamine": 47360, "heter": 29593, "hether": 12858, "hetic": 7894, "hetical": 30092, "hetically": 45850, "hetics": 27122, "hets": 26840, "hetti": 38407, "hetto": 35976, "heur": 49221, "heure": 35924, "heus": 43955, "hew": 9150, "hews": 22509, "hex": 34647, "hey": 21890, "hh": 18904, "hi": 4090, "hib": 3426, "hibition": 38209, "hic": 32327, "hicle": 42276, "hidden": 18199, "hide": 28865, "hift": 48243, "hig": 32597, "high": 10004, "highwire": 36033, "hil": 38825, "hill": 16335, "him": 23809, "hin": 12909, "hind": 13219, "hing": 821, "hip": 1272, "hips": 7569, "hir": 37971, "hire": 9124, "his": 18557, "hist": 9565, "histoire": 32533, "historic": 42593, "history": 29109, "hit": 25176, "hj": 42302, "hk": 42092, "hl": 5089, "hle": 37644, "hlen": 16626, "hler": 25316, "hlt": 37526, "hm": 7278, "hma": 24366, "hman": 41447, "hmen": 23438, "hn": 757, "hnen": 9874, "hner": 17433, "hness": 39315, "hnt": 42851, "hnung": 46007, "ho": 2759, "hod": 2037, "hoe": 37478, "hoes": 48680, "hof": 23250, "hoff": 43998, "hog": 38240, "hol": 4149, "hold": 3059, "holder": 12888, "holders": 10521, "holding": 26202, "holds": 36210, "hole": 22741, "holm": 19385, "holt": 48062, "hom": 17967, "home": 8272, "homme": 35544, "hon": 19958, "hone": 17499, "hong": 41151, "hood": 3645, "hook": 34675, "hoot": 42912, "hooting": 34469, "hop": 4826, "hope": 40069, "hops": 15396, "hor": 1296, "hora": 15284, "hores": 39381, "horn": 26522, "hors": 5792, "horse": 40079, "hos": 19150, "host": 6006, "hot": 8680, "hotel": 44756, "hotmail": 46488, "hots": 27031, "hou": 11176, "houd": 28416, "houette": 35367, "hound": 34349, "hour": 12154, "hours": 38608, "hous": 46889, "house": 4929, "houses": 25336, "housing": 49321, "hov": 28534, "how": 5443, "hower": 44258, "hp": 25142, "hr": 1776, "hra": 42185, "hran": 28466, "hre": 5795, "href": 47439, "hrem": 15057, "hren": 8722, "hrend": 17909, "hrer": 8742, "hres": 28023, "hrt": 15637, "hs": 12337, "ht": 389, "hta": 35974, "htaking": 37237, "hte": 21216, "hti": 35242, "htm": 24245, "html": 5180, "hton": 45611, "htra": 42312, "htt": 912, "http": 2676, "https": 1099, "hu": 9293, "hub": 23536, "hui": 19348, "huis": 32912, "hum": 15564, "human": 13881, "hun": 49275, "hund": 41689, "hung": 23501, "hur": 25363, "hurst": 39348, "hus": 8092, "hw": 30629, "hy": 9670, "hyd": 11789, "hydro": 49962, "hyme": 47859, "hyp": 36005, "hyper": 41864, "hÃ¤": 44109, "hÃ¤lt": 26679, "hÃ¤ng": 26875, "hÃ¤ngig": 46555, "hÃ©": 37038, "hÃ©s": 49766, "hÃµes": 26751, "hÃ¶": 24838, "hÃ¶r": 14394, "hÃ¶rde": 41734, "hÃ¶ren": 38053, "i": 106, "iOS": 40871, "iPad": 40425, "iPhone": 28286, "ia": 455, "iaal": 42129, "iable": 5916, "iac": 11564, "iad": 22591, "iada": 42911, "iae": 43206, "iah": 15075, "iai": 33880, "iais": 17279, "iak": 25478, "ial": 470, "iale": 10733, "iali": 30877, "ialis": 13414, "ially": 1497, "ials": 11940, "iam": 2483, "iami": 9257, "iamo": 7772, "iams": 7101, "ian": 681, "iana": 4457, "iance": 4355, "iances": 15600, "iane": 16715, "iani": 16109, "ianne": 32058, "iano": 5592, "ians": 3293, "iant": 5757, "iantly": 42767, "iao": 19883, "iar": 8271, "iare": 15054, "ias": 3679, "iasi": 28859, "iasis": 45503, "iasm": 20789, "iast": 45006, "iat": 4543, "iate": 15521, "iation": 7064, "iatr": 46986, "iatric": 12473, "iatrics": 31639, "iatry": 19062, "iatus": 44141, "iau": 43804, "iaux": 32752, "iaz": 37855, "iaÅĤ": 12254, "iaÅĤa": 37314, "ib": 536, "iba": 16429, "ibaba": 40589, "ibal": 39962, "iban": 22320, "ibati": 31655, "ibbean": 15249, "ibe": 13210, "ibel": 38551, "iben": 14968, "iber": 2165, "ibes": 38109, "ibfi": 21898, "ibi": 22546, "ibia": 24664, "ibil": 15159, "ibile": 17743, "ibili": 24881, "ibilidad": 40125, "ibilidade": 48233, "ibilit": 18101, "ibilities": 13089, "ibility": 2391, "ibilitÃ©": 34267, "ibilitÃł": 35454, "ible": 918, "ibles": 11159, "ibli": 11379, "ibly": 4278, "ibo": 26902, "ibouti": 30289, "ibr": 1874, "ibraries": 7537, "ibrary": 2599, "ibration": 21402, "ibre": 31174, "ibt": 8475, "ibu": 43652, "ibus": 20939, "ic": 287, "ica": 1640, "icable": 34420, "icago": 5127, "icaid": 16014, "ical": 622, "ically": 1620, "icals": 20247, "icamente": 30653, "ican": 7469, "icans": 31739, "icar": 10455, "icaragua": 24667, "icare": 11392, "icas": 7335, "icate": 5170, "icated": 3955, "icates": 23052, "icating": 15575, "ication": 2805, "ications": 3777, "icator": 33169, "icaÃ§Ã£o": 28761, "ice": 509, "iced": 5449, "icer": 8896, "ices": 891, "icester": 30614, "ich": 485, "icha": 38047, "ichael": 9337, "iche": 5295, "ichen": 11728, "icher": 9070, "ichern": 45731, "ichert": 16193, "icherung": 22169, "iches": 22018, "ichever": 31478, "ichi": 22400, "icho": 50000, "icht": 1678, "ichte": 15321, "ichten": 17437, "ichter": 36240, "ichtlich": 43032, "ichts": 24703, "ichÃ©": 35870, "ici": 1892, "icia": 18717, "icial": 5349, "ician": 7823, "icians": 5397, "iciary": 24605, "icide": 8762, "icides": 36863, "iciencies": 28550, "iciency": 6876, "icient": 5562, "icients": 49182, "icine": 5576, "icing": 6561, "icio": 14426, "icion": 17381, "icional": 35047, "iciones": 25678, "icions": 49655, "icios": 20522, "icious": 6019, "icip": 4472, "icism": 13471, "icit": 4564, "icits": 29339, "icity": 8510, "iciÃ³n": 17653, "ick": 656, "icke": 48027, "icked": 15641, "icken": 6132, "icker": 21535, "ickers": 43200, "icket": 10472, "ickets": 15270, "icki": 41736, "icking": 12653, "icks": 4303, "ickstarter": 13678, "ickt": 47065, "icky": 20700, "ickÃ©": 38575, "icl": 45699, "icle": 1482, "icles": 2844, "ico": 1956, "icol": 21586, "icole": 19190, "icon": 3237, "icone": 28396, "icons": 38754, "icos": 7960, "icro": 2371, "ics": 862, "ict": 987, "icted": 10612, "iction": 3215, "ictionary": 12918, "ictions": 11881, "icts": 15548, "icular": 17200, "icularly": 30573, "icum": 46135, "icur": 49499, "icus": 25877, "icut": 15144, "icy": 1569, "icycle": 44309, "icz": 15565, "icÃŃp": 46703, "id": 314, "ida": 2376, "idable": 34729, "idad": 4739, "idade": 5158, "idades": 9643, "idae": 33525, "idal": 15301, "idan": 33851, "idance": 8606, "idas": 8360, "idate": 41118, "idation": 17781, "iday": 2832, "idays": 11514, "idd": 2408, "idden": 5405, "idding": 18742, "iddle": 3301, "iddler": 33499, "iddy": 48827, "ide": 503, "idea": 37082, "ideas": 36632, "ided": 2877, "idel": 4780, "idelijk": 36462, "ideline": 27772, "idelines": 6662, "idelity": 31843, "iden": 4863, "idence": 2359, "idency": 12716, "ident": 817, "idental": 38715, "identally": 38423, "idente": 31024, "idential": 6571, "identicon": 37247, "identified": 29509, "idents": 4098, "ideo": 1651, "ideos": 4199, "idepress": 33643, "ider": 1159, "iders": 7587, "iderspruch": 33308, "ides": 2191, "idespread": 13255, "idet": 46868, "idez": 48832, "idge": 3302, "idges": 19536, "idget": 15674, "idi": 8424, "idian": 30508, "idine": 41260, "iding": 2971, "idio": 49805, "idious": 48470, "idis": 29095, "idity": 19602, "ido": 3288, "idor": 26641, "idores": 32483, "idos": 7754, "ids": 2073, "idth": 1297, "idung": 26862, "idunt": 43503, "idy": 32479, "idÃ©": 38868, "idÃ©e": 49739, "ie": 396, "ieb": 36582, "ieber": 41900, "iec": 28965, "ied": 863, "iedad": 26990, "iedade": 32367, "ieden": 24925, "ieder": 7473, "iedo": 46339, "iedy": 34144, "iedz": 14992, "iedzi": 46107, "ief": 2549, "ieg": 11563, "iegel": 27961, "iego": 19090, "iei": 34105, "iej": 15407, "iek": 9344, "ieke": 24399, "iel": 957, "ield": 1348, "ielder": 19847, "iele": 12767, "ielen": 20154, "ieli": 37705, "ielle": 17217, "iels": 16857, "ielsen": 30094, "ielsweise": 33462, "ielt": 21831, "iem": 4600, "iembre": 29265, "ieme": 23752, "ien": 1061, "iena": 43933, "ience": 1187, "ienced": 33949, "iences": 9235, "iendo": 25685, "iene": 6770, "ienen": 15197, "ieni": 38339, "ienia": 17376, "ienie": 27468, "ienna": 22287, "ienne": 14044, "iennent": 32995, "iennes": 32847, "iens": 21319, "ienst": 13846, "ienste": 40461, "ient": 831, "ienta": 41265, "iente": 8380, "ientes": 17832, "ienti": 43615, "iento": 8334, "ientos": 25031, "ientras": 32174, "ients": 2098, "ienza": 20871, "ier": 720, "iera": 10111, "ieran": 43254, "iere": 10414, "ieren": 6046, "ieres": 42086, "ieri": 18169, "ierno": 40884, "iero": 17242, "ieron": 25261, "ierra": 13006, "iers": 4089, "iert": 5367, "ierte": 14201, "ierten": 17464, "ierter": 46379, "ierto": 31768, "ierung": 11003, "ierungs": 39286, "ierz": 39872, "ies": 429, "iesa": 42114, "iese": 22914, "iesen": 29866, "iest": 8057, "iesto": 47337, "iesz": 19953, "iet": 1066, "ieta": 44780, "iete": 27042, "ieten": 16710, "ieter": 18888, "ietet": 26780, "ieth": 25450, "ieties": 11398, "ietnam": 10850, "iets": 41825, "iett": 33755, "iety": 1969, "ietÃł": 44981, "ieu": 15019, "ieur": 32556, "ieurs": 16700, "ieux": 22239, "iev": 14101, "ieval": 18721, "ieve": 10158, "ievers": 49007, "ieves": 32942, "ieving": 37907, "iew": 742, "iez": 23515, "ieÃŁ": 48705, "ieÃŁen": 43058, "ieÅ¼": 21782, "if": 379, "ifa": 24917, "ifact": 46995, "ifax": 35954, "ife": 960, "ifen": 27423, "ifer": 7931, "ifest": 7755, "ifestyle": 27663, "iff": 3592, "iffany": 35930, "iffe": 24984, "iffer": 10256, "ifference": 38528, "ifferent": 14335, "iffic": 43655, "iffs": 14402, "ifi": 12993, "ifiable": 25001, "ific": 786, "ifica": 19787, "ificant": 23098, "ificar": 46434, "ificate": 8725, "ification": 2576, "ifications": 6032, "ificent": 24933, "ificial": 10406, "ifie": 43802, "ified": 1720, "ifier": 7714, "ifiers": 21419, "ifies": 8524, "ifik": 26768, "ifique": 28249, "ifiques": 43741, "ifiz": 47564, "ifiÃ©": 49809, "ifle": 32450, "iflower": 45098, "iform": 9132, "iforn": 3261, "ifornia": 3353, "iframe": 12644, "ifs": 11970, "ift": 2217, "ifter": 26929, "ifting": 12381, "ifts": 7803, "ifty": 29666, "iful": 3498, "ify": 1899, "ifying": 5283, "ig": 328, "iga": 7652, "igan": 6474, "igar": 31974, "igate": 18363, "igated": 42611, "igating": 36485, "igation": 5021, "igator": 27566, "igd": 35790, "ige": 2778, "igel": 30375, "igen": 2902, "igenous": 13172, "igent": 17984, "iger": 3778, "igeria": 13638, "igers": 20414, "iges": 20600, "igg": 5933, "igga": 13138, "iggas": 16562, "igger": 7114, "iggers": 23194, "iggins": 31685, "iggle": 39844, "iggs": 22698, "igh": 802, "ighe": 38745, "ighed": 18252, "ighs": 33926, "ight": 453, "ighted": 41341, "ighter": 7590, "ighters": 12622, "ighth": 15101, "ighthouse": 42281, "ights": 2029, "ighty": 24493, "igi": 18299, "igil": 33741, "iging": 35770, "igion": 16426, "igious": 12478, "igital": 5603, "igkeit": 13080, "igkeiten": 37723, "igl": 37820, "igli": 28315, "iglia": 26581, "iglio": 36609, "igm": 21492, "igma": 16550, "ign": 562, "ignant": 28399, "igne": 11606, "igned": 4888, "igner": 44682, "ignet": 26212, "ignment": 21412, "ignon": 47235, "ignt": 24479, "ignty": 25881, "igo": 8071, "igon": 41998, "igor": 38123, "igos": 20276, "igr": 4525, "igrant": 12534, "igrants": 8827, "igraph": 42213, "igration": 5606, "igs": 11246, "igslist": 41914, "igt": 5749, "igte": 31738, "igten": 25097, "igu": 17220, "igua": 25788, "igue": 17092, "igung": 10265, "igungs": 47181, "iguous": 25196, "ih": 5297, "ihad": 24955, "ihil": 37504, "ii": 3434, "iii": 19209, "iin": 45689, "ij": 885, "ija": 10400, "ijah": 41519, "ijan": 21182, "ijas": 36393, "ijd": 8500, "ije": 10369, "ijen": 37160, "ijf": 33326, "iji": 14311, "ijing": 13946, "ijk": 4611, "ijke": 11026, "ijken": 11491, "ijks": 46755, "ijn": 3450, "ijnen": 48326, "ijo": 17443, "ijos": 40970, "ijs": 36569, "iju": 7531, "ijuana": 8732, "ik": 641, "ika": 5720, "ikal": 31886, "ikan": 16133, "ikas": 41475, "ikat": 46808, "ikbaar": 46710, "ike": 582, "ikea": 49946, "iked": 23840, "ikel": 13795, "ikely": 9377, "iken": 13226, "iker": 13142, "ikers": 40991, "ikes": 8783, "ikh": 19071, "iki": 5566, "ikin": 46483, "iking": 12189, "ikk": 12098, "ikka": 35774, "ikke": 36239, "ikken": 40775, "ikker": 48821, "ikki": 38759, "iko": 11000, "ikon": 22602, "ikov": 40186, "iks": 35925, "ikt": 10122, "iktor": 48672, "iku": 17153, "ikum": 38241, "iky": 43577, "il": 301, "ila": 5816, "iland": 23327, "ilar": 2430, "ilarly": 10641, "ilateral": 32105, "ilation": 12073, "ild": 713, "ilda": 36576, "ilde": 27067, "ilden": 40031, "ilder": 13977, "ildo": 36281, "ile": 519, "iled": 5282, "ilee": 39542, "ilen": 13116, "ileo": 46813, "iler": 4818, "ilers": 19365, "iles": 2821, "ilet": 13030, "iley": 10670, "ilhar": 38763, "ili": 2082, "ilia": 17064, "ilian": 39418, "ilians": 19687, "iliar": 5972, "iliary": 36533, "iliated": 34110, "iliation": 19798, "ilib": 20069, "ilidade": 42488, "ilig": 23222, "ilight": 26434, "iling": 5505, "ilingual": 32465, "ilio": 27838, "ilis": 18673, "ilisateur": 37742, "ilit": 3286, "ilitary": 11982, "ilities": 2697, "ility": 930, "ilk": 22206, "ill": 383, "illa": 4248, "illac": 34811, "illage": 42261, "illance": 10967, "illard": 38236, "illary": 38565, "illas": 22721, "illation": 45554, "ille": 2234, "illed": 2763, "iller": 4547, "illery": 24673, "illes": 11985, "illet": 19106, "illeurs": 38315, "illi": 32911, "illian": 45638, "illin": 38034, "illing": 3643, "illion": 1356, "illip": 20818, "illiput": 23278, "illo": 12436, "illon": 22540, "illor": 43512, "ills": 2263, "illus": 46402, "illy": 8661, "illÃ¤": 37227, "illÃ©": 32275, "ilm": 31162, "ilo": 9471, "ilogy": 26937, "ilon": 45653, "ilor": 15868, "ilot": 26399, "ils": 3468, "ilst": 12554, "ilt": 2450, "ilton": 9373, "iltration": 50065, "ilty": 12415, "ilupp": 30251, "ilus": 43528, "ily": 1031, "ilyn": 44939, "ilÃł": 45285, "im": 321, "ima": 3951, "imag": 21973, "image": 1629, "images": 3018, "imagesvc": 29579, "imagin": 49847, "imal": 4412, "iman": 23614, "imar": 39118, "imas": 22812, "imat": 32135, "imate": 2085, "imated": 12727, "imately": 4388, "imates": 31345, "imation": 13559, "imb": 11708, "imbabwe": 19468, "ime": 567, "imedia": 12546, "imen": 19046, "imens": 13959, "imensional": 19143, "iment": 2055, "imental": 14574, "imenti": 24511, "imento": 6120, "imentos": 25545, "iments": 8068, "imeo": 38517, "imer": 21653, "imes": 1194, "imet": 25260, "imeter": 22313, "imeters": 45828, "img": 1354, "imi": 9795, "imiento": 14183, "imientos": 39716, "imin": 4846, "imination": 27099, "imir": 19631, "imit": 41504, "imm": 5248, "imme": 39712, "immel": 34456, "immer": 11069, "immers": 41668, "imming": 28167, "immt": 27707, "immune": 43801, "immung": 34243, "immungen": 37594, "imo": 4921, "imod": 41780, "imon": 44233, "imony": 48216, "imore": 13064, "imos": 12897, "imp": 7452, "impact": 39104, "imper": 45101, "impl": 34303, "implement": 45465, "import": 9269, "important": 19007, "imps": 45448, "impse": 24866, "ims": 4280, "imum": 3403, "imus": 35700, "imy": 34864, "in": 259, "ina": 1138, "inai": 44066, "inaire": 31525, "inal": 1368, "inally": 17063, "inals": 16187, "iname": 30019, "inand": 40667, "inander": 39980, "inar": 7397, "inars": 24655, "inary": 3699, "inas": 13014, "inate": 13468, "inated": 10321, "inating": 11314, "ination": 1965, "inations": 7958, "inaus": 33940, "inaÃ§Ã£o": 45604, "inburgh": 24642, "inc": 1775, "incare": 34768, "ince": 1191, "incer": 43249, "inces": 24486, "incess": 13292, "inch": 8495, "inci": 6313, "incinn": 21469, "incinnati": 21743, "inciples": 7128, "incl": 48654, "includ": 5474, "include": 12100, "includes": 33918, "including": 8085, "incode": 47511, "incoln": 11732, "income": 15733, "incre": 30577, "inct": 5905, "inction": 12093, "inctions": 44261, "ind": 494, "inda": 7845, "inde": 11694, "inden": 11290, "independent": 40020, "inder": 4721, "inders": 32426, "indest": 49281, "index": 10498, "indi": 11692, "india": 50229, "indian": 27890, "indianexpress": 33337, "inding": 5867, "individual": 45539, "indo": 15840, "indow": 1658, "indows": 4045, "indre": 29076, "indrical": 50006, "inds": 7094, "indsay": 34593, "indu": 12117, "induced": 21978, "indust": 17565, "industrial": 38746, "industrie": 47091, "indy": 31841, "ine": 471, "inea": 9917, "ined": 1419, "inee": 36822, "inees": 44292, "inel": 26295, "inely": 22992, "inem": 14155, "inen": 5771, "inence": 27679, "inent": 8771, "inently": 39953, "iner": 4226, "iners": 50167, "inery": 15000, "ines": 1094, "inese": 4329, "iness": 1072, "inet": 8314, "inez": 24573, "inf": 9990, "infect": 31984, "infl": 20016, "inflamm": 33380, "inflammatory": 38641, "influ": 46030, "info": 8798, "inform": 16339, "information": 12523, "informed": 37470, "ing": 283, "inge": 10843, "ingen": 8038, "inger": 4229, "ingers": 11579, "ingham": 14668, "inging": 20382, "ingle": 33320, "ingly": 6699, "ingo": 16231, "ings": 649, "ington": 9878, "ingu": 7249, "inh": 14063, "inha": 26805, "inho": 13792, "inhos": 40062, "ini": 2991, "inian": 11851, "inians": 20534, "inical": 32288, "inidad": 23733, "inin": 29508, "ining": 1633, "inis": 21250, "inist": 32898, "init": 19623, "initi": 37563, "initial": 33419, "inity": 10194, "iniz": 37586, "inj": 45360, "ink": 657, "inka": 39028, "inkel": 24870, "inker": 33311, "inki": 33770, "inkijken": 14855, "inking": 9519, "inkle": 23114, "inks": 2390, "inky": 32221, "inline": 42976, "inn": 3631, "innacle": 49433, "innamon": 25973, "inned": 21358, "innen": 15890, "inner": 11759, "innov": 36375, "ino": 1855, "inoa": 47113, "inois": 9918, "inol": 47881, "inos": 10115, "input": 12831, "inqu": 38089, "ins": 959, "inschaft": 46973, "insert": 32541, "insi": 12250, "insk": 43740, "inski": 22588, "insky": 31435, "inson": 9242, "insp": 20011, "inspired": 27974, "inst": 4518, "instagram": 33004, "install": 16386, "installation": 43453, "instance": 43820, "instap": 25288, "instapundit": 25530, "instead": 48225, "instruct": 23760, "instructables": 24911, "insula": 22398, "insurance": 48032, "insured": 40013, "int": 635, "inta": 16837, "intage": 11952, "inte": 9456, "integr": 24116, "intel": 47557, "intelligence": 44502, "intendent": 32955, "intendo": 10680, "intensive": 48091, "inter": 2423, "interest": 5305, "interface": 42428, "intern": 15351, "internal": 41328, "international": 39393, "internet": 41729, "interno": 35578, "interpret": 33951, "inters": 24691, "intes": 38501, "intestinal": 43506, "inth": 30787, "inti": 37378, "into": 16882, "inton": 4633, "intosh": 45884, "ints": 9223, "intÃ©": 41619, "inu": 30985, "inue": 5755, "inus": 45844, "inv": 25124, "invent": 43445, "invest": 19144, "inx": 42741, "iny": 4526, "inz": 40151, "io": 703, "iod": 2302, "iol": 25404, "iolet": 24689, "iology": 17124, "ion": 295, "iona": 21975, "ionage": 44430, "ional": 1351, "ionale": 15751, "ionali": 29122, "ione": 1798, "ioned": 20236, "iones": 4534, "ioni": 4322, "ionic": 44073, "iono": 41225, "ions": 510, "iopia": 21450, "ior": 1599, "iore": 27800, "iores": 37101, "iori": 49505, "iors": 12743, "ios": 3184, "iosa": 33641, "iosity": 42681, "ioso": 29518, "iot": 9136, "iotic": 28228, "iotics": 22153, "iott": 28264, "iour": 35234, "ious": 795, "iously": 10129, "iov": 15783, "iovascular": 22857, "iox": 13494, "ioxid": 26680, "ioxide": 20975, "ip": 513, "ipa": 41610, "ipal": 21326, "ipation": 31231, "ipe": 3545, "iped": 25844, "ipedia": 8641, "ipeg": 33276, "ipel": 46348, "iper": 14051, "ipers": 44048, "ipes": 6837, "iph": 24318, "ipher": 14682, "iping": 36181, "ipl": 13970, "iple": 2921, "ipment": 4185, "ipmi": 17981, "ipo": 40311, "ipp": 1702, "ipped": 5559, "ipper": 16689, "ippers": 22324, "ippi": 13808, "ipping": 3859, "ipple": 35440, "ipps": 39131, "ippy": 34182, "ipro": 44116, "ips": 2175, "ipse": 17002, "ipt": 11670, "ipur": 32156, "ipzig": 39355, "iq": 44784, "iqu": 2063, "ique": 1624, "iquement": 28489, "iquer": 30476, "iques": 3769, "iquette": 40644, "iquÃ©": 30074, "ir": 347, "ira": 4046, "irable": 17146, "iral": 8189, "iram": 35169, "iran": 33556, "iras": 19317, "irates": 13297, "iration": 8031, "irc": 2030, "irchen": 32887, "ircraft": 9603, "ird": 1360, "irds": 13570, "ire": 512, "irea": 46751, "irect": 1125, "irection": 24311, "ired": 1332, "irement": 8624, "iren": 28981, "ires": 2641, "irez": 37696, "irgin": 4862, "iri": 10911, "irie": 30816, "iring": 4012, "irit": 3895, "iritto": 30287, "iritual": 36016, "irk": 7453, "irl": 2026, "irlines": 14301, "irling": 45520, "irm": 2038, "irma": 17453, "irme": 31831, "irmed": 6095, "irmingham": 21225, "iro": 4378, "iron": 1828, "iropr": 36610, "iropractic": 47025, "iros": 17042, "irs": 11840, "irse": 48186, "irst": 743, "irt": 2310, "irteen": 33850, "irth": 3823, "irts": 8781, "irtschaft": 21037, "irtual": 10341, "irty": 10884, "irus": 2224, "irut": 49315, "irÃ¡": 49091, "is": 274, "isa": 5256, "isan": 10446, "isans": 29964, "isant": 45197, "isas": 34279, "isation": 3779, "isations": 30219, "isc": 1872, "iscal": 8947, "isce": 24141, "iscell": 28162, "iscellaneous": 30323, "isch": 5839, "ische": 5023, "ischen": 4897, "ischer": 13686, "isches": 31985, "iscing": 48553, "isco": 5673, "iscono": 47271, "isconsin": 10155, "iscovery": 47905, "isd": 10270, "ise": 774, "isec": 43798, "ised": 2104, "isel": 35210, "isem": 29852, "isen": 8196, "iser": 4952, "isers": 37196, "ises": 3242, "isesti": 48723, "iset": 44912, "isex": 48624, "isexual": 28796, "ish": 716, "isha": 22965, "ishable": 44486, "ished": 1533, "isher": 5849, "ishers": 26011, "ishes": 7005, "ishi": 20830, "ishing": 3510, "ishly": 49727, "ishment": 13892, "ishop": 14623, "ishops": 36391, "isi": 8227, "isia": 42205, "isiert": 40699, "isierung": 33670, "isin": 36142, "ising": 2129, "ision": 1327, "isions": 3976, "isis": 46565, "isiÃ³n": 44853, "isk": 5245, "iska": 26505, "iske": 17103, "isko": 40935, "isl": 3618, "isle": 26500, "ism": 994, "isma": 32686, "isman": 40866, "ismatic": 38502, "isme": 11428, "ismet": 44494, "ismo": 5920, "isms": 14014, "ismus": 22095, "iso": 8169, "isode": 4354, "isodes": 10358, "isoft": 40698, "isol": 27593, "ison": 2372, "isons": 13183, "isp": 9581, "isphere": 29223, "iss": 735, "issa": 10477, "issan": 16777, "issance": 11892, "issant": 26685, "issau": 26617, "isse": 5846, "issement": 22029, "issements": 46273, "issen": 14034, "issenschaft": 23974, "issent": 24264, "isser": 26003, "isses": 36527, "isseur": 21233, "issez": 40512, "issima": 40493, "issimo": 29963, "ission": 1582, "issionais": 47190, "issional": 46969, "issions": 4894, "issippi": 14451, "isson": 26367, "issons": 47118, "issors": 45978, "issue": 23215, "issues": 35718, "issy": 44284, "issÃ£o": 34713, "issÃ¤": 44290, "ist": 399, "ista": 3959, "istan": 4371, "istance": 13131, "istani": 28486, "istant": 17482, "istar": 49877, "istas": 12116, "iste": 6709, "isted": 10225, "istem": 30061, "istema": 43378, "isten": 10685, "istence": 16092, "istent": 9403, "istenza": 46359, "ister": 1553, "istered": 15247, "isters": 8075, "istes": 17571, "isti": 14247, "istic": 3025, "istica": 38461, "istical": 20267, "istically": 23007, "isticated": 15951, "istiche": 39801, "istics": 4244, "istik": 44577, "isting": 12127, "istique": 49829, "istische": 38821, "istle": 17150, "istles": 46562, "isto": 12509, "iston": 31923, "istor": 27035, "istr": 17825, "istration": 12658, "istruttur": 44498, "istry": 5025, "ists": 1227, "isty": 39431, "istÃ¤": 27303, "isu": 20012, "isure": 20542, "isy": 17107, "isz": 25803, "isÃ©": 19550, "isÃ©e": 33756, "isÃ©es": 48227, "isÃ©s": 35989, "it": 273, "ita": 2743, "itable": 4948, "itag": 43583, "itage": 9980, "itaire": 20391, "ital": 1240, "itals": 9207, "itan": 18690, "itania": 29314, "itant": 32877, "itar": 4731, "itare": 32073, "itaria": 43994, "itarian": 11010, "itars": 40622, "itary": 29972, "itas": 12459, "itat": 17416, "itate": 10607, "itatea": 42812, "itated": 24665, "itating": 35294, "itation": 3782, "itational": 33705, "itations": 20096, "itative": 12469, "itaÃ§Ã£o": 41973, "itch": 3813, "itchen": 5497, "itches": 28405, "ite": 526, "itech": 41550, "itect": 5204, "itects": 22613, "itecture": 15755, "ited": 944, "iteit": 17631, "iteiten": 45996, "itel": 17460, "itely": 4910, "item": 9079, "itemap": 17551, "itement": 12779, "items": 43382, "iten": 4486, "iter": 2049, "itere": 16158, "ites": 1947, "itesse": 46311, "itet": 9345, "iteur": 49066, "itez": 25123, "ith": 354, "ithe": 36351, "ither": 2092, "ithium": 26181, "ithmetic": 38598, "ithu": 22811, "ithuania": 23124, "ithub": 9052, "iti": 2826, "itial": 13574, "itially": 32161, "itic": 25411, "itie": 48125, "ities": 907, "itim": 47342, "itimate": 44881, "itime": 22303, "iting": 2881, "ition": 661, "itional": 1951, "itionally": 7790, "itions": 1754, "itis": 10934, "itism": 26741, "itius": 26704, "itive": 1979, "itives": 34479, "itivity": 15175, "itle": 2067, "itled": 10335, "itlement": 37886, "itles": 36528, "itness": 6233, "ito": 3209, "itol": 14931, "iton": 47039, "itor": 1948, "itore": 45439, "itori": 29676, "itors": 5483, "itory": 32395, "itos": 12078, "itous": 29836, "its": 915, "itsch": 32256, "itsu": 31037, "itsub": 30043, "itsubishi": 30349, "itt": 798, "itta": 28204, "itte": 3183, "itted": 2689, "ittee": 3948, "ittees": 17889, "ittel": 45013, "itten": 12638, "itter": 11818, "itti": 25059, "itting": 3258, "ittings": 42456, "ittle": 1529, "itton": 42569, "itts": 11755, "ittsburgh": 16796, "itty": 15601, "itu": 7029, "ituary": 49063, "itud": 17715, "itude": 4672, "itudes": 12945, "itudinal": 36934, "itung": 2290, "itur": 31622, "itura": 46914, "iture": 7136, "itures": 24604, "itus": 16433, "itut": 29571, "itute": 3642, "itutes": 11884, "itution": 3557, "itutional": 7616, "ity": 428, "itz": 5331, "itzer": 23457, "itÃ¤": 15608, "itÃ¤t": 12563, "itÃ¤ten": 35170, "itÃ¤ts": 44442, "itÃ©": 3746, "itÃ©s": 10919, "itÃł": 4872, "iu": 7052, "ium": 1505, "iums": 44186, "ius": 5370, "iv": 432, "iva": 4332, "ivable": 32934, "ival": 2978, "ivalent": 34618, "ivals": 19167, "ivamente": 20301, "ivan": 14318, "ivari": 43582, "ivas": 19426, "ivat": 34313, "ivate": 39928, "ivated": 37213, "ivating": 40500, "ivation": 30947, "ive": 446, "iveau": 18261, "ived": 1739, "ivel": 20261, "ively": 1977, "iven": 1812, "iveness": 7619, "ivent": 31034, "iver": 1619, "iverpool": 13333, "ivers": 1140, "iversary": 10643, "iverse": 6440, "iversity": 1518, "ives": 1168, "ivet": 48594, "ivi": 11593, "ivia": 15185, "ivid": 1593, "ividad": 38522, "ividade": 33055, "ividades": 30930, "ividual": 11907, "ivier": 34587, "ivil": 3523, "iving": 1591, "ivism": 35431, "ivist": 41306, "ivities": 32233, "ivity": 3556, "ivitÃł": 19516, "ivo": 4384, "ivos": 14050, "iw": 29780, "ix": 888, "ixa": 28426, "ixe": 41287, "ixed": 9093, "ixel": 8062, "ixo": 26970, "ixon": 17343, "iy": 9916, "iya": 38816, "iz": 488, "iza": 12435, "izabeth": 10748, "izable": 16871, "izaciÃ³n": 26172, "izada": 31251, "izado": 23488, "izados": 36979, "izar": 8654, "izard": 16514, "izards": 25127, "izarre": 19373, "ization": 1741, "izational": 49892, "izations": 11269, "izaÃ§Ã£o": 17966, "ize": 974, "ized": 1315, "izen": 14232, "izens": 17352, "izer": 7385, "izers": 17778, "izes": 3019, "izi": 11453, "izia": 21533, "izie": 41200, "iziert": 37942, "izin": 30085, "izing": 3262, "izio": 13835, "izion": 46336, "izione": 13254, "izioni": 22043, "izo": 26749, "izon": 9604, "izons": 32797, "izont": 14304, "izontal": 17014, "izoph": 28480, "izophren": 28558, "izu": 45962, "izz": 4667, "izza": 9840, "izzard": 31539, "izzare": 26989, "izzata": 43002, "izzati": 39638, "izzato": 30987, "izzazione": 22608, "izzo": 22635, "iÃ£o": 25163, "iÃ§a": 41874, "iÃ§Ã£o": 18359, "iÃ§Ãµes": 27941, "iÃ¨me": 38465, "iÃ¨re": 7798, "iÃ¨rement": 25277, "iÃ¨res": 27648, "iÃ©": 36081, "iÃ©n": 12802, "iÃ«": 30357, "iÃ³": 16617, "iÃ³n": 2639, "iÃŁ": 15087, "iÄħ": 16807, "iÄĩ": 21095, "iÄį": 17835, "iÄĻ": 9902, "iÅ¾": 32587, "j": 107, "ja": 2623, "jab": 34344, "jac": 15251, "jacent": 21021, "jack": 20139, "jad": 42115, "jadi": 44108, "jah": 35152, "jahr": 43056, "jak": 26308, "jal": 18884, "jam": 21159, "james": 41532, "jamin": 14926, "jan": 11717, "jar": 12776, "jas": 17823, "jav": 26564, "java": 19285, "javascript": 37292, "jay": 37151, "jb": 39954, "jd": 23698, "je": 2080, "ject": 790, "jected": 38906, "jection": 30398, "jed": 19357, "jee": 38058, "jek": 17596, "jekt": 13489, "jekte": 44948, "jel": 23653, "jem": 12934, "jen": 8710, "jer": 12961, "jes": 10526, "jest": 29267, "jet": 5302, "jets": 22217, "jev": 40101, "ji": 4118, "jiang": 42458, "jih": 34578, "jim": 40672, "jin": 36122, "jj": 31494, "jk": 47857, "jl": 46082, "jm": 24167, "jn": 38739, "jne": 39363, "jo": 4428, "job": 18373, "jobs": 35816, "john": 30280, "join": 41950, "jon": 9995, "jonal": 48551, "jones": 45612, "jong": 45879, "jons": 48597, "jor": 15031, "jos": 22942, "jou": 43548, "jour": 12565, "jourd": 25117, "journal": 13986, "journalArticle": 32253, "jours": 15020, "joy": 2548, "jp": 1151, "jpeg": 13630, "jpg": 1181, "jpibfi": 21906, "jr": 37772, "js": 6158, "json": 18133, "jt": 26077, "ju": 7277, "jud": 9097, "jug": 40354, "juk": 43166, "jul": 39970, "jun": 33058, "jung": 48768, "jury": 25920, "just": 3333, "justice": 20586, "juven": 42791, "jzg": 32172, "jÃ¤": 37252, "jÃ¤hr": 33275, "jÃ¸": 23687, "jÃł": 18372, "jÄħ": 14523, "jÄĻ": 14665, "jÅ¡": 48556, "jÅ¡ÃŃ": 38790, "k": 108, "kB": 12238, "ka": 2017, "kaar": 25206, "kach": 44453, "kal": 18143, "kam": 29119, "kamer": 45144, "kami": 47512, "kamp": 33219, "kan": 6297, "kap": 25627, "kar": 13569, "kart": 38282, "kas": 28912, "kat": 21959, "kata": 33675, "kaz": 38392, "kb": 38723, "kc": 17989, "kd": 24736, "kdirs": 37538, "ke": 387, "kea": 39652, "ked": 31077, "kee": 13582, "keep": 12643, "keeper": 21094, "keepers": 37757, "keeping": 22486, "kees": 25428, "kefeller": 49292, "kehr": 26762, "kei": 46005, "keit": 7553, "keiten": 17610, "keits": 48170, "kel": 9919, "kele": 37503, "keley": 16622, "kem": 31492, "ken": 2178, "kening": 43491, "kennt": 45648, "kens": 19753, "ker": 3571, "kern": 48093, "kernel": 28042, "kers": 14827, "kes": 6767, "ket": 6156, "key": 2714, "keys": 17831, "kg": 11524, "kh": 17407, "ki": 3010, "kich": 31910, "kick": 19478, "kickstart": 27202, "kid": 41975, "kids": 35321, "kie": 13093, "kiego": 47858, "kiem": 27243, "kien": 38397, "kih": 37976, "kil": 28679, "kill": 26254, "kim": 17808, "kin": 5883, "kina": 26739, "kind": 14129, "king": 5602, "kins": 6697, "kinson": 32171, "kir": 40042, "kit": 14962, "kitchen": 41312, "kj": 49482, "kk": 9192, "kke": 25538, "kken": 22019, "kker": 31503, "kl": 3517, "klace": 33586, "klad": 29044, "klahoma": 12651, "klar": 47397, "kle": 15969, "klore": 43941, "klÃ¤r": 14698, "klÃ¤rung": 20200, "km": 11105, "kn": 3610, "know": 18062, "known": 4553, "ko": 3359, "kohol": 42122, "kok": 22891, "kol": 18923, "kom": 11133, "komm": 30278, "kommen": 27018, "komst": 33240, "kon": 9767, "konom": 47301, "kont": 23368, "kontakte": 44275, "koop": 40837, "kop": 33193, "kor": 18303, "korzyst": 39689, "kos": 38775, "kosten": 29559, "kot": 46546, "kou": 34856, "kov": 12060, "kow": 11382, "kowski": 34955, "kowy": 49690, "kr": 10724, "krank": 45941, "kre": 19688, "ks": 574, "ksam": 38155, "ksan": 19016, "ksen": 27299, "kshire": 48756, "ksi": 14733, "ksom": 40567, "kst": 14042, "kswagen": 46632, "kt": 1779, "kte": 12109, "kten": 29460, "kter": 32464, "ktion": 10801, "ktionen": 25514, "ktiv": 44251, "ktop": 9022, "ktor": 29259, "ktur": 25666, "kty": 36195, "ku": 4705, "kun": 39807, "kunft": 30062, "kung": 31958, "kur": 28602, "kus": 32143, "kv": 35513, "kw": 24270, "kward": 18871, "ky": 2845, "kÃ¡": 39515, "kÃ¤": 21673, "kÃ©": 26991, "kÃ³w": 25826, "kÃ¶": 25353, "kÄħ": 35857, "kÄĻ": 30713, "kÅĤad": 43795, "l": 109, "lGOD": 7724, "lGODlh": 7741, "lGODlhAQAB": 7786, "lGODlhAQABAAAAACH": 7976, "la": 2102, "lab": 18553, "label": 19284, "lac": 44029, "lad": 10421, "laden": 34417, "ladesh": 15732, "lag": 10831, "lage": 13462, "lagen": 18023, "lah": 46435, "laim": 22006, "lain": 43259, "lak": 41465, "lake": 38138, "lam": 3726, "lan": 10812, "land": 924, "lander": 25957, "landers": 43921, "lando": 13560, "lands": 2731, "lane": 42184, "lang": 11489, "langen": 31300, "language": 17081, "lap": 31808, "lar": 7358, "laration": 24731, "lare": 22477, "lares": 28636, "larg": 15964, "large": 7503, "largest": 39502, "larÄ±": 30355, "las": 11967, "lash": 26975, "lass": 20801, "lassen": 47279, "lasses": 25207, "last": 9168, "lasting": 29142, "lat": 15562, "late": 16833, "lated": 31597, "latego": 48945, "later": 43239, "latest": 7300, "lation": 16531, "laub": 20952, "lauf": 38589, "launch": 44483, "laus": 26834, "lav": 13516, "lavery": 37280, "law": 11442, "laws": 35084, "lay": 12026, "layer": 38328, "layout": 47840, "lazy": 7053, "lazyload": 10606, "lb": 27047, "lbs": 48356, "lc": 34937, "ld": 416, "lder": 48375, "ldon": 43967, "le": 289, "lead": 31771, "leader": 41846, "leading": 15492, "leaf": 39399, "league": 34077, "leaning": 42579, "leans": 14969, "lear": 4604, "learn": 32751, "learning": 32386, "lease": 1129, "leased": 18256, "leases": 25125, "leben": 34286, "lec": 38410, "lect": 768, "lectic": 44154, "lection": 2184, "lectric": 49430, "led": 1219, "leden": 44015, "ledge": 2847, "ledning": 47453, "lee": 11108, "leen": 19450, "leep": 10960, "left": 8835, "leg": 1837, "lega": 48673, "legal": 20885, "lege": 2770, "legen": 22360, "leground": 44665, "legt": 28700, "lei": 23795, "leich": 43889, "leicht": 36955, "leiding": 47137, "leigh": 40999, "lein": 35907, "leist": 23471, "leistungen": 41543, "leitung": 2718, "lek": 40873, "lel": 49390, "lem": 7913, "lement": 1927, "lementary": 14889, "lements": 8787, "lemy": 30839, "len": 8088, "length": 10134, "leo": 46140, "leon": 49960, "lep": 20964, "leps": 47815, "ler": 1861, "leri": 28899, "lerin": 42031, "lernen": 24337, "lers": 10684, "les": 804, "lesen": 41722, "lesh": 17660, "less": 1405, "lessly": 11282, "lessness": 26969, "lest": 37767, "let": 1011, "leta": 33971, "letag": 41614, "letal": 36046, "letcher": 35250, "lete": 2585, "leted": 10189, "letely": 39400, "letes": 33410, "leting": 25952, "letion": 17697, "leton": 12826, "lets": 7921, "lett": 14073, "lette": 15318, "letter": 5579, "letters": 12610, "letzt": 44043, "leur": 23393, "leurs": 29927, "lev": 10005, "levant": 16148, "levard": 25963, "level": 6992, "lever": 33665, "lex": 1764, "ley": 1780, "leyball": 41266, "leys": 31751, "lez": 18045, "lg": 40321, "lh": 6954, "li": 1358, "lia": 9053, "liable": 38043, "liament": 7848, "liance": 26188, "lib": 6826, "liber": 33474, "libfreeipmi": 29359, "libr": 44506, "libraries": 42393, "library": 26224, "librte": 49988, "lic": 598, "lica": 37617, "lical": 21423, "lication": 7350, "license": 44886, "lich": 2442, "liche": 6127, "lichen": 5569, "licher": 14991, "liches": 29264, "lichkeit": 24569, "licht": 10776, "lick": 1999, "licken": 40875, "lickr": 19055, "lict": 20921, "licted": 32635, "lie": 6078, "lied": 17706, "liegen": 44000, "lier": 19442, "liers": 11352, "lies": 15805, "liest": 15248, "lieÃŁ": 15727, "lieÃŁen": 38001, "lieÃŁlich": 22871, "lif": 34684, "life": 6179, "lift": 42126, "lig": 9056, "liga": 28246, "lige": 29544, "ligere": 46258, "light": 3654, "lights": 9013, "ligt": 32107, "lijk": 19288, "lijke": 29131, "lik": 14906, "like": 3663, "liked": 48427, "likely": 47317, "lilliput": 38074, "lilliputpress": 38085, "lim": 3036, "lime": 42214, "liminary": 19155, "limit": 29640, "limited": 11093, "lin": 3225, "line": 1010, "linear": 31201, "lined": 12891, "liner": 36923, "lines": 7125, "liness": 34439, "ling": 1722, "linge": 46702, "lingen": 27771, "linger": 41555, "lings": 14208, "lington": 20175, "linien": 49593, "lining": 24950, "link": 5269, "linked": 37600, "links": 21069, "linux": 20222, "lio": 10832, "lip": 46689, "liqu": 37763, "lique": 16995, "lis": 29062, "lish": 2375, "lished": 5573, "list": 4655, "listed": 24278, "listing": 41464, "lists": 23365, "lit": 19011, "lite": 47072, "liter": 24164, "little": 37317, "liv": 25023, "live": 18760, "lived": 34590, "liver": 15908, "living": 30953, "liwo": 34897, "liÄį": 48247, "lj": 20171, "ljen": 35257, "lk": 43885, "ll": 607, "lla": 10368, "lle": 17282, "ller": 24041, "lles": 44044, "lli": 29137, "llo": 38267, "ln": 21911, "lo": 2776, "load": 1626, "loaded": 29818, "loader": 48171, "loading": 31559, "loan": 24904, "loc": 16852, "local": 9992, "localhost": 48857, "location": 28309, "lock": 10616, "locked": 44267, "loe": 32047, "log": 4381, "login": 33827, "logo": 13404, "logs": 37792, "lon": 15673, "long": 7767, "loo": 33477, "look": 6068, "looking": 14380, "loop": 28096, "lop": 34129, "lor": 4909, "lord": 42470, "loroquine": 47180, "los": 9381, "lose": 24005, "loss": 11369, "lossen": 28908, "lossy": 31517, "lost": 39001, "lot": 28901, "lou": 22083, "lov": 16350, "love": 19000, "loving": 47322, "low": 12537, "lower": 26461, "lr": 22781, "ls": 9030, "lt": 1989, "ltre": 22372, "ltry": 37430, "lu": 2662, "luc": 43650, "lude": 39718, "luent": 39158, "lung": 11638, "lungen": 39096, "lungs": 44193, "lus": 33897, "luss": 17908, "lust": 32534, "lux": 29546, "lv": 47332, "ly": 333, "lying": 3641, "lymouth": 39307, "lymp": 7988, "lyn": 8166, "lynn": 20406, "lys": 23705, "lysninger": 49002, "lywood": 8168, "lÃ¤": 14206, "lÃ¤ss": 41855, "lÃ©": 26573, "lÃ¸": 39385, "lÃł": 48370, "lÄ±": 18473, "m": 110, "mL": 43057, "ma": 1498, "maal": 26800, "mac": 14878, "mach": 20896, "machine": 33578, "mad": 12997, "made": 10462, "mag": 12348, "magazine": 32641, "mage": 44318, "magic": 45352, "mai": 30723, "maid": 49133, "mail": 2640, "mails": 32146, "main": 12693, "major": 32470, "mak": 26779, "make": 15725, "maker": 12037, "makers": 9590, "making": 10144, "mal": 5511, "male": 23914, "mals": 41246, "mam": 47310, "man": 1139, "mana": 38806, "management": 27786, "manager": 25402, "mand": 21577, "manent": 49332, "mani": 33594, "mania": 30141, "mann": 7602, "mans": 17458, "manship": 36078, "mant": 24406, "manuel": 21064, "many": 29201, "map": 10800, "maps": 41321, "mar": 3662, "mare": 17691, "mares": 40940, "margin": 31873, "marine": 29102, "mark": 3653, "marked": 36957, "market": 12147, "marketing": 34273, "markets": 36456, "marks": 15712, "markt": 32520, "married": 49299, "mart": 12842, "mary": 6996, "mas": 3986, "maschine": 41727, "mask": 31013, "mass": 23999, "masse": 47078, "master": 10966, "masters": 43409, "masÄ±": 41556, "mat": 8471, "match": 24232, "matched": 41418, "mate": 14570, "material": 32608, "mates": 11792, "math": 12938, "matic": 17409, "matrix": 49055, "matt": 44905, "max": 4340, "maximum": 46937, "may": 12971, "maybe": 36732, "maz": 40732, "maÃŁ": 46515, "mb": 8572, "mber": 2507, "mbles": 36873, "mbre": 20496, "mc": 18289, "md": 16137, "me": 1078, "meal": 37171, "mean": 40581, "meaning": 35198, "med": 1395, "medi": 3045, "media": 6910, "mediate": 15099, "mediated": 43310, "mediately": 37460, "medical": 39247, "medium": 8556, "mee": 27414, "meer": 11124, "meg": 31999, "mega": 19221, "mehr": 47154, "mek": 43175, "mel": 13301, "meld": 23115, "melden": 43278, "meldung": 42188, "mem": 13085, "member": 16194, "members": 33434, "memory": 32743, "men": 2499, "menistan": 29997, "meno": 28428, "mens": 47243, "ment": 425, "mental": 43061, "mente": 4782, "mented": 37988, "mentioned": 23640, "ments": 836, "menu": 33772, "mer": 638, "merc": 21719, "merce": 6958, "mercial": 3942, "mercially": 31083, "mere": 37809, "mered": 26958, "meredith": 29230, "meredithcorp": 29586, "meric": 1085, "mers": 14002, "mert": 49388, "mes": 4346, "mess": 33042, "message": 24372, "met": 2988, "meta": 11797, "metal": 39653, "meter": 34904, "meth": 35194, "method": 22918, "metic": 19601, "metics": 30276, "metric": 29369, "metry": 27375, "mez": 43049, "mf": 49413, "mg": 11776, "mi": 4928, "mia": 37795, "mic": 12707, "michael": 40601, "micro": 23127, "microsoft": 46317, "mid": 14974, "midd": 36986, "middle": 31993, "midt": 23520, "mie": 38674, "mil": 27523, "mile": 23170, "mill": 17999, "million": 20432, "min": 1410, "mind": 12793, "minded": 19861, "mine": 37692, "minent": 30296, "ming": 3402, "mington": 47768, "mini": 27185, "minist": 2447, "minister": 25583, "mino": 41460, "minster": 26865, "mint": 45899, "minute": 14100, "mir": 17344, "mis": 20841, "misc": 48052, "miss": 8456, "mission": 11838, "missions": 24268, "mist": 35597, "mit": 2498, "mite": 47149, "mith": 23651, "mitt": 8932, "mitted": 20344, "mittel": 24326, "mittlung": 27815, "mix": 16906, "mk": 27728, "ml": 3480, "mlung": 49798, "mm": 2880, "mma": 25954, "mmaj": 43113, "mmajunkie": 43199, "mmm": 40787, "mn": 26186, "mo": 3725, "mob": 50014, "mobile": 23050, "mod": 5146, "mode": 17461, "model": 21874, "modern": 24055, "modified": 46523, "module": 24430, "modules": 24523, "moil": 38174, "moire": 48746, "mol": 42733, "mology": 46353, "mom": 26203, "mon": 3230, "monary": 39089, "mond": 6997, "money": 25697, "mong": 46196, "monitor": 46123, "mons": 20480, "mont": 12145, "month": 9096, "monton": 27481, "moon": 43316, "mor": 23258, "more": 4014, "moreInfo": 38081, "mort": 34642, "mos": 5507, "mospheric": 18626, "most": 2320, "mostly": 41305, "mot": 17549, "mother": 16269, "motion": 37498, "motor": 40197, "mount": 17944, "mounted": 42017, "mouse": 45845, "mouth": 16020, "move": 31488, "movie": 44572, "moving": 42796, "mp": 3981, "mph": 40951, "mr": 31463, "ms": 3009, "msg": 27798, "mt": 16094, "mu": 15433, "much": 34020, "mud": 42463, "mult": 16228, "multi": 39233, "multif": 46573, "multifiles": 47958, "mun": 23030, "mund": 19599, "munition": 32407, "mur": 32981, "mus": 10922, "museum": 44802, "music": 25752, "must": 30861, "mut": 21803, "mv": 35965, "mw": 16746, "mx": 32792, "my": 2489, "mys": 25904, "mÃªme": 32668, "mÃ¶": 45343, "mÃ¶glich": 42531, "mÄĽ": 49797, "n": 111, "na": 1572, "nach": 38289, "nad": 47843, "nah": 11702, "nahme": 21789, "nahmen": 24211, "nai": 24901, "nail": 7903, "nails": 31147, "naire": 21745, "naires": 39259, "nak": 15377, "nal": 1732, "nals": 15524, "nam": 6017, "name": 3706, "named": 29490, "nament": 8823, "naments": 22391, "names": 17642, "namese": 30703, "nan": 16667, "nancy": 45437, "nant": 23772, "nants": 45607, "nap": 41901, "nar": 27797, "nas": 14994, "nat": 29252, "nate": 39605, "nation": 36480, "national": 21327, "native": 36233, "natural": 17238, "nature": 37488, "nav": 25934, "nb": 40966, "nc": 17895, "nd": 286, "nda": 17094, "ndan": 25010, "nde": 9882, "nden": 40912, "nder": 3013, "ndon": 41405, "ne": 618, "nea": 22726, "neapolis": 19576, "near": 44770, "neath": 20489, "neau": 44808, "necessary": 31091, "neck": 41536, "nect": 5739, "ned": 21845, "nee": 27189, "need": 34320, "needed": 33924, "neg": 17605, "nega": 36758, "negative": 40269, "nego": 12680, "negoti": 42837, "neh": 9363, "nehm": 27788, "nehmen": 12639, "nehmens": 42235, "nehmer": 27482, "nej": 10564, "nek": 16834, "nel": 6442, "nell": 10889, "nelle": 24038, "nelles": 39839, "nels": 22430, "nem": 17418, "nement": 17566, "nen": 2878, "nent": 20985, "neo": 42690, "ner": 1097, "nerg": 30006, "nergie": 34457, "nergy": 21347, "nero": 45758, "ners": 2648, "nes": 2505, "nesday": 4694, "nesium": 32713, "nesota": 9951, "ness": 1331, "nesty": 32638, "net": 1433, "netdna": 15093, "netes": 14249, "netic": 11432, "nets": 47873, "nett": 42513, "nette": 38831, "network": 24359, "neutral": 36705, "nev": 46788, "never": 33476, "new": 4183, "news": 7153, "nex": 13869, "next": 18624, "ney": 1925, "neys": 21936, "nez": 27745, "ng": 691, "nga": 42737, "ngen": 36459, "nger": 34421, "ngth": 22306, "nh": 6870, "ni": 2707, "nia": 7752, "nian": 43126, "nic": 12076, "nica": 18211, "nice": 28148, "nick": 23814, "nico": 24024, "nie": 3974, "niej": 23462, "niejs": 27199, "nienia": 48570, "nier": 19728, "night": 5968, "nih": 15044, "nik": 7599, "nika": 29349, "niki": 43588, "nikÃ³w": 45433, "nil": 48425, "nim": 27079, "nin": 32496, "nine": 41828, "ning": 767, "ningen": 22396, "ninger": 22332, "nings": 18122, "nio": 41051, "nios": 47379, "nis": 9574, "nisse": 28578, "nit": 32218, "nite": 34655, "nitt": 27261, "niÄĻ": 39035, "nj": 32789, "nje": 49239, "nl": 11375, "nm": 23960, "nn": 25556, "no": 1361, "nob": 37662, "noc": 6428, "noch": 35625, "nocookie": 7293, "nod": 47784, "node": 19697, "nofollow": 47591, "nog": 29983, "nom": 20135, "non": 12345, "none": 8794, "noon": 8740, "nopin": 48104, "nor": 27400, "norm": 25467, "normal": 14721, "north": 47061, "nos": 5575, "noscript": 6846, "nost": 9523, "nosti": 19035, "not": 2007, "note": 18263, "notes": 21628, "nothing": 40405, "nou": 30860, "nous": 41621, "nov": 8840, "nova": 46271, "now": 2396, "nown": 38578, "noÅĽci": 14412, "noÅĽÄĩ": 24199, "np": 42627, "nr": 32706, "ns": 5980, "nsic": 30888, "nsk": 31224, "nst": 37296, "nt": 452, "ntag": 42160, "nte": 10310, "nten": 13112, "ntil": 12781, "nton": 36853, "nu": 13195, "null": 18535, "num": 27086, "number": 14723, "nummer": 48540, "nung": 18937, "nungs": 40917, "nut": 14528, "nuts": 40258, "nx": 33060, "ny": 2638, "nya": 19431, "nych": 11555, "nyder": 28924, "nym": 15854, "nz": 32238, "nÃ¡": 21384, "nÃ©": 8697, "nÃ©e": 23332, "nÃ©es": 41182, "nÃ©ho": 35402, "nÃ©s": 47466, "nÃ½": 24128, "nÃ½ch": 35629, "nÃŃ": 5324, "nÃŃch": 26055, "nÃŃho": 41067, "nÃŃm": 36918, "nÄħ": 17322, "nÄĽ": 9857, "o": 112, "oD": 34174, "oDek": 44712, "oDekReplace": 44713, "oS": 31732, "oT": 15005, "oTitle": 43730, "oTitleReplace": 44714, "oa": 13890, "oad": 748, "oading": 5655, "oak": 35527, "oard": 23035, "oat": 18005, "ob": 616, "oba": 16717, "obacter": 34835, "obal": 2250, "obar": 46508, "obb": 11727, "obbies": 39679, "obby": 7504, "obe": 5736, "oben": 31550, "ober": 1803, "obi": 14757, "obia": 36425, "obic": 29216, "obil": 13490, "obile": 2786, "obiles": 41063, "obili": 42481, "obj": 36491, "object": 13095, "objet": 49434, "obl": 21373, "oble": 41388, "obo": 21479, "obody": 8086, "obre": 17980, "obs": 6792, "observer": 27113, "oby": 20397, "oc": 417, "oca": 8912, "ocado": 27712, "ocal": 3337, "ocaly": 40545, "ocalypse": 29255, "ocalyptic": 44615, "ocamp": 31134, "ocar": 30520, "ocat": 13082, "ocate": 15911, "ocated": 11862, "ocating": 34278, "ocation": 5500, "ocations": 27490, "ocaust": 22610, "occ": 11549, "occasion": 40483, "occo": 16972, "occup": 21196, "ocene": 40227, "ocese": 41327, "och": 5067, "oche": 10211, "ochem": 18549, "ochemical": 38654, "ochemistry": 35991, "ochen": 20727, "ochond": 32767, "oci": 1724, "ocia": 20066, "ocial": 7288, "ociazione": 49570, "ociaÃ§Ã£o": 48097, "ocide": 25504, "ociety": 28079, "ocin": 49742, "ocity": 37330, "ock": 807, "ocked": 7810, "ocker": 14621, "ocket": 5452, "ockets": 15380, "ockey": 10751, "ocking": 8362, "ocks": 4484, "ocl": 39566, "oco": 7873, "ocoa": 31470, "ococc": 48501, "ocol": 4299, "ocolate": 8552, "ocom": 27352, "ocommerce": 45726, "ocon": 32254, "ocr": 2134, "ocracy": 23646, "ocrates": 43716, "ocratic": 15369, "ocrats": 32021, "ocre": 41655, "ocrine": 49834, "ocs": 11667, "oct": 12453, "octocat": 17990, "ocular": 48161, "ocument": 7247, "ocumented": 34601, "ocur": 15700, "ocus": 2064, "ocy": 22380, "ocyte": 48666, "ocytes": 35662, "ocz": 44333, "od": 386, "oda": 9201, "oday": 4134, "odd": 10411, "ode": 1116, "oded": 13985, "oden": 18193, "oder": 15341, "odes": 4289, "odge": 11408, "odi": 18425, "odia": 17066, "odian": 49750, "odic": 39736, "odie": 49232, "odies": 6698, "oding": 8008, "odium": 38152, "odo": 10880, "odont": 45848, "odor": 28789, "odore": 26347, "odos": 23317, "odox": 14746, "ods": 33297, "odu": 31765, "odus": 32226, "ody": 1381, "odynam": 26307, "odynamic": 42055, "odynamics": 49918, "odzi": 38601, "oe": 4693, "oed": 49599, "oeg": 45121, "oem": 34012, "oen": 9238, "oenix": 12410, "oes": 5192, "of": 1461, "ofen": 47057, "off": 2365, "offer": 37554, "office": 26896, "official": 22172, "offs": 10912, "offset": 17136, "ofsound": 29239, "oft": 19865, "often": 37995, "og": 444, "oga": 7700, "ogan": 17189, "oge": 22069, "ogel": 31263, "ogen": 4836, "ogenan": 40768, "ogene": 15543, "ogenen": 14280, "ogeneous": 37981, "ogener": 31027, "ogenesis": 31347, "ogenic": 18444, "ogenous": 37265, "ogens": 29452, "oger": 28277, "ogether": 9380, "ogg": 20071, "oggle": 29715, "oggles": 48276, "ogh": 36617, "ogi": 33164, "ogie": 41288, "ogl": 24533, "ogle": 1523, "ogli": 35064, "oglob": 49574, "ogly": 49672, "ogn": 2571, "ognitive": 48968, "ogo": 10164, "ogr": 27069, "ogra": 38557, "ograf": 10547, "ografia": 34833, "ografie": 46955, "ogram": 21545, "ograms": 39461, "ograp": 9157, "ograph": 2062, "ographed": 27711, "ographer": 11346, "ographers": 37156, "ographic": 6883, "ographical": 16561, "ographically": 43282, "ographics": 23519, "ographie": 39465, "ographies": 35017, "ographs": 30360, "ography": 4043, "ogrÃ¡": 49246, "ogs": 20248, "ogu": 49450, "ogue": 7768, "ogy": 7789, "oh": 3947, "ohl": 14548, "oi": 4094, "oid": 3472, "oids": 23710, "oie": 36330, "oil": 31122, "oin": 14821, "oine": 30967, "oing": 36803, "oint": 1880, "ointed": 30377, "oir": 5745, "oire": 13245, "oires": 27341, "ois": 5586, "oise": 46222, "oit": 20744, "oitation": 44162, "oj": 6366, "ojen": 46146, "oji": 33514, "ok": 450, "oka": 15488, "okat": 42679, "oke": 3926, "oked": 9701, "okee": 42952, "oken": 12221, "oker": 15881, "okes": 11753, "oki": 24320, "okia": 16270, "oking": 8090, "oko": 16009, "okol": 41415, "okr": 44098, "okrat": 42051, "oks": 19801, "oku": 14947, "okus": 44972, "ol": 326, "ola": 3488, "olan": 20860, "oland": 48433, "olar": 2747, "olare": 16403, "olari": 42437, "olas": 11700, "olate": 42359, "olation": 22236, "old": 737, "older": 23644, "olding": 21491, "oldova": 26755, "olds": 12529, "ole": 2145, "olean": 18951, "olec": 8522, "olecular": 25961, "olen": 11261, "oler": 15582, "olerance": 48678, "oles": 5082,
[...]
