Ġ t 1660875073
Ġ a 1414212277
i n 1319844845
e r 1201851763
h e 1024412688
o n 966297558
r e 864953172
Ġ s 805275023
e n 797422066
a t 723207610
Ġt he 694991860
o r 684001877
e s 653799863
a n 630730535
Ġ c 621457263
Ġ w 618589522
i t 607165434
i s 582696006
o u 571186364
Ġ p 568444100
Ġ d 534538618
Ġ f 499147329
a l 496333020
Ġ b 496268114
Ġ o 495666663
a r 483765550
in g 477140235
e d 475337161
Ġ m 462893429
n d 440108997
i c 395874721
Ġt o 392207414
l e 391589468
Ġ in 387796434
Ġo f 354832994
a s 352897810
Ġ Ċ 343020471
o m 341583976
i on 341381281
Ġ h 337259092
Ġa nd 330968330
â Ģ 317161748
Ġt h 302592163
en t 291243359
i l 275339392
Ġ l 272915050
Ġ n 265908134
e l 263748935
ĉ ĉ 251176275
s t 246614503
r o 244345671
e t 243802103
Ġ e 226298499
Ġ re 225811058
Ġ S 214451654
a c 210778562
Ġ g 204525358
i d 199046396
Ġ T 197154791
Ġ I 192665796
o t 188296464
Ġ A 187576224
v e 184544075
Ġ y 183634916
i m 181567938
Ġ u 181516398
Ġ C 180165377
a d 178241083
e c 177226573
o l 177100470
a m 176519759
i g 170494725
Ġ is 162892242
o w 159428229
a y 157561383
Ġ on 156713678
l y 156141040
v er 154734913
u t 153858105
Ġf or 150243604
Ġy ou 145218003
s e 144874475
Ġ M 143546302
u r 143179913
Ġ P 142767579
âĢ Ļ 139596963
at ion 138057009
c h 136357945
Ġb e 132744128
Ġth at 129845055
i r 128960699
t er 127521018
Ġs t 125740740
2 0 124880439
Ġ B 121367478
e m 119264816
a g 117217522
it h 116319542
t h 116125323
u l 110408743
Ġ v 110377065
Ġ D 109397558
Ġa l 108462334
Ġ 1 108305291
Ġd e 108285882
c e 108244939
er s 107397355
r i 106367897
Ġ it 105301657
es t 105073007
Ġ ( 104706255
Ġa n 103768584
Ġw h 101010064
Ġw ith 100312021
q u 99878237
u n 99841904
Ġ R 98615990
c t 98570370
Ġc on 98284936
o s 97812997
u s 96574002
Ġ W 94966170
i f 94730135
Ġ F 93549313
Ġp ro 92505483
a b 92169945
il l 92072633
Ġa s 91988983
an d 90089378
o d 89261981
k e 88650013
Ġ H 88226343
h t 88118587
er e 85976615
ou t 85621292
Ġ L 85263011
p p 84920813
u m 84562051
Ġ N 83519206
i e 83458747
Ġ âĢ 83307436
Ġ r 83195647
is t 82687630
Ġc om 82534101
ou r 82493116
Ġ E 81026234
at e 80151127
es s 79913636
o re 79857283
Ġ or 79815572
Ġ he 78528117
Ġ G 78508968
o p 77647306
Ġa re 76761411
Ġa t 76637431
re s 75337475
or t 74616336
an t 73732092
Ġ 20 72783504
l d 72731179
o c 72638806
r a 71833378
Ġh a 69880742
r om 67434159
Ġw e 66772859
Ġe x 66653187
Ġn e 66414164
ar t 66229161
m ent 65568673
ĠT he 64996285
Ġs u 64684810
it y 64570951
i es 64417246
Ġ k 62515271
Ġs e 62389741
i v 62031636
ec t 61954355
en d 61391442
Ġth is 61060036
a in 60951193
Ġ O 60797228
Ġw as 59305689
0 0 58703522
Ġ le 58440112
Ġn ot 58293397
u st 58002946
Ġb y 57752782
o g 57248287
Ġ j 56877295
i ve 56013512
o st 55782611
p t 55562552
Ġs h 55103556
o k 55088574
Ã © 55073445
n t 55027076
ig ht 55024089
Ġ J 54914177
i a 54048787
Ġf rom 53990475
Ġc h 53556357
Ġha ve 53550694
al l 52699212
u d 52429601
p l 52221152
ĉĉ ĉ 52204671
a re 51870384
el l 51832912
Ġa b 51401060
a k 50286259
ar d 50230155
Ġyou r 49380858
Ġ U 48991426
i al 48888826
in e 48481251
Ġ en 48292382
âĢ Ŀ 48138075
Ġc an 48090192
g e 47585178
Ġ qu 47413294
ou ld 46920716
Ġ 2 46843760
u re 46283521
ac k 46093091
ag e 45992069
Ġd o 45671001
om e 45459133
a p 45424771
ic h 45241744
as t 44664827
Ġp l 44177966
i z 43774926
Ġw or 43298900
Ġu n 43268965
Ġ20 1 43223595
Ġs p 43110796
f f 42939910
in d 42467682
Ġal l 41369390
Ġw ill 41331774
Ġu s 41320436
b er 41096700
Ġt r 40836270
an s 40522416
o ok 40468322
ac t 40447415
id e 40413074
a il 40325489
e p 40284736
e ar 40201686
Ġ K 40195715
' s 40033186
ic e 39708639
ion s 39473450
he n 39437040
i re 39228917
i p 38583129
Ġm e 38572106
Ġa d 38348990
r ou 38222507
t e 38207898
u b 37957807
i le 37884552
Ġ V 37739633
or m 37716478
as s 37575208
Ġg o 37276898
ab le 37170533
ĠI n 36874042
it e 36538803
Ġh as 36418659
on e 36225988
p er 36189217
ĠâĢ ľ 36143721
al ly 36106074
= " 35995994
ĠT h 35927948
a v 35836361
ĉĉ Ċ 35666351
i b 35408922
Ġc l 35273364
Ġ im 35210431
c c 34888901
ou s 34881454
Ġcon t 34484905
am e 34302064
u e 34254634
Ġb ut 34158592
T he 34151431
th er 33897329
Ġm an 33815445
on g 33657520
a u 33362398
h er 33287897
at ed 33180157
Ġ 3 33069793
ĠS t 32928991
Ġm ore 32734687
Ġcom p 32631005
c om 32243310
Ġ - 32232699
Ġ out 32176207
Ġab out 32058424
Ġthe y 31931143
Ġs o 31828766
ig n 31640895
en s 31614993
on t 31512463
Ġu p 31375287
Ġp er 31313700
im e 31310458
Ġd es 30869472
a ke 30735803
g h 30703037
r u 30417422
ar y 30271722
ac e 30208498
k s 30149544
Ġl a 30096482
Ġs a 29825170
Ġthe ir 29598381
en ce 29517241
t o 29352961
e w 29238701
d u 29188962
i ke 29132630
as e 29121753
s o 28992112
or d 28990328
c l 28893876
ver y 28869749
ac h 28838292
ĉĉĉ Ċ 28837842
f orm 28804512
ul t 28618127
. . 28488784
Ġ Y 28456789
Ġre s 28392142
f er 28086122
Ġ " 28071788
r y 28052099
l ic 27933934
Ġ our 27532508
ation s 27252332
Ġwh o 27200676
o v 27182282
res s 27122843
on d 26952794
Ġon e 26933445
an ce 26924170
l l 26894959
Ġh is 26425591
er v 26242904
Ġm y 26110640
ay s 26069275
an g 25764125
Ġd is 25659015
Ġa pp 25605642
p s 25586131
o b 25373772
Ġ z 25366157
n e 25235167
Ġa g 25147991
Ġa r 25080105
Ġwh ich 25067534
ic al 25042270
Ġp art 24757501
u al 24711551
o se 24657909
ĠC h 24617037
Ġp r 24519362
Ġ Ð 24281654
Ġne w 24271794
Ġp re 24153522
Ġan y 24030149
ow n 23990409
Ġu nd 23885988
ou nt 23883159
in t 23729551
el y 23602934
ent s 23461160
m er 23450094
Ġp e 23235506
Ġe v 23097153
i k 22907178
p ort 22782548
ver s 22645169
re e 22629930
/ / 22260266
ct ion 22209396
Ġt e 22203045
Ġ 4 22150748
ing s 22004094
v el 21989384
Ġs c 21979135
ar k 21963590
re at 21931033
or s 21795709
Ġn o 21776772
ic k 21744601
in k 21693175
Ġ 5 21437320
Ġs ome 21336678
Ġy ear 21326898
it ion 21193898
Ġo ther 21155143
Ġt ime 21135896
Ġal so 21035418
Ġ Ã 21029892
Ġw ould 21012390
or y 20964596
Ġin ter 20916619
Ġbe en 20739508
at a 20689438
Ġl ike 20678803
ol l 20639108
Ġ if 20580566
Ġo ver 20543708
Ġwor k 20489700
un g 20488258
ĠI t 20465043
Ġa m 20395748
on s 20386727
Ġg et 20371552
i an 20355274
Ġth an 20192871
Ġa cc 20155622
Ġw ere 20145940
Ġb ec 20040767
Ġsa id 19957990
f t 19926326
Ġe m 19865125
Ġw hen 19850888
Ġthe m 19819842
n g 19778721
Ġwh at 19649899
op le 19595987
Ġk n 19527519
: // 19521000
Ġ [ 19472376
o ve 19459980
Ġth ere 19407327
ĠâĢ ĵ 19387835
ĉ Ċ 19358429
Ġh ad 19310466
Ð ¾ 19230393
i o 19133418
Ġit s 19061805
w n 18990671
ad e 18958166
w e 18948221
1 9 18926269
Ġ1 9 18922394
) . 18874089
an c 18841722
ou nd 18797677
il d 18748045
Ġof f 18621047
ĠW e 18480414
is h 18460113
p h 18368992
r it 18357686
Ã ¤ 18337069
i er 18305462
Ġ ro 18270618
Ġj ust 18203003
p e 18171639
at es 18144880
en c 18002951
o y 17785168
c ri 17682350
Ġpe ople 17662961
a z 17601164
Ġre c 17464716
au se 17417110
Ã ¡ 17414837
Ġf e 17373854
Ġb l 17339807
is s 17301952
1 0 17265919
ol d 17232043
ĠR e 17190082
Ġh ow 17135527
Ġd i 17133705
c k 17078407
ie w 17056274
ir st 17036290
er m 17011381
s s 16937576
o od 16884045
am p 16833595
o ad 16798010
Ð µ 16668396
at er 16620756
c he 16611769
f ter 16583123
Ð ° 16569375
Ġm ay 16567480
u ch 16545771
Ġcom m 16540144
h n 16497501
Ġh er 16436126
Ġin to 16425180
x t 16407936
b s 16371192
Ġ 6 16369252
t t 16292874
pt ion 16284021
T h 16161464
Ġne ed 16088613
n ing 16046551
le ct 15830339
Ġin d 15808610
ĠU n 15796870
à ¸ 15777740
Ġcon s 15755553
er t 15744484
is e 15686173
Ġ et 15629420
em ent 15583461
w w 15572951
u nd 15571826
Ġb et 15554270
Ġa v 15548314
r ic 15540059
Ġ i 15512449
Ġu se 15460801
cl ud 15448923
Ġ | 15444106
if ic 15334839
Ġc o 15333312
Ġad d 15293795
ĉĉ ĉĉĊ 15287643
j ect 15157848
Ġa ct 15133841
ers on 15111873
e k 15006255
g r 14948330
i ous 14913227
Ġon ly 14860024
Ġ 0 14771906
it t 14730844
Ġ 7 14705023
w o 14704071
a h 14655152
ig h 14621722
Ġqu e 14610921
l es 14576259
Ã Ń 14475674
u g 14456924
oc k 14400894
Ġp o 14308908
Ġpro v 14282841
ĠH e 14239979
re d 14115413
Ġre g 14101489
ol og 14028304
20 1 14017090
Ġf irst 14007447
y st 14005076
id ent 13989779
Ð ¸ 13989467
Ã ³ 13985905
at ing 13956456
h ing 13927510
ĠTh is 13913962
Ġkn ow 13868826
f ul 13840288
' t 13817273
Ġsu pp 13789277
ro w 13782535
os s 13759755
Ġp h 13699037
Ġd ec 13680189
i ent 13650846
Ġm ost 13649653
I n 13623547
s h 13579704
p r 13578349
ment s 13549051
ĠC om 13523510
form ation 13509013
ur n 13501876
ar ch 13496545
al e 13475821
Ġ1 0 13474252
âĢ ľ 13456555
Ġm ake 13453717
) , 13421765
Ġat t 13365002
. âĢĿ 13325878
Ġre l 13301628
Ġp ol 13300368
ou gh 13157676
Ã ¼ 13148305
Ġs erv 13135109
Ġpro du 13114996
Ġund er 13098750
rou gh 13092395
Ġthe se 13091017
t en 13082547
Ġd if 13057237
Ñ Ĥ 13045808
Ġw ant 13042317
Ġb ack 13030608
ic s 13030159
i ed 13020207
Ġ $ 13003396
y s 12989351
d er 12928677
ĠP ro 12921002
Ġs he 12920011
e f 12914533
Ġc ould 12842372
at h 12822127
Ġd ata 12814340
Ġ20 0 12810373
Ġin clud 12802673
Ġhe l 12801409
5 0 12783142
Ġ ent 12754132
Ġbec ause 12753937
Ġe very 12734081
rou nd 12726453
ter n 12720418
Ġex p 12717522
Ġim p 12673371
ub lic 12655697
i j 12648379
Ġd on 12641864
el f 12591870
i x 12543891
a x 12530860
ation al 12521756
ic es 12517682
Ġ 8 12516865
Ġp ar 12504099
b e 12485797
Ġl ook 12477964
Ġc he 12417615
ã ģ 12342787
re n 12337111
en er 12308791
an ge 12281011
Ġa fter 12280111
Ġb u 12271880
Ġin c 12216760
Ġ el 12216258
Ġf ile 12184836
Ġf l 12150189
it ies 12147763
g et 12142476
ĠW h 12136293
ul l 12125590
ag es 12120226
ht t 12101566
ĠA r 12101333
ĠY ou 12089171
it s 12081141
Ġin v 12077979
al s 12048396
ib le 12046798
Ġc ol 12039091
ow er 12033741
Ġ ke 11992878
ri v 11979311
Ġt wo 11974186
l and 11968735
Ġth rough 11964116
d ay 11963295
Ġn ow 11961745
.. . 11946560
1 2 11936585
il ity 11903604
ĠA nd 11893798
Ġ es 11859775
Ġ est 11852269
Ġ 9 11814333
Ġpl ay 11800736
an n 11765172
Ġo wn 11751412
Ġd el 11749426
Ġa c 11728977
Ġg r 11704809
b le 11701456
or k 11697699
t s 11672579
it ed 11669272
Ġas s 11664993
Ġse e 11594338
Ġin st 11569029
c o 11545121
Ð ½ 11524259
Ġre m 11459228
u p 11454295
an y 11444805
Ġs ec 11430927
yst em 11412883
Ġyear s 11364260
Ġm od 11362482
i el 11349377
Ġo p 11339947
in s 11328592
if e 11317203
Ġr ight 11307205
he d 11292104
Ġw ay 11235362
Ġd er 11226217
Ġs ur 11218210
u res 11193391
Ġp erson 11186751
Ġev en 11168549
as ed 11167809
an k 11061791
Ġsh ould 11055698
ĠS e 11025335
ĠL e 11004474
iz e 10997536
ĉĉ ĉĉĉĊ 10954757
Ġt ra 10949894
Ġwh ere 10930218
ĠN ew 10908324
1 1 10899905
ĠâĢ Ķ 10897526
Ġb r 10889647
Ġhel p 10886818
ĠT r 10849942
Ġ er 10848347
ot h 10820277
Ġf in 10801668
ic t 10798275
ul ar 10774177
Ġs et 10744768
g an 10733924
Ñ Ģ 10731109
a j 10723778
ĠA n 10703175
is m 10694657
Ġst ud 10659256
em ber 10646031
Ġin formation 10645342
Ġman y 10642174
a w 10635183
Ġd ie 10617009
Ġw ell 10609533
Ġb el 10606767
o ol 10598776
Ġs er 10590356
00 0 10557549
f ore 10554233
Ñ ģ 10542976
ak ing 10541394
or n 10540181
l ine 10535740
le t 10496984
Ġm ed 10496179
Ġ & 10482925
Ġthe n 10474810
Ġa ut 10467829
Ġp res 10457864
ĠA l 10443724
Ġ Z 10442654
v en 10426423
Ġsu ch 10415522
c ont 10405799
c i 10381219
at ive 10376924
Ġd id 10365429
Ġ Â 10340588
al th 10323198
Ġe ff 10310891
Ġm in 10303966
er n 10295497
ĠS h 10288609
il y 10263021
Ġs m 10235320
s p 10231246
u es 10199693
, âĢĿ 10198078
Ġm on 10178272
Ġd et 10169943
ur ing 10161109
Ġre qu 10158379
Ġ / 10125517
Ġtr ans 10113973
Ġd own 10109429
Ġres p 10077896
Ġg u 10072036
Ġ very 10068488
Ġh im 10051032
oll ow 10048769
at t 10046994
w ard 10009137
Ġm uch 10008745
Ġag ain 10007342
Ġin t 9970211
ail able 9934381
c on 9914758
a ir 9904286
Ġdo es 9900122
Ġre ad 9899324
Ġsp ec 9897144
us s 9883264
e x 9880357
i en 9863202
Ġl ong 9835787
om et 9831472
qu e 9826838
Ġcl ass 9825747
i et 9799359
Ġm et 9787324
Ġgo od 9776352
Ġde f 9773947
Ġth ink 9767815
Ġex per 9751810
in ess 9735913
Ġst art 9727002
t y 9723971
e b 9696006
t ing 9685313
Ġc ar 9604826
m e 9603523
Ġc all 9601645
âĢ ¦ 9589982
c ess 9549057
as on 9546703
ot her 9546220
Ġdif fer 9525530
mer ic 9516510
Ġsu b 9505668
Ġth ose 9492739
ĠI f 9489338
vel op 9474830
v iew 9466367
Ð¾ Ð 9428417
Ġ end 9422055
Ã ¶ 9421958
in es 9421520
Ġh ere 9392288
ter s 9386440
n er 9385673
Ġp ost 9374621
htt ps 9366904
Ġs im 9359619
Ġh and 9352074
Ġbe ing 9350803
Ġf ind 9339360
b l 9331858
Ġre t 9292168
Ġn um 9291475
c ed 9268637
Ġar t 9258702
Ġdes cri 9244272
Ġ = 9238606
Ġst r 9232418
a ve 9232113
Ġav ailable 9231950
Ġwor ld 9214398
r c 9213912
od e 9213561
Ġsh ow 9168200
E R 9154725
, " 9143486
ĠB ut 9103867
Ġ ĉ 9078829
at ch 9070433
d e 9069274
Ġsupp ort 9064096
ire ct 9039165
3 0 9035688
Ġus ed 9004605
ver n 8987462
le ase 8979177
Ġb est 8955629
ut ion 8947429
Ġre p 8902858
ec hn 8886639
ar g 8883829
ĉĉ ĉĉĉ 8867026
Ġfor m 8845036
gr am 8841924
in a 8832675
m an 8818166
i vers 8810247
re ad 8786504
ĠA d 8773774
âĢ Ķ 8762708
1 5 8730099
al k 8725727
w p 8702431
Ġs ch 8677936
Ġbe fore 8667914
el s 8666786
Ġ * 8662225
j p 8661947
ĠF or 8637740
g ht 8618281
ar m 8617612
us iness 8615197
W e 8608219
Ġ ed 8605130
u c 8599400
id er 8596953
ou n 8582554
a i 8552999
Ġh igh 8548112
ĉĉ ĉĉ 8524382
Ġt ake 8516656
Ġm ade 8514071
Ġ Q 8501943
o x 8497557
iv es 8491007
Ã £ 8483463
Ġs ystem 8468883
et s 8467685
Ġf r 8461314
Ġ ver 8431727
u ally 8422830
ĠD e 8384094
Ġl oc 8374333
ĠN ot 8358080
Ġc ount 8355195
ĠC l 8338202
ar s 8330253
jp g 8327993
Ġs ign 8325355
Ġv al 8325342
Ã § 8323554
ri b 8323453
Ġc ur 8311652
i ence 8309567
Ġc re 8283778
ĠA meric 8272745
ar n 8239589
in ce 8237964
Ġg reat 8236067
Ġre al 8229355
im es 8222481
Ġs ay 8192299
Ġo b 8186374
y m 8133679
as h 8093286
Ġf ollow 8078435
. " 8068647
ou se 8058203
um p 8053869
Ġl ast 8040131
Ġex t 8016834
1 8 7993149
ut e 7987680
1 4 7983863
1 6 7981675
Ġ1 2 7979442
Ġd ay 7973791
we en 7954536
Ã£ o 7940525
v ed 7928715
Ġv is 7906855
Ġc or 7895161
z e 7887938
W h 7881334
Ġ20 20 7877471
l ed 7873766
ĠS p 7866059
at ure 7861154
e ver 7860664
Ġh tt 7845522
am es 7843584
v ent 7811295
w ay 7810998
ist s 7783978
Ġb ook 7773047
Ġs ame 7762844
ĠÃ ł 7756213
Ġf am 7704605
Ġin f 7697578
Ġ ' 7697079
1 3 7682646
I t 7674692
c ent 7658776
S t 7654029
Ġc r 7636945
Ġs l 7631726
it al 7628193
pl oad 7626612
at her 7623846
Ġd em 7618005
Ġs oc 7613367
Ġm ark 7607324
cont ent 7590730
ĠB l 7584676
Ġin s 7580869
Ġst ill 7580293
t on 7578431
re nt 7575878
Ġde velop 7572279
ĠA s 7572012
Ġwh ile 7553976
Ġt y 7540653
Ġpo int 7527792
ĠI s 7521075
ce pt 7518100
Ġg l 7516141
Ġbet ween 7513880
a is 7512243
Ġcon f 7495708
g g 7492971
u ro 7491158
Ġf un 7476431
R e 7471224
p le 7462404
Ġte am 7455779
âĢ ĵ 7445188
ect ion 7439056
Ġf il 7438558
h ip 7437808
Ġs rc 7403516
t he 7398172
I N 7388326
Ġg ener 7385161
Ġs omet 7376818
Ġl ife 7365376
ro ss 7359142
O N 7357576
Ġf ound 7344168
Ġle ad 7324993
ak es 7318475
Ġgo ing 7311780
Ġqu est 7303337
Ġcomm un 7277917
Ġs ays 7252883
ĠP l 7232445
Ġus ing 7203980
2 5 7197950
Ġre port 7179941
Ġprodu ct 7170730
ĠG o 7160613
ant s 7152609
ĠS ch 7149470
h or 7144613
id th 7136732
Ġs ol 7136237
d en 7126962
Ġs k 7124846
olog y 7114375
a pp 7105026
Ġp ublic 7093901
en g 7090300
ĠF r 7089965
ww w 7077346
1 7 7076076
u f 7072951
c es 7065587
Ġdiffer ent 7063008
Ġr un 7030572
Ġa round 7028541
Th is 7016737
Ġpro cess 7004427
iz ed 7002462
Ġal t 7002114
Ġe ach 6989971
at s 6984196
Ġc our 6983145
Ġre ally 6982561
ar i 6982379
Ġp ass 6960620
b ers 6957190
Ġim port 6957119
u pload 6943813
Ġl es 6920889
is ion 6918465
Ġpro f 6902693
Ġp oss 6900482
o ot 6900405
n ess 6891957
ire d 6874939
Ġ1 8 6873226
ac y 6871040
Ġde p 6866334
4 0 6865653
Ġh ome 6865165
ur s 6840810
am ent 6826935
á » 6823513
at ic 6822769
r on 6807519
Ġl ist 6806461
Ġb usiness 6800675
Ġpro t 6798005
Ġman ual 6795309
upload s 6793630
iel d 6792588
ã Ĥ 6789300
r al 6786098
ion al 6783286
un e 6748713
Ġc are 6745050
im g 6742627
20 0 6741411
ill ion 6732279
Ġd ist 6715104
l i 6700770
ã ĥ 6688151
ir d 6679778
n o 6678869
en se 6666963
ar ly 6663028
re t 6656504
Ġdes ign 6645966
ust om 6639511
Ġha pp 6619235
in al 6617909
Ġd a 6616391
Ġpro gram 6601998
Ġb oth 6599914
y ing 6597321
en n 6593774
ĠR ep 6575185
at or 6571654
w it 6564714
r act 6560316
Ġpart ic 6554736
Ġgo vern 6538214
bs ite 6533392
od y 6529745
Ġres ult 6529468
ĠB e 6519499
Ġ . 6494093
b ook 6493495
Ġdescri ption 6486310
g y 6484838
Ġcont in 6482056
A T 6476527
Ġmon th 6476459
Ġf act 6475773
ble m 6459853
Ġm em 6456924
Ġ Ã© 6456887
m ed 6446220
a ut 6443682
ĠE x 6441661
ro p 6439789
ru ct 6437456
ĠO n 6423339
ĠâĢ ĺ 6409064
Ġc ent 6406098
E S 6404341
Ġn on 6400444
l ess 6389560
Ã ¨ 6382643
. , 6373483
rou p 6365878
2 4 6361193
m in 6349952
Ġcom e 6349863
Ġre st 6346464
Ġf ree 6340085
Ð » 6335744
Ġt est 6311408
ri end 6298637
d f 6294255
ad a 6294166
in ed 6279390
Ġ : 6278390
ec h 6277297
Ġex pl 6275700
ĠU S 6269634
A R 6263703
Ġis s 6261529
Ġd en 6244992
Ġd uring 6243785
Ġc le 6238763
w h 6235739
ur ch 6232670
Ġth ings 6232476
Ġprov id 6224046
n et 6222509
Ġt echn 6207960
Ġto o 6200013
w are 6198312
Ġ il 6197181
Ġl ot 6188019
Ġch ild 6180487
Ġd irect 6170193
Ġle g 6164690
ĠI nd 6159185
ĠP h 6158353
b r 6155363
Ġd u 6149129
Å Ĥ 6148719
ar ge 6145732
Ġnum ber 6140568
ro l 6140328
ot t 6137913
ra ph 6132672
ĠThe y 6114726
ĠC on 6113293
e le 6111047
Ġf ew 6107464
he s 6102110
Ġto p 6098241
Ġad v 6096681
Ġhe alth 6093875
Ġall ow 6085976
o f 6085133
Ġ # 6080012
ect ed 6075735
at ur 6067226
Ġwith out 6067177
Ġwe ek 6062496
y n 6058061
w ays 6056274
are d 6054221
th ing 6053079
6 0 6046248
a f 6029679
an e 6019056
Ġs it 6016032
Ġ1 5 6005959
g er 6005366
Ġp ay 6004984
Ġp os 6002820
v ing 5988514
ot e 5983089
p os 5972686
ic le 5966921
st and 5960969
Ġth ree 5943510
re en 5932030
Ġla w 5922124
8 0 5920169
Ġdis c 5916873
Ġm ain 5916613
Ġ < 5911606
ĠJ o 5904490
as es 5899738
Ġre ce 5899060
Ġst ate 5896347
Ġ ide 5896190
g o 5892446
ial ly 5883793
m a 5882754
pl oy 5878399
Ġg ame 5876906
Ġpro blem 5863339
ĠM ar 5855734
Ġ201 9 5847065
al ity 5844662
i um 5843635
Ġop en 5840691
v es 5839198
Ġinclud ing 5833060
Ġp ower 5824645
Ġe as 5819129
à ¤ 5809986
Ġke ep 5807280
Ġw rit 5805843
ĠS o 5802259
Ġserv ice 5794785
C h 5793886
ĠH ow 5790354
ivers ity 5785661
Ġsomet hing 5782715
Ġfe el 5779160
ĠA ll 5766412
ad o 5760533
og le 5757946
ĠO r 5757697
Ġm ight 5757258
r ist 5751053
Ġpl ace 5747579
p ro 5746991
itt le 5746684
Ġb ig 5745829
ou ght 5732572
or g 5730822
is hed 5726187
Ġe in 5720429
u x 5709073
Y ou 5706684
Ġst at 5703939
Ġeff ect 5703596
3 5 5702189
Ġp ut 5691160
en e 5690535
Ġs ite 5687911
Ġinter est 5686516
om en 5675263
a it 5673269
Ġp at 5673002
Ġagain st 5666670
Ġ ve 5663286
Ġm ust 5663094
A N 5656435
Ġh um 5649578
Ġor gan 5641145
is ter 5635553
Ġan n 5630787
Ġo pp 5620419
Ġj e 5619355
Ġn a 5617890
con om 5605591
Ġst and 5604224
D F 5601400
Ġre f 5601133
" : 5594709
Ġor der 5592727
Ã ł 5573548
Ġle t 5562033
w ork 5561295
E N 5556771
O R 5556288
ic y 5546688
Ġbet ter 5537545
ert ain 5536521
n a 5534008
b y 5527539
Ġinv est 5519562
enc es 5517320
enc y 5515323
Ġinc re 5506194
e e 5503031
amp le 5499256
o or 5496299
Ġne ver 5494170
iss ion 5486659
Ġan other 5482765
R ep 5480854
Ġc a 5470323
Ġsh ort 5464080
one y 5463242
Ġe le 5463228
s c 5454046
Ġp op 5450161
iv ing 5449465
Ġne xt 5448770
iv id 5436967
S h 5430166
Ġhtt ps 5428680
Ġpl an 5401345
Ġt erm 5401104
ĠT o 5399122
i or 5392427
Ġh ard 5382543
Ã ¥ 5382001
s elf 5380402
Ġs ince 5377432
ĠP r 5376701
Ġt em 5366966
Ġv an 5365918
Ġsp e 5357601
2 2 5357304
Ġbel ie 5354926
ĠâĢ ¢ 5344991
Ġacc ess 5343518
Ġ1 1 5338596
ĠTh ere 5336305
Ġbu ild 5329583
u ck 5327165
Ġs i 5325785
ĠA m 5325079
Ġg ot 5321060
i ver 5312292
ic ally 5307925
Ġhe ad 5298226
r ation 5290166
Ġc ap 5288661
i que 5284281
Ġl ove 5280095
l oad 5277830
Ġd oc 5267852
Ġsec ond 5251622
im age 5251391
ver t 5250602
um ent 5247956
ĠC ol 5230064
in ing 5225168
Ġch ange 5219688
ĠM ay 5210915
Ġb o 5201154
Ġ3 0 5189581
Ġpro ject 5183850
cc ess 5182352
ic a 5177979
Ġimport ant 5176851
or ies 5173431
Ġp rom 5171962
ub l 5161912
Ġl o 5155481
at ter 5154993
I f 5149689
Ġm ov 5146397
Ġwe bsite 5142547
ĠP ol 5140373
ide o 5136589
Ġbe h 5134312
Ġ vers 5134123
Ġa ff 5130343
Ġch o 5129892
Ġcur rent 5125636
Ġsm all 5124978
ind ow 5120858
u k 5103618
Ġof fer 5102187
Ġem ail 5087241
re am 5086747
at ely 5086569
Ġre se 5085572
ĠR es 5084850
ard s 5083005
Ð º 5079956
Ġl ess 5075185
Ġas k 5073646
Ġmark et 5064638
p or 5061817
Ġch ang 5043894
Ġcon st 5043438
Ġt ri 5042665
Ġc ustom 5034174
Ġ â 5029223
Ġal ways 5022121
ic ht 5020008
Ġl ittle 5018227
Ġc ost 5018079
Ġo per 5008241
our s 5006699
u ly 5006499
ain s 5004297
Ġb ro 5000019
Ġle vel 4996743
Ġacc ount 4996441
ĠN o 4990541
9 9 4988483
Ġ X 4972449
I D 4964909
Ġcomp any 4958222
s er 4956826
ĠTh at 4955223
Ġh ist 4952353
ĠCom m 4947059
Ġsch ool 4946915
Ġd ays 4940894
op e 4935699
Ġgovern ment 4934910
Ġp df 4932326
i pp 4923670
Ä Ļ 4922873
Ġn ame 4913068
Ñ ĥ 4903495
Ġpol it 4898147
Ġ201 6 4895523
ed er 4892935
Ġ1 00 4892101
> < 4887779
Ġon line 4873588
Ġ1 4 4870319
ĠB r 4865374
ace book 4865259
2 3 4851666
Ġhe ight 4841946
Ã© s 4839578
Ä ħ 4835562
Ġcons ider 4834656
if ied 4831976
Ġ201 7 4826170
l ing 4824654
Ġ1 6 4823795
oc i 4818573
Ġb re 4817629
ab ility 4811617
Ġm en 4805814
Ġde v 4800601
Ġse x 4796314
p ar 4795569
ou th 4794192
n al 4782217
em s 4773127
at o 4767432
7 0 4754361
Ġ1 3 4746323
Ġapp ro 4743844
Ġr is 4742090
iv ed 4740433
Ġrese arch 4723254
iz ation 4722763
s on 4722119
ĠE n 4721420
er y 4710391
Ġsoc ial 4704445
re m 4702310
Ġper form 4698083
am a 4690400
Ġp ot 4688276
Ġv iew 4686758
Ġb en 4675705
Ġf riend 4673698
Ġf ull 4673697
it ions 4666428
our ce 4666042
Ġc ase 4657089
a im 4651606
Ġ201 8 4651158
A L 4650291
ĠUn iversity 4648475
g in 4640554
ar l 4637916
u se 4635473
le x 4634895
ab ly 4632974
Ġoff ic 4628440
Ġ201 5 4624516
f or 4620854
ĠS c 4619318
ĠC o 4616674
ord ing 4613611
Ġe qu 4612028
Ġm us 4607352
ĠC ont 4602650
in c 4600455
h r 4600437
z a 4598140
ent ly 4595225
k t 4592574
le y 4581767
Ġb as 4578172
Ġab le 4576516
A S 4575246
ĠM an 4567636
Ġs al 4562507
ate g 4557340
Ġd r 4553313
I S 4549569
Ġv ar 4548237
Ġch ar 4547695
ot o 4532930
ĠP DF 4532439
Ġor ig 4532125
Ø § 4530544
ĠS u 4525493
' re 4521395
Ġm ar 4520692
ion e 4516006
Ġo ld 4508796
Ġ1 7 4508147
2 6 4507440
Ã¼ r 4501811
o ber 4501085
Ġw idth 4499358
er ing 4497279
2 8 4494899
Ġact iv 4494731
ĠTr ump 4490880
v ious 4484667
Ġu nt 4483434
wit ter 4482868
iv en 4478828
ri e 4467386
Ġsu re 4464348
Ġen g 4459800
or th 4458546
Ã ª 4458301
ĠF l 4455381
Ġexper ience 4452417
ĠA pp 4450399
Ġret urn 4449146
Ġj ob 4448955
ri es 4447998
Ġ + 4444134
I C 4440052
9 0 4436896
Ġwor d 4434486
ir on 4432948
Ġg ive 4427288
Ġprov ide 4423703
Ġm il 4417631
Ġt urn 4411589
Ġperson al 4407542
Ġcon d 4407039
Ġg row 4405865
Ġf ac 4405258
le g 4401725
Ġl ik 4400652
ĠS he 4396951
ent ial 4391110
z y 4385379
A n 4383789
Ġcon c 4375798
Ġl im 4368519
Ġpar a 4366495
end ing 4364192
Ġwith in 4358823
Ġserv ices 4358542
Rep ly 4358400
r or 4345588
Ġs ing 4342989
I T 4337045
ent ion 4335742
ĠS erv 4332776
in o 4321559
Ġp riv 4318306
Ġv i 4314320
ar r 4309555
Ġt er 4307459
Ġc ook 4304252
l er 4303472
2 7 4303469
are nt 4301969
aj or 4301457
" . 4300265
Ġp age 4297254
Ġan al 4294505
Ġ { 4293537
e ad 4290330
Ġwh y 4289020
ĠG r 4283357
is c 4281438
du ct 4279006
ib r 4272517
ĠM ed 4270021
an a 4269086
6 4 4267953
y le 4267928
et t 4267255
o int 4259175
Ġ201 4 4256551
th ers 4255225
Ġe conom 4249753
b o 4246212
Ġwork ing 4244158
Ġman ag 4243316
ail s 4241699
as ter 4236802
ĠC ent 4234348
A nd 4233644
read y 4232296
ic i 4231471
A C 4226530
ur y 4223602
Ġfam ily 4208199
Ġm oney 4201310
Ġf ar 4199001
Ġcont ent 4196833
if y 4195254
Ġw ater 4193980
Ã³ n 4191114
ur ity 4190300
Ġsh are 4190133
Ġadd ress 4183374
Ġl ine 4183255
ĠA t 4181839
Ġapp lic 4178885
Ġo pt 4176097
Ġg roup 4171955
ĠUn ited 4170508
Ġc amp 4166360
Ġk ind 4153115
ĠI m 4150145
Ġf our 4149048
Ġm ove 4148896
Ġunder stand 4140054
Ġe lect 4139654
e g 4137074
Ġcount ry 4136999
ĠE uro 4133828
Ä į 4131530
Ġm illion 4130320
ĠC an 4129965
Å ¡ 4128390
ne y 4120060
Ġp our 4119706
le ment 4116221
ĠG u 4115127
Ġw he 4112911
Ġm aking 4112315
Ġpro per 4110778
Ġnew s 4110331
Ġloc al 4108703
ĠE m 4104546
3 3 4099942
sh ort 4098794
Ġ2 5 4096649
el t 4092422
a ff 4089841
Ġ ident 4088547
Ġv ol 4085855
or ld 4078674
ĠAmeric an 4076771
a id 4075467
b re 4072853
Ġp ast 4072468
it es 4062325
it or 4061786
Ġw in 4061174
R E 4053756
ition al 4052250
Ġan t 4049703
us h 4041797
Ġth ing 4041227
Ġex ample 4030839
ic o 4029006
ut ure 4026412
2 9 4024023
u ff 4019040
A s 4018684
ã Ģ 4013758
res ent 4006996
ĠGo ogle 4005939
Å ¼ 3998847
in ation 3997468
Ġfollow ing 3996982
b ed 3993801
Ġtr ad 3988420
iet y 3987927
ar ing 3986810
and s 3985165
ort un 3983513
Ġn et 3980023
Ġal ready 3976046
Ġ201 3 3975825
Ġcont rol 3974766
iv ely 3973640
Ġpres ent 3971365
it ive 3971182
ĠE ng 3966013
Ġw r 3964966
ra w 3964901
Ġs on 3961292
al t 3958226
Ġev ent 3956175
Ġ x 3952107
Ð ² 3951633
Ġle ft 3948656
l t 3948446
p ut 3945560
Ġ2 4 3944633
Ġper cent 3943772
Ġa way 3941406
os ed 3940312
Ñ ı 3933763
Ġt ell 3932865
Ġse ver 3932573
ĠQ u 3921290
lic k 3916810
Ġus er 3915059
ĠIn st 3914684
s ide 3912436
ĠIn tern 3911691
p re 3910271
Ġcall ed 3902628
Ġf und 3901178
n ot 3898540
ul ation 3888723
on es 3887050
al d 3886260
Ġb ed 3884267
Ġcont act 3878469
Ġb it 3875083
ater ial 3873117
Ġt alk 3872322
á º 3869963
k a 3865570
Ġc ertain 3864860
Ġem ploy 3861634
A d 3861107
Ġind ivid 3859331
4 5 3857924
end ed 3856144
ain ed 3855041
ort s 3852967
ir l 3851611
y ch 3850745
) ; 3844795
ight s 3840914
ir c 3840661
che s 3840143
Ġto day 3839586
Ġme an 3838971
' m 3834643
Ġposs ible 3832987
Ġc reat 3832366
h od 3832144
ir m 3828635
ĠW hen 3825902
Ġ201 2 3823492
Ġcon n 3821561
Ġlook ing 3815993
f e 3815144
Ġt ax 3814705
Ġp i 3814009
ĠN e 3813946
pr il 3812483
f l 3811596
it er 3811529
Ġm om 3811021
pl ay 3807975
à ¹ 3807857
Ġp or 3803604
Ġof ten 3802510
im ent 3801695
Ġimp ro 3798688
Ġu t 3797394
Ġt imes 3792456
Ġm ult 3789348
2 1 3786710
0 5 3785651
og raph 3785298
i qu 3782528
oc us 3781382
Ð ¼ 3779933
Ġdid n 3777402
it le 3776005
Ġme et 3773378
av or 3769084
Ġl og 3765464
com m 3761937
ap s 3760383
id s 3755407
am s 3752305
Ġst ory 3752140
Ġth ought 3751915
4 8 3751583
ra in 3747694
ĠWh at 3747058
j e 3746853
Ġto t 3744808
il i 3743886
anc es 3739037
E D 3738842
im ate 3736911
b ack 3732617
Ġhum an 3732324
Ġunt il 3728364
s et 3726593
ot s 3720473
Ġpr act 3717384
ith er 3716337
Ġm ajor 3714579
om m 3713928
Ġdoes n 3711010
Ġto ld 3705694
Ġf ore 3704718
i ents 3701682
s el 3700437
Ġco ver 3692777
B ut 3689290
l a 3685787
Ġz u 3685210
is ed 3685154
h a 3684964
ĠSt ates 3683696
Ġbec ome 3682578
v iron 3680583
Ġen ough 3678820
Ġn ec 3677471
Ġind ust 3672116
al f 3669694
Ġv ideo 3667276
Ġb ased 3663156
ap e 3660186
re g 3657201
Ġle ast 3653896
Ñ ĭ 3649797
ĠJo hn 3649678
st er 3645320
Ġme ans 3644512
Ġchild ren 3643956
Ġag o 3642534
u ed 3640917
Ġrec ord 3638873
Ġe en 3634126
er c 3633104
Ġse ason 3631883
is ing 3628410
Ġsu ccess 3627676
ĠW ith 3627101
Ġcommun ity 3626611
F or 3625654
oc r 3624949
t r 3621149
Ġv on 3621074
Ġg e 3620930
Ġm it 3617138
Ġen c 3616447
w er 3612580
Ġe ver 3612473
ore s 3612031
ĠT e 3609860
ro ll 3608887
o le 3603091
fer ence 3602260
Ġt re 3601767
Ġv ot 3600271
er a 3598714
Ġo cc 3595958
Ã§ Ã£o 3589135
Ġf re 3586147
Ġval ue 3585351
Ġcour se 3580793
Ġprof ess 3580670
y l 3580404
r ing 3577945
ĠCh rist 3577478
ap er 3572548
0 1 3571160
Ġp ort 3570802
O S 3569498
ĠL a 3568604
ra ft 3567851
i ber 3564308
Ġche ck 3562065
Å ¾ 3561007
Ġaut hor 3560095
et er 3559447
H e 3559423
Ġspec ific 3558358
Ġu m 3558354
v al 3556015
an u 3551016
ip s 3550526
20 20 3540412
Ġmed ia 3531934
k en 3527343
Ġw omen 3526564
our ces 3524560
6 8 3524098
0 3 3523400
ric t 3521275
le ction 3520978
ut es 3515195
Ġchar ac 3512755
at ures 3510382
Ġspec ial 3509795
p x 3508455
ĠD ec 3504382
id es 3504172
ĠD es 3501560
Ġindivid ual 3501237
ĠE d 3500043
ĠA b 3499875
f ic 3492938
ĠM in 3492008
Ġre view 3491069
U n 3487989
Ġhapp en 3484342
ĠC O 3480361
Ġha ving 3479393
Ġm ind 3474204
un t 3473708
Ġm akes 3472193
op y 3471754
Ġl os 3470517
Ġf ood 3470398
Ġle arn 3469762
Ġes p 3466499
ĠP art 3463031
Ġmem bers 3462715
Ġf uture 3462543
Ġp ri 3456714
Ġac ross 3455994
ung s 3452901
if t 3450607
0 4 3442923
Ġa p 3442326
Ġ- - 3442005
Ġact ually 3436680
Ä ± 3431980
Ġm ess 3427206
ir us 3425507
Ġex c 3424924
am b 3424352
Ġth ough 3422720
Ġd one 3420654
ĠY ork 3414786
Wh at 3413158
Ġre le 3409964
A l 3408625
": " 3408509
il le 3407987
ak en 3407805
ac es 3407654
Ġhe t 3401927
Ġo thers 3401026
Ġh old 3400560
Ġfil m 3396333
Ġben ef 3395989
Ġde b 3395683
7 5 3394259
Ġre ason 3391845
ell a 3384723
Ġcre ate 3383294
Ġdo ing 3379397
ure d 3378802
" , 3377377
ob al 3376860
Ġresp ons 3374999
Ġty pe 3373693
Ġtr y 3371363
Ġp ubl 3369983
Ġvis it 3369769
O C 3369273
Ġw on 3368567
ĠF acebook 3364919
ab or 3360780
ore d 3356212
art ment 3354075
Ġbel ow 3353374
ill s 3352042
ĠC ar 3349129
Ġs ize 3348155
Ġd as 3347652
Ġg en 3347181
Ġw ar 3346321
! ! 3341273
u it 3336284
ĠM ore 3335352
Ġl arge 3332615
Ġ201 1 3331870
ur ther 3330325
u el 3329962
O n 3329120
om an 3325957
o pp 3324828
U S 3323657
Ġwe b 3322313
Ġcom ment 3307494
Ġty p 3306624
Ġinclud e 3300813
Ġl ater 3298963
ro du 3298524
Ġd om 3295411
A A 3293381
20 19 3292913
Ġun a 3292376
it ung 3292219
Ġis t 3289686
Ġproduct s 3288641
Ġto get 3288352
and o 3286879
Ġpartic ular 3285664
Ð ´ 3285533
ĠR ec 3284508
Ġl ight 3282240
Ġtoget her 3281928
ar a 3281434
3 4 3281120
i od 3280877
Ġv o 3280457
6 5 3277904
Ġl ive 3272826
3 8 3270821
Ġv ia 3268541
Ġs ide 3266958
Ġwhe ther 3264323
ir t 3263514
Ġc ou 3263201
Ġ19 9 3260918
ang u 3256602
Ġ ess 3256474
Ġal ong 3255808
Ġcl aim 3254867
ĠC al 3253399
ant e 3253218
Ġf ocus 3252953
m ost 3250975
Ġd ri 3250709
Ġwor ks 3249548
g en 3248073
Ġ ou 3245919
ĠM e 3245145
st e 3233480
ĠA ss 3230653
Ġquest ion 3225724
Ġ ĉĉ 3224102
Ġl ow 3223536
ĠEuro pe 3219859
che d 3219655
Ġa uf 3217997
0 7 3214977
Ġc rit 3214208
ad es 3211069
Ġp ur 3209143
Ġw er 3208790
Ñ Į 3208630
ĠÐ ¿ 3208228
at i 3207129
Ġc ity 3205863
Ġh ig 3205148
s k 3204856
red it 3201780
Ġ Î 3201421
u le 3200980
Ġup d 3199753
on y 3197776
g ed 3196804
Ġre du 3195637
Ġh om 3195461
ĠR et 3194589
Ġsu per 3193625
ĠS ec 3192921
p ect 3190813
ĠV er 3190024
Ġm aterial 3189805
id ence 3187034
Ġde al 3184744
f ect 3182960
ĠB y 3182123
Ġm ag 3181806
Ġrequ est 3181263
o ff 3180943
Ġc ult 3179305
ĠA g 3173879
Ġmonth s 3172655
viron ment 3172313
Ġfun ction 3170098
ic ro 3166526
is on 3165699
ĠP res 3163955
ĠD o 3163898
l ish 3163439
id a 3161320
Ġapp ear 3159413
ĠO ne 3157935
Ġke y 3157868
Ġc al 3155423
Ġare a 3154904
um e 3154394
as k 3151150
at ar 3147062
ug ust 3146592
H ow 3145070
Ġd Ã© 3144835
ĠM y 3144436
Th ere 3141359
in ks 3140899
ib ility 3140350
Ġex ist 3140052
our nal 3138420
ft ware 3136870
ain t 3133030
n ow 3132487
cl us 3131820
Ġl and 3124283
ĠB ro 3123980
Ġ @ 3122576
Ġon ce 3118806
b all 3118703
Ġp lease 3113135
Ġart icle 3110524
end er 3108933
Ġcom es 3108623
Ġsever al 3106936
id d 3106776
cri pt 3106253
7 8 3105278
Ġget ting 3105222
ur al 3102908
Ġp ress 3100680
Ġc ame 3099065
3 2 3098775
Å Ľ 3097682
E C 3095603
Ġm o 3087071
P ro 3086774
ĠG e 3086674
Ġg iven 3084695
c er 3083039
in ter 3081790
Ġan s 3080766
Ġt reat 3080105
ĠM c 3078604
Ġl ink 3076181
A r 3075026
A M 3073807
il ar 3072660
Ġ5 0 3072321
Ġdisc uss 3070428
1 00 3069433
c a 3067809
Ġw indow 3067097
ĠP er 3064281
um b 3061815
Ġ= > 3060557
g ress 3059863
Ġstud y 3059663
Ġbl og 3055721
l ich 3053344
r ight 3053137
ï ¼ 3051354
Ġs ent 3050715
Ġe arly 3050369
min ist 3049262
ra v 3048992
Ġy et 3047532
il t 3046197
Ġstud ents 3044130
ĠO ff 3040034
ond er 3038208
Ġpr im 3037762
eb ru 3037494
anu ary 3035097
ĠE l 3034422
Ġf ield 3031126
Ġpro b 3027920
Ã ¸ 3026210
an ks 3026068
un ch 3025921
Ġb ody 3025176
Ġm ass 3023959
ul es 3023356
Ġneed s 3022633
pl es 3022553
at est 3021105
an ies 3019259
ĠThe se 3014940
Ġpl us 3012612
Ġsu gg 3010966
ward s 3010944
ĠSt ate 3009056
ĠP M 3007239
Ġn ight 3006239
Ġun e 3004227
Ġsing le 3002960
Ġm ot 3002861
Ġd ue 3001513
3 6 3000440
Ġser ies 3000365
i am 2999860
os p 2996022
C om 2993295
ut ions 2992598
Ġst ep 2990329
Ġa ir 2986130
m y 2985033
Ġcom b 2981190
z en 2981035
Ġl arg 2981023
Ġstr ong 2979975
Ġ2 1 2975963
v ol 2970000
Ġsugg est 2968710
Ġed uc 2968152
m it 2966339
m en 2965792
Ġinv ol 2965481
' ve 2965052
Ġj o 2961632
Ġrequ ire 2960723
Ġyou ng 2956812
n es 2956375
pt ember 2955696
m ber 2955430
4 4 2953689
Ä ĩ 2953427
an o 2953260
ĠD r 2951384
Ġhist ory 2950651
a ult 2947018
ĠD ep 2946814
p ng 2946620
Ġbelie ve 2945909
Ġth ird 2942060
Ġcomp let 2940506
A D 2939839
Ġab ove 2938525
ĠJ uly 2937646
Ġlik ely 2937498
at ors 2937326
Ġam ong 2935573
re et 2934286
Ġme as 2933892
Ġen er 2932156
r ay 2931578
ĠN ational 2929970
ĠM arch 2929638
Ġar g 2927985
Ġorig inal 2925195
Ġkn own 2922290
ĠT witter 2921860
p en 2921516
Ġcol lect 2920940
ĠC he 2918215
Ġse en 2916732
Ġdevelop ment 2915582
E x 2913441
Ġs um 2909439
Ã Ł 2909378
ord er 2906313
0 6 2906172
s ch 2905460
Ġd ig 2905183
Ġc ode 2903014
j oy 2901906
ie f 2901893
Ġt ar 2901768
re w 2900226
Ġd at 2898934
ĠA ct 2898498
Ġte xt 2895154
a ign 2894897
Ġg ames 2892415
T o 2892069
et te 2891925
eder al 2891765
Ġqu ick 2886099
ou d 2884287
ĠS te 2882710
Ġnec ess 2882454
Ġbr ing 2880629
. ) 2879835
3 9 2878140
Ġo g 2874218
ru ction 2871912
0 8 2870774
E T 2870506
og n 2867618
o ver 2865644
- - 2865188
ĠW orld 2864150
ĠAr t 2863016
ific ation 2862766
ĠY our 2862376
Ġcomp et 2860463
Ġc ut 2856651
Ġm or 2855772
w ord 2848534
ĠC or 2847032
Ġstart ed 2845506
ct ober 2842961
le te 2837657
Ġto ok 2837210
Ġob ject 2835807
0 9 2835205
Ġeas y 2832792
P h 2832492
er o 2830924
Ġ Ñģ 2828946
Ġp ack 2827031
u i 2822071
Ġ201 0 2820942
Ġmet hod 2814672
Ġ , 2812052
ĠC ity 2809882
ibr ary 2808634
Ġst e 2805342
Ġfin anc 2802618
Â Ń 2801870
ĠG od 2801434
W hen 2801352
ĠH ouse 2801286
Ġh ours 2800942
Ġh ouse 2800038
ud e 2799652
= ' 2799288
ĠG l 2799224
ĠRe g 2795924
u ation 2795379
Ġd ans 2793517
ove mber 2792563
ear ch 2791854
ĠRep ublic 2791269
I ON 2790409
Ġcom pl 2788135
Ġam ount 2784978
v o 2784976
ru g 2784257
Ġto ol 2783732
j a 2783330
E L 2783070
Ġf all 2782381
Ġsign ific 2780275
Ġp as 2778785
' ll 2777985
a ur 2777281
op h 2777207
us ed 2776137
ĠO b 2775966
Ġp m 2774145
3 7 2770784
Ġsp ace 2765788
ĠHow ever 2765477
Ġmod el 2765370
n y 2764348
i Ã³n 2762493
m ail 2761234
i res 2760923
Ġoffic ial 2760665
O T 2760263
Ġper iod 2759507
ĠNew s 2758580
Ġpol icy 2758240
sel ves 2757684
n ers 2754549
Ġpart y 2753005
Ã º 2750703
0 2 2750684
ec ut 2748229
Ġsome one 2745653
ĠA f 2744847
Ġide a 2743552
Ġpres ident 2743195
at al 2743130
ĠD on 2742762
S o 2741806
Ġph ys 2741316
Ġa u 2740778
l u 2736501
Ġresult s 2736176
Ġs elf 2734864
ĠCom p 2732704
Ġbe gin 2729678
Ġm iss 2728160
Ġro om 2728014
ĠA pril 2727792
Ġen s 2724756
ĠP ar 2724498
p ly 2723760
ĠRe ad 2723364
Ġph ot 2721749
Ġp ers 2721568
htt p 2721513
Ġf ive 2720381
Ġf Ã¼r 2719952
Ġrel ations 2718117
Ġac cept 2717185
c ast 2716861
Ġcomp anies 2715681
5 5 2713263
r is 2712800
ĠJ une 2711762
Ġevery thing 2710810
ĠAmeric a 2709586
Ġb ad 2709197
itt ed 2706821
Ġown ers 2705679
p o 2704847
Ġvers ion 2702340
Ġch all 2700048
S e 2699692
ĠD em 2695124
" ," 2693350
il ities 2693178
Ġpr ice 2690532
on se 2688462
Ġ2 2 2688026
Ġc as 2686010
Ġe ither 2685106
Ġ2 3 2683882
Ġopp ortun 2683266
Ġm a 2681600
Ġh y 2679775
n i 2679246
Ġf ace 2678065
Ġmom ent 2676754
al es 2676477
Ġrep resent 2675076
Ġin form 2673868
Ġd am 2673599
ke y 2673357
ĠA ust 2670216
Ġ Ø 2667557
ar th 2665903
le itung 2664901
f r 2663334
ĠM ark 2660406
ec e 2656843
Ġĉ Ġĉ 2656660
Ġre d 2655786
Ġ ri 2655680
Ġne g 2654992
ain ing 2654502
Ġqu i 2654211
) : 2652615
Ġp urch 2651027
ebru ary 2649962
land s 2648606
ab les 2648340
Ġbl ack 2648027
Ġa ud 2644932
Ġiss ues 2644625
st r 2644500
as ing 2642936
Ġchang es 2641460
y t 2640174
ĠA M 2639707
U R 2639472
4 7 2639279
it a 2637961
Ġf ail 2635829
Ġquest ions 2633040
Ġtr ack 2632444
ol ar 2632056
op s 2629526
Ġp od 2625397
Ġiss ue 2625285
Ġd est 2624634
Ġw ent 2621958
Ġse arch 2619777
atur al 2618836
Ġacc ording 2617710
ro s 2613628
Ġatt ack 2613217
Ġel se 2612607
h o 2610465
Ġcle ar 2608896
an leitung 2608386
Ġqu ality 2606390
ill ed 2603261
4 9 2603114
Ġinter n 2601712
a ul 2601041
Ġ2 8 2599725
ell ing 2599316
Ġright s 2594087
le ge 2594006
Ġh ab 2592656
Ġcomm on 2588170
Ġse em 2587669
v is 2584635
ep end 2582614
l o 2582370
Ġsub ject 2582246
ig e 2580570
Ġe y 2580284
ĠÐ ² 2580253
Ġre pl 2580035
ĠPres ident 2579997
Ġcook ies 2579619
ĠK e 2579419
Ġis n 2579406
ob ile 2579116
Ġcomp ut 2578751
r am 2578245
ĠS m 2578153
he l 2577151
Ġvi ol 2575505
Ġany thing 2574415
Ġent ire 2573786
Ã© e 2572943
Ġpartic ip 2572638
" > 2572173
Ġm at 2571844
Ġtr ue 2571240
y ear 2570819
c hen 2570796
ĠA ut 2570193
Ġs em 2568280
Ġtr ying 2561246
Ä ĥ 2560742
ic ation 2558931
ĠT H 2557824
ĠW ar 2557782
ĠP ost 2557586
Ġindust ry 2557003
Ä Ľ 2555553
oun c 2554861
Ġpolit ical 2553695
Ġwho le 2553578
ag ue 2551979
ĠD is 2551368
Ġus ers 2550684
ĠN ow 2549688
c le 2549249
act ion 2548409
er ed 2548334
il es 2546100
Ġesp ec 2545993
Ġbu y 2544266
th ough 2543529
Ġf urther 2541431
it i 2541077
as hing 2538711
p ens 2538537
Ġpre vious 2537673
u y 2537164
Ġsec urity 2533569
id ay 2530906
Ġb ar 2530825
Ġo m 2527822
ĠIn c 2526726
t ime 2526028
I L 2524878
c y 2521076
IN G 2520791
w idth 2518901
ress ion 2518812
em pt 2518745
Ñ ĩ 2516562
ic les 2515654
k y 2515620
Ġl as 2510914
led ge 2510465
we et 2508291
Ġc ell 2504665
Ġbre ak 2503700
ĠB o 2502368
Ġsim ilar 2502153
Ġb i 2500067
h am 2499450
ĠS outh 2498774
Ġde ath 2498440
Ġhe art 2498207
ĠB ar 2497510
ĠM r 2496228
Ġcamp aign 2495241
Ġab s 2494975
Ġn orm 2494820
Ġgener al 2492611
Ġim m 2491996
Ġen joy 2491696
Ġadd ed 2490774
ĠR uss 2490773
Ġmus ic 2489737
ĠP re 2488570
cri ption 2487169
ver age 2486407
Ġimp act 2485249
Ġs w 2484198
Ġo d 2480751
Ġd ou 2478502
C l 2478051
id ed 2477335
n en 2475264
Ġc am 2475135
m m 2473636
it ing 2472699
Ġal most 2471166
Ġs us 2470419
Ġfin al 2468112
es e 2467560
Ġen vironment 2467099
Ġs ound 2465303
Ġrequ ired 2462330
Ġcont rib 2461883
Ġt aking 2461628
f ace 2460402
Ġr ather 2458544
he ad 2457595
Ġrec ent 2456597
angu age 2455428
Ñģ ÑĤ 2454851
ur a 2453919
Ġw atch 2453677
Ġst ay 2450459
Ġh alf 2446972
Ġh ost 2446952
ig en 2443236
Ġn ational 2442737
ĠD av 2441259
Ġo bs 2437917
Ġass oci 2435878
ĠI nt 2434321
Ġr ad 2434009
Ġcontin ue 2433153
Ġf avor 2431785
Ġh ot 2430412
Ġprovid ed 2429767
Ġtechn ology 2428226
Ġcons um 2428124
ĠP e 2428078
d o 2427691
ĠN orth 2426643
ri ed 2425791
3 00 2421299
re l 2420924
ip le 2419884
Ġc e 2419289
Sh are 2417694
Ġdif fic 2416894
ĠM on 2416876
ro om 2416870
Ġf ig 2416350
at form 2415749
9 5 2415383
Ġhtt p 2413061
N o 2409215
3 1 2408075
ys is 2407000
Ġsu bs 2406797
t a 2404771
Ġener gy 2399368
Ġimpro ve 2398338
R O 2397209
Ġan im 2396759
Ġdet erm 2396204
Ġ Ä 2394704
ĠO ur 2391452
Ġc irc 2390879
T r 2389897
ĠE r 2389579
el le 2386565
Ġfe atures 2385130
Ù Ħ 2382896
Ġa f 2382011
ens ive 2380372
Ġh ope 2379578
wh ere 2378077
Ġexp ect 2377712
P ost 2376670
c ial 2374629
Ġf a 2374622
g ing 2373501
ĠW ill 2373271
Ġ2 7 2372844
ä ¸ 2372018
ful ly 2369745
Ġa ction 2369180
Ġconc ern 2368439
Ġre comm 2368396
Ġsim ple 2367900
u ge 2367737
Ġa ge 2365737
Ġe p 2364939
Ġ2 6 2364695
Ġris k 2364539
id ing 2363964
end s 2363796
Ġes c 2362939
ĠJ ust 2362816
at en 2361737
Ġpro p 2361592
Ġd ate 2360147
iv al 2358222
g a 2357848
C on 2357834
Ġb row 2357814
Ġnot hing 2356813
Ġtot al 2356631
Ġ/ > 2356446
em ic 2356279
Ðµ Ð½ 2355708
ĠS er 2355462
m et 2354344
Ġsignific ant 2354033
Ġterm s 2353569
in i 2353440
ĠÃ ¨ 2352124
8 8 2351763
Ġfr ont 2351260
Ġevery one 2350677
Ġp arent 2350410
d own 2349995
A ll 2349670
av ing 2349517
ĠAd d 2348341
Ġm atter 2348058
ag ing 2345878
Ġcl ose 2344120
ar ter 2343716
ĠÂ » 2340098
Ġ } 2339955
v a 2339857
Ġte le 2339676
m s 2336930
k i 2335766
at ory 2332423
Ġc ases 2331891
nd er 2330826
ag ed 2330312
Ġqu al 2329091
201 7 2328337
Ġtar get 2328220
im ages 2326047
iz es 2320274
e ks 2319203
Ġresp ect 2317426
em ents 2316783
g es 2316289
co ver 2314338
ist ic 2314125
ĠC ount 2314121
Ġcharac ter 2313630
Ġst yle 2311584
ĠN et 2310457
A P 2309816
ĠCh ina 2309704
Ġaut om 2309399
Ġc ard 2306680
re ct 2306480
Ġn icht 2305489
l im 2304378
Ġp ick 2304038
ĠServ ice 2303511
Ġcan not 2302266
6 7 2302219
at is 2299519
Ġdet ails 2297886
Ġfor mer 2294371
Ġw ays 2294105
med i 2293970
Ġt aken 2291041
ov ed 2289565
Ġc oll 2289460
Ġwh ite 2289391
N ew 2289058
Ġ > 2288378
A B 2288274
v ision 2286789
Ġask ed 2283711
ag s 2283331
ĠA fter 2283310
ĠS oc 2282925
Ġprob ably 2282815
h old 2282720
ail y 2279518
Ġcom ing 2279065
Ġfriend s 2279042
S T 2278257
Ġinst all 2278047
L e 2275977
Ġplay ers 2275586
E M 2275129
Ġ ... 2273780
ĠR ed 2272533
Ġde ep 2270152
âĢĿ . 2269248
a pt 2269219
Ġper fect 2263885
Ġneed ed 2263482
Ġpoint s 2263084
Ġdiffic ult 2262362
Ġpos ition 2260902
Ġu r 2260609
or a 2260024
te xt 2259566
u a 2257100
Ġhow ever 2256794
o o 2255114
ac ed 2246820
ou ch 2243876
Ġne ar 2243469
Ġd ies 2242404
ĠP lease 2241864
Ġpre d 2240269
es p 2240093
tt y 2239168
ĠS en 2239145
ÑĢ Ð° 2238372
Ġsim ply 2235066
b en 2232635
Ġso ftware 2232156
Ġlong er 2230825
Ġword s 2229473
Ġs ens 2228385
Ġcl os 2227918
Ġre fer 2227307
Ġperform ance 2226941
Ġrelations hip 2226865
ĠA ugust 2225780
ak er 2225511
Ġbuild ing 2225187
ĠHe alth 2223149
Ġr ate 2222491
ĠâĢ ¦ 2216631
et y 2215842
Ġs ich 2212336
V ID 2211852
el d 2210626
Ġprot ect 2210586
Ġespec ially 2210157
Ġg irl 2210028
Ġtra vel 2208685
Ġbeh ind 2207981
ent e 2206296
Ġhig her 2204867
Ġpro pos 2203381
ĠU p 2202661
ĠI S 2202344
au gh 2202188
Ġin te 2201745
Ġc and 2200646
ub e 2200136
Ġwant ed 2199068
ĠU s 2196717
I M 2196344
ĠS ie 2196032
ĠSt ud 2195814
Ð · 2195562
Ġf oot 2195309
Ġreg ard 2191929
I s 2191752
Ġ ĉĉĉ 2190349
Ġoff ice 2188044
Ġse lect 2186856
Ġrun ning 2186391
201 8 2185950
Ĥ ¬ 2185452
Ġdef in 2185170
d ata 2185029
ĠBl ack 2184722
Ġro le 2181812
Ġs ix 2181022
olog ical 2179350
Ġnet work 2177767
Ġmin utes 2177445
Ġm ach 2176087
et h 2175686
Ġr Ã© 2174053
s ych 2171902
Ġout side 2171045
Ġgl obal 2168472
Ġ2 9 2167839
Ġw alk 2166009
Ġcre ated 2162151
Î ± 2161871
ĠM us 2159622
ĠJ anuary 2159435
Ġdoc ument 2158855
M ed 2156992
Ġ200 9 2155287
Ġt itle 2152498
c ome 2151073
ut h 2150095
Ġre n 2150056
Ġst op 2149326
Ġst ruct 2148829
az on 2147191
ac c 2143763
Ġshow s 2140917
z er 2139106
5 7 2138570
Ġo ption 2138020
Ġse ems 2137484
ĠW est 2137407
as c 2135564
Ġut il 2134933
Ġm er 2134686
it te 2133495
i os 2132812
Ġproblem s 2131471
Ã ¦ 2131087
av a 2129987
Ġrece ive 2129226
Ġfinanc ial 2128924
ar ning 2126944
Ġev ents 2124428
or ing 2124388
rou ps 2124351
Ġag re 2123585
end e 2120928
ff ic 2120126
C ont 2119645
Ġa ch 2117789
Ġr ange 2117613
ap an 2117474
ĠÐ ½ 2117286
Ġcl ick 2117114
r an 2115699
ĠIn ter 2115312
ĠB rit 2115302
B C 2114804
ashing ton 2113829
Ġqu ite 2113635
it o 2113528
ĠA ng 2113495
Ġs ource 2112623
Ġim age 2110860
ĠF in 2109737
rie ved 2109690
ict ion 2108310
4 6 2107946
Ã¡ s 2107730
Ġph one 2107638
Ġleg al 2107527
ĠC ons 2106813
u z 2102144
ad os 2101271
Ġinvest ig 2099383
Ã µ 2097585
l in 2096114
b a 2094048
ro id 2093966
Ġwrit ing 2093714
Ġreport ed 2093628
m on 2093169
Ġt w 2091379
L E 2091355
Ġdec ision 2091298
Ġbe aut 2090982
Ġcont ract 2088048
Ġpri or 2087557
ic on 2085063
Ġcount ries 2082798
Ġsa f 2081463
ĠT V 2081292
ĠSe ptember 2077674
is es 2077405
ĠS ome 2077035
Ġs ense 2076719
Ġst re 2076617
201 6 2074600
Ġo s 2074254
f ort 2073515
ĠH ar 2071790
ĠJ e 2070608
E n 2069918
Ġpot ential 2068454
Ġl iving 2068332
ab y 2068022
Ġset t 2067830
Ġread ing 2067723
Ġso on 2067676
itt ing 2067622
Ġpop ular 2067412
z i 2067130
if orn 2067103
iz ing 2065556
Ġincre ase 2065433
Ġun s 2065247
Ġinst ead 2063436
Ġcom ments 2063396
Ġin sp 2062285
Ã ¢ 2060113
ĠCent er 2059599
ĠI N 2059443
B y 2056254
à ® 2056120
p art 2055166
ĠH er 2053688
g l 2053616
Ġt able 2052424
Ġs ym 2049936
un k 2048096
Ġest ab 2045170
Ġm is 2045061
ro te 2043806
Ġcomp lete 2043660
Ġwe eks 2042939
Ġsystem s 2042341
Ġ ill 2041968
il it 2041634
Ġal s 2040866
id o 2040229
Ġv ari 2037801
t ain 2037373
Ġbl ock 2036408
Ġst aff 2036307
i ans 2036283
ĠS ci 2036273
Ġp ain 2036148
ĠM o 2035279
ĠD OC 2033806
EN T 2031898
Ġf ight 2031844
Ġ4 0 2031678
idd le 2030995
id ge 2030864
Ġits elf 2030831
a el 2030598
Ġcustom ers 2029499
Ġ200 8 2027735
b it 2027356
ĠG erm 2027119
Ġh ar 2026829
or ks 2026344
Ġad minist 2026319
att le 2026072
Ġexper i 2025888
Ġpubl ished 2025726
Ġdown load 2025413
Ġa us 2024021
ĠA cc 2022390
Ġw ait 2021777
Ġpol ice 2020696
ĠAr ch 2019368
S p 2018545
6 9 2018014
ar ies 2017113
b ased 2017071
ĠO ctober 2015028
Ġind ic 2014591
Ã ´ 2014128
Ġfor ward 2013653
ĠN ovember 2012436
ra p 2011694
Ġper m 2009654
O D 2009216
j ust 2009182
ad d 2006394
Ġst ates 2005466
Ġresp onse 2004664
oc al 2003472
Ġh it 2003378
ag er 2001582
ĉ ĠĊ 2001068
Ġbed ien 2001003
Ġs ou 1999741
p ost 1999165
am ed 1997739
7 7 1997333
Ġlead ers 1996977
Ð¾Ð ² 1996286
Ġfe ature 1996074
ur g 1995273
Ġex am 1994995
F ind 1993101
Ġin n 1992597
iforn ia 1991784
Ġare as 1991780
ri a 1990808
Ġg i 1990285
ĠTr ans 1989967
Ġadd ition 1987808
k o 1987551
ĠPol icy 1987243
Ġf em 1986961
Ġvar ious 1986908
ĠH is 1986468
ĠO f 1986350
ĠDem ocr 1986204
Ġt en 1985997
Ġthem selves 1985425
ĠG ener 1984256
g round 1984032
ungs anleitung 1983957
Ġbedien ungsanleitung 1981127
Ġpre tty 1980976
ĠM ich 1979894
Ġpr int 1977487
pp ed 1977172
Ġt al 1977063
G o 1976677
8 5 1976105
us es 1975941
ĠRet rieved 1975038
ĠV al 1973451
ĠM et 1972247
Ġpl atform 1972163
an ia 1971819
at ives 1971808
ĠO ut 1971030
ĠAust ral 1970028
Ġst ore 1970008
Ġproper ty 1968293
um ents 1964613
ess ion 1964532
ang er 1963232
Ġtra ining 1962498
C lick 1961246
uf act 1961176
ĠAf ric 1960967
Ġf ire 1959463
Ð ¿ 1957986
Ġt akes 1957069
Ġb all 1956307
Ġp ict 1955865
m ing 1955559
im um 1955418
Ġeng ine 1955018
ĠIntern et 1954847
ĠD ie 1954802
I P 1954245
Ġcle an 1952536
ub s 1952290
r im 1949655
Th at 1949410
Ġc u 1949316
ach ing 1949044
on a 1947697
Ġpriv ate 1946705
Ġse g 1946226
ĠÃ ¼ 1946077
Ġc redit 1945876
Ã ½ 1944626
Ġ Ù 1942034
Ġp an 1941191
Ġb ase 1940158
ed s 1939761
Ġl atest 1939185
ĠWe b 1938365
h ib 1937435
Ġp aper 1937365
Ġre lease 1936971
ĠÐ ¸ 1936929
ur ance 1936347
anc ed 1936249
Ġoff ers 1933220
Ġe ine 1933084
i i 1932140
Ġv oor 1931839
ĠDep artment 1928568
Ġopt ions 1927982
âĢ ¢ 1927818
Ġle ave 1927327
Ġsc ient 1927001
Ġde g 1926229
ur t 1925748
ĠS an 1925542
ĠP ark 1925118
Ġm ember 1924359
ament e 1923079
ĠÂ « 1922210
as ons 1921567
Ġass ist 1921444
ij n 1921057
Ġl ab 1920841
Ġf ast 1920376
I I 1919484
Ġatt empt 1917713
Ġsay ing 1915495
Ġg round 1914217
Ġdist rib 1913599
Ġst ri 1912853
ĠSch ool 1912723
Ġcurrent ly 1912716
Ġet c 1912563
p ress 1911613
Ġcond itions 1910064
Ġany one 1909744
Ġex act 1909616
O M 1908791
à ¦ 1908452
il s 1907125
Ġl ic 1906657
Ġinclud es 1906565
on av 1906466
o id 1906324
ast ic 1906019
ĠÂ · 1905333
Ð ¹ 1904744
ent al 1904698
ung en 1904531
he t 1903023
Ġ ) 1902975
m l 1902660
Ġn atural 1902076
se m 1901719
M y 1901513
oun ter 1901428
w ise 1899107
Ġl oss 1898610
Ġd ro 1898138
ol a 1897545
ĠDec ember 1895604
ĠW ashington 1895273
4 2 1892715
al i 1892039
d a 1891934
D e 1891650
op t 1891492
Ġs end 1890959
Ġyour self 1890061
if ul 1888947
Ġwr ong 1888670
ĠA N 1886755
=" " 1884772
Ġrec ogn 1884678
ĠP at 1883426
5 9 1881975
y pe 1879942
el i 1879490
re f 1878164
Ã « 1878012
e es 1877425
ish ing 1877331
Ġrel ated 1877140
Ġf ul 1877039
ce ption 1876122
Ġapplic ation 1875209
Ġdel iver 1874159
Ġd ire 1872672
k l 1872567
ar io 1871571
Ġt our 1871269
Ġm ais 1871126
Ġv ous 1871126
Ġc ause 1870976
iv il 1870372
ther n 1870369
Ġl ost 1869661
Ġmil it 1869273
Ġg roups 1868585
Ġrece ived 1868221
6 6 1868147
Re ad 1867160
ĠM od 1865488
Ġs en 1864315
Ġb ox 1864225
Ġann oun 1862335
u pp 1861697
Ġwor th 1860689
Ġa ve 1860492
Ã ± 1859569
Ġl ower 1859323
ag n 1858251
Ġadd itional 1858111
ĠWh ite 1856274
J o 1855015
Ġgr and 1853737
ip e 1853185
âĢĿ , 1851955
ĠU K 1851808
ĠWh ile 1851397
Ġcour t 1849689
O L 1849388
Ġstand ard 1849046
C H 1847511
Ġse par 1847045
Ø ± 1845214
Ġe mer 1844821
iv ity 1844471
it ution 1843378
Ġpre vent 1843290
Ġup on 1842670
Ġcol or 1842356
Å Ļ 1841807
Ġprovid es 1841381
Ġh on 1839070
vert is 1837444
Ġl anguage 1837123
ĠF ebruary 1836431
b or 1836189
Ġo der 1835386
ĠA nt 1834137
or ge 1833861
k er 1833569
ag o 1833015
U T 1830688
4 3 1830053
Ġbeh av 1829993
onav irus 1828626
P l 1828382
z o 1828289
8 9 1825907
I m 1824907
v i 1824651
ĠA c 1824369
ĠS im 1824194
< / 1823579
ĠC ong 1823397
Ġeconom ic 1823387
Ġf ederal 1820743
Ġl ate 1820547
ĠH ere 1820450
Ġar ch 1820041
Ġintern ational 1818537
if f 1818046
Ġins ide 1817977
L ike 1817969
Î ¿ 1817802
Ġmanag ement 1817634
he m 1816970
ĠIn formation 1816384
el a 1816033
Ġconn ect 1813438
Ġl ay 1813000
Ġwrit ten 1811760
ĠD ay 1811178
ac hed 1810869
Ġprodu ction 1809606
ĠC our 1808751
Ġab ility 1807913
ac iÃ³n 1806675
Ġl ives 1806090
k n 1805599
Ġcand id 1805579
Ã© t 1804755
Ġreg ular 1804603
Ġd iv 1803892
Ñ ħ 1803060
Ġb ud 1799659
v ant 1799028
is l 1797230
Ġd rug 1797050
Ġans wer 1796910
Ġs il 1796557
Ġext ra 1795999
Ġimp lement 1795514
Ġn ov 1794946
Ä ģ 1792861
Ġsh all 1791574
om b 1791371
Ġs am 1790724
Ġbec om 1790194
u j 1789247
in n 1788988
ag en 1788681
Ġdis e 1788520
ĠK ing 1788467
ĠCal ifornia 1787715
c ul 1786650
y d 1785660
Ġrec ently 1784855
g est 1783798
Ï Ħ 1783556
ly ing 1782928
it ute 1782388
ill ing 1781719
Ġmess age 1781158
h ood 1780950
ag ement 1780203
riv acy 1780031
Ġcho ose 1778931
Ġs n 1778762
I G 1778501
B l 1778147
A t 1775118
m ark 1774878
l ight 1774317
Ġp ath 1773228
Ġth reat 1773091
4 1 1772449
Ġint rodu 1771458
Ġc opy 1770714
Ġwer den 1770405
ĠB er 1770252
m ar 1770210
l ike 1768747
Ġdo or 1768323
Ġwr ite 1768150
Ġeduc ation 1765823
az ione 1764656
Ġs ection 1764115
Ġens ure 1762948
Ġpre m 1762416
en ing 1762408
r as 1761800
Ġmed ical 1760905
Ġinf lu 1760900
en a 1760419
Ġhe ld 1759968
Ġrel ig 1758951
Ġach ie 1758222
i as 1754862
Ġim medi 1754690
Ġa verage 1753715
Ġo il 1753310
M ay 1752389
Ġnecess ary 1752301
7 9 1751826
ĠS ystem 1751236
Ġag ree 1750990
a res 1750886
Ġcom o 1750394
c ing 1750355
u ild 1749414
Ġsc reen 1748860
f ield 1748387
port s 1746906
p ose 1746472
v in 1744586
ac ht 1744367
Ġm i 1744357
in ary 1744162
Ã¶ r 1744000
Ġgrow th 1743580
Ġ ir 1743332
Ġinclud ed 1742837
Ġinter view 1741830
er ve 1740995
n ame 1740995
ond on 1740152
se qu 1739163
Ġw rote 1737878
Ġpre c 1736497
ve y 1736202
f ord 1736020
ens ion 1735580
ĠF rom 1735576
A pp 1734387
Ġs om 1733351
Ġsa w 1732184
201 5 1731331
ĠServ ices 1730637
ĠT echn 1730367
b ox 1730325
Ġbec ame 1730213
re st 1729522
h aps 1728632
m o 1728184
l am 1728172
pl ies 1726804
Ġj ud 1726507
Ġappro ach 1725631
ĠR ate 1725522
à ¥ 1725214
( ) 1724025
Ġev idence 1723148
d om 1722873
Ġ × 1722728
eng th 1721585
c ol 1720769
t re 1720258
f ile 1720074
ĠT ra 1719879
est s 1719248
ĠDav id 1718233
Ġ ĉĊ 1717557
ĠA P 1717157
Ġb ank 1716591
it Ã© 1715582
Ġsit es 1715355
Ġstat ement 1714018
Ġcont r 1711877
B e 1711416
ĠP ort 1711294
Ġmod ern 1710340
Ġplay er 1710011
Ġinte gr 1709178
Ġbook s 1708262
Ġcon vers 1707186
ĠCO VID 1706336
Ġr ac 1706042
W ith 1705873
8 6 1705718
Ġs le 1704977
Ġwas n 1704308
Ġreg ul 1702594
v est 1701947
ed it 1701145
ber g 1700586
ot a 1699908
Ġro ad 1699605
iqu es 1699107
Ġf ix 1698261
Ġs ong 1695971
= > 1695451
Ġg ro 1695044
Ġb illion 1694572
an i 1694369
Ġf irm 1693311
ic ations 1692963
ig er 1692772
is ation 1692690
_ _ 1692616
ĠÐ ¾ 1692579
it ation 1692500
Ġexp ress 1691418
Ġal le 1691252
Ġc y 1690844
Ġbu ilt 1690499
Ġmult iple 1690428
Ġdem and 1687717
Ġbe gan 1686724
Ġ6 0 1686065
Ã¶ n 1685749
Ġs ell 1685681
ĠF e 1684931
Ġus es 1683261
Ġreg ister 1682542
A G 1682238
Ġit ems 1681921
Ġle arning 1681665
Ġb ott 1681089
av es 1680587
Ġdis play 1680306
Ġdesign ed 1679026
Ġlook s 1678986
Ġs ort 1678853
Ġser ious 1678772
ĠL ike 1677868
Ġlevel s 1677729
Ġh or 1676923
Ġgo es 1676770
Ġanal ysis 1675799
Ġb al 1674899
ĠH ol 1673945
it ch 1673718
Ġor d 1673027
Ġapp e 1672919
Ġ3 1 1671590
f it 1671442
Ġ à¤ 1671404
Ġpro gress 1669773
ĠP aul 1669657
ĠÄ ĳ 1669027
Ġw el 1668039
ir th 1665631
ri j 1665608
bo ard 1664997
ĠâĢ ŀ 1664747
Ġst ru 1664621
ell ow 1664258
Ġsc ience 1663109
Ġf it 1663048
Ġresp ond 1663015
o om 1661941
Ġind epend 1661542
Î ¹ 1661396
al a 1661355
es ter 1660192
ac he 1660167
Ġgo al 1659634
Ġdig ital 1659582
Ġve h 1658671
Ġa uch 1658290
ĠB en 1657961
S S 1657624
Ġn u 1656803
b an 1656344
ĠS w 1656050
Ġquick ly 1655937
Ġhe av 1655895
y ond 1655357
ĠD irect 1654301
I V 1653491
Ġstr ing 1653352
erv ed 1651719
ol ution 1651632
ĠJ apan 1651574
ĠCount y 1650077
b ody 1649764
Ġsur pr 1649729
ipp ing 1649128
Ġpract ice 1648965
ren ch 1648783
Ġplay ing 1648396
Ġprofess ional 1648251
Ġl ed 1648193
Ġw oman 1647921
Q u 1647904
ĠG et 1647680
Ġpl ans 1646276
Ġm atch 1645719
Ġopportun ity 1643611
Ġbro ad 1643528
arl ier 1643329
ÃŃ a 1642187
c d 1640855
Ġwork ers 1640831
em y 1640670
Ġh at 1640575
Ġd ella 1640275
Ġcomput er 1639996
Ġrele ased 1639731
Ġrem ember 1639234
w ood 1639126
Ġexp ected 1639096
ĠD et 1639082
ĠM ond 1637757
5 8 1637588
5 00 1637513
rop ri 1637181
ĠB ook 1636784
Ġv ict 1635390
c el 1635152
Ġun ique 1634935
y a 1634581
Ġcou ple 1634202
ir it 1634149
A b 1632574
Ġdirect ly 1632453
Ġm ill 1632320
Ã© n 1632118
Ġn ature 1631616
own load 1631461
op er 1631037
Ġsit uation 1630545
res h 1630029
Ġknow ledge 1630025
ament o 1629443
Ġt il 1628806
O r 1628797
Ġcor rect 1628660
5 6 1628552
ĠEng lish 1628320
Ġch ance 1627220
are n 1625898
Ġhist or 1625045
Ġs old 1623172
ĠIntern ational 1623108
Ġh o 1622892
ĠH igh 1620196
ĠOb ama 1620191
O ne 1619588
O P 1619018
Ð ± 1618675
an ch 1618472
com p 1617180
Ġlaw s 1616654
o ke 1616063
Ġre ve 1616058
Ġorgan iz 1615290
ar ily 1614590
c ia 1613622
ecut ive 1612682
ĠAss oci 1611325
Ġread y 1610530
Ġus ually 1609180
ĠPl ay 1609123
Ġtreat ment 1608849
Ù Ĩ 1606952
ell o 1606531
Ġchall eng 1606249
Ġnot e 1604522
Ġnum bers 1603212
mer cial 1603189
ĠF irst 1602793
Ġprogram s 1602519
Ġcost s 1602431
osp ital 1602225
o h 1601737
itte e 1601406
Ġj a 1601258
ĠPh il 1600931
im a 1600454
Ð ³ 1600206
C C 1600040
ĠF ree 1600005
ic ated 1598762
es ch 1598128
en ge 1597679
Ġde ad 1597334
ist a 1596735
Ġbrow ser 1593326
Ġb ur 1593308
ĠP al 1593046
atal og 1593041
D ele 1592165
Ġwork ed 1591957
Ġl inks 1591515
U N 1591272
Ġch arg 1587401
Ġc it 1587142
Ġdev ice 1587087
Ġd og 1586797
y p 1586503
Ġpat ients 1586239
n ie 1585874
Ġr ules 1584794
is ions 1584624
ct or 1584284
ĠSch olar 1584266
Ġallow s 1583884
Ġget s 1583711
m p 1583492
Ġtyp es 1583058
Ġdec l 1581874
Ġ ? 1581285
ĠO pen 1581270
m as 1580310
D on 1579532
f o 1579443
Ġw onder 1578633
Ġproject s 1576640
Ġp le 1576628
u er 1576322
Ġph oto 1576322
] => 1574951
Ġm id 1574690
Ġatt ention 1574376
Ġres ources 1573584
ĠSe e 1573205
ra z 1571538
Ġhapp y 1570917
N ot 1570860
Ġk ids 1570098
Ġm ention 1569753
Ġsal es 1569134
ĠA re 1568014
ec ause 1567329
1 50 1566796
Ġu lt 1566245
Ġst ra 1566190
Ġ200 7 1565619
end o 1564604
ir ing 1564417
Ġide as 1564278
m ore 1560948
Ġpre fer 1559993
er se 1559786
Ġc ele 1558904
Ġst ories 1557967
Dele te 1557682
Ġlim ited 1557463
Ġman ufact 1557105
Ġin j 1556181
ĠC ook 1555780
rou ght 1555107
ĠComm un 1555105
Ġb ill 1554826
ak ers 1554458
Ġr ais 1552679
Ġinvol ved 1552639
Ġcap ital 1551884
Ġn ation 1551846
Ġdet ail 1551397
Ġbo ard 1550981
ct ions 1550776
ĠÐ º 1550342
Ġf air 1549167
ur l 1548502
ul a 1547143
p m 1547043
Ġ3 00 1546882
ĠSu pp 1546765
ce ed 1546634
ograph y 1545351
Ġ id 1544889
indow s 1544497
ir a 1543658
Ġn ie 1543108
al ing 1542659
Ġcomp lex 1542612
ell ig 1542369
U L 1541134
Ġbenef its 1539716
Ġbr and 1539674
Ġr ound 1539341
ĠM or 1538267
P S 1538173
Ġhand s 1537443
Ġfe ed 1537245
ĠÃ¼ ber 1537055
à ¨ 1536533
Ġon es 1535798
v ille 1534648
E O 1533059
Ġpart s 1532504
ð Ł 1531941
al ed 1530830
Ġcare er 1530537
Ġin it 1530069
Ġhim self 1529781
Ġsl ow 1527754
Ġd raw 1527675
Ã© es 1527014
ĠL ondon 1526939
ĠFr iday 1526872
es tern 1526572
bl og 1526434
enc ed 1526181
Ġmeet ing 1526146
ĠP ublic 1525699
Ġr out 1525529
Ġent re 1525466
Ġcult ure 1525379
ĠF ull 1524822
ech an 1523281
Ġs ect 1523224
Ġsu ff 1523127
Ġd riv 1523049
Ġim ag 1522652
i ers 1522170
h i 1521354
Ġstud ent 1521107
Ġhe ar 1521063
Ġent er 1520401
o i 1519835
p ond 1519782
s ec 1519348
O pens 1518681
id ents 1518645
Ã³ w 1518322
ed d 1518154
ĠIs ra 1518013
Ġcho ice 1517985
Ġgr ad 1517320
8 7 1516692
ĠP ress 1516144
Ġave c 1516025
ÑĢ Ðµ 1515534
air s 1515303
Ġn om 1514975
Ġm al 1514960
Ġrecomm end 1514122
ut t 1514042
ĠEurope an 1513849
Ġl ack 1513570
Ã ¹ 1513479
R A 1512925
Ġhand le 1511488
j i 1511467
v ens 1511390
ut ed 1511126
19 9 1510774
Ġmilit ary 1510745
Ġeffect s 1509563
all s 1509378
en ed 1508914
Ġp Ã¥ 1508543
ĠP erson 1508099
pp er 1507660
sh ip 1507492
ĠV iew 1506199
Ġd os 1506148
ĠÂ £ 1505282
Ġpre p 1504923
od ay 1503502
b on 1503445
ĠInd ia 1503358
ar ant 1502427
Ġcons ist 1502149
and er 1501271
ĠAm azon 1500944
ver se 1499419
Ġcustom er 1499316
st on 1498836
ĠTH E 1498011
ac hes 1497788
Ġsaf ety 1497404
Ġm ax 1497156
Ġp ull 1497049
h ol 1496786
Å Ł 1496235
ounc il 1495415
Ġsa ve 1494951
Ġconsider ed 1494761
Ġparent s 1494692
Ġj ournal 1494687
Ġinterest ing 1494239
c z 1494096
Ã¨ re 1493569
d es 1493518
Ġmy self 1492741
Ġh ol 1492051
Ġcon duct 1491459
ĠT erm 1489905
Ġit em 1488142
ĠB est 1487806
Ġim ages 1487556
Ġsub st 1487136
ut s 1486195
ĠCan ada 1485383
Ġt ro 1484719
Ġa w 1484283
' , 1484129
Ġfor ce 1484019
Ġc ateg 1483801
ĠZ e 1483215
Ġf elt 1482739
z t 1482403
Ġbeaut iful 1482057
az ing 1481293
O ur 1481261
Ġpop ulation 1480508
Ġthink ing 1479856
n ew 1479826
ĠSt reet 1479342
ip ment 1479311
ĠRes earch 1477824
ĠS T 1477210
? âĢĿ 1477139
ĠA ir 1476912
I A 1476807
ĠS und 1476750
Ġpl ant 1476448
Ġpos itive 1476096
Ġtool s 1474974
Ġtr ust 1473862
Ġtr ade 1473555
Ġdec ided 1472955
ĠL et 1472699
ide os 1472590
ĠM ac 1472153
5 3 1471550
ch ange 1470250
G et 1470053
ag on 1469489
Ġprom ot 1468511
ĠRe view 1468328
Ġv ote 1468052
Ġannoun ced 1466832
Ġse ek 1465855
Ġne arly 1465854
Ġs ind 1465222
ĠM ag 1464730
Ġsa fe 1463863
ĠL aw 1462911
ĠDes ign 1462877
Ġnorm al 1462539
Ġinter net 1461622
Ġb oy 1461346
Ġca pt 1461132
ĠIs lands 1459004
d ate 1458992
Ġthrough out 1458484
Ġm obile 1458381
5 2 1458278
Ġro ll 1457775
in er 1457369
ĠSu per 1456472
ĠM art 1456099
ing er 1455410
Ã¤ r 1455395
5 4 1453728
ĠD ata 1452719
Ġant i 1452504
g ar 1452480
Ġp orn 1452361
Ġplay ed 1450730
ak s 1450468
du c 1450221
P r 1449268
Ġt ouch 1449157
The y 1448794
S c 1448661
N e 1445658
ist ics 1444279
Ġs ie 1443996
Ġphys ical 1443453
Ġto wn 1442224
ill a 1441821
Ġapp ly 1441546
Ġal tern 1440266
ad or 1439685
p ite 1439533
ĠH ome 1438659
Ġs qu 1438156
Ġele ction 1437748
ĠD an 1437539
Ġp et 1437374
Ġp en 1437268
ĠF ound 1437013
Ġt ur 1436285
Ġcon cept 1436140
ĠPro gram 1434771
Ġt u 1434723
g u 1434490
ĠCong ress 1434291
Ġpart ners 1433754
Ġth ous 1433393
Ġr ace 1431850
Ġfl ow 1430502
Ġdri ve 1430056
Ġeas ily 1429973
Ġco ol 1429796
Ġenc our 1429303
ĠGo vern 1429110
Ġmor ning 1428787
M L 1428681
Ġmarket ing 1428414
ib ly 1428082
Ġb us 1428044
im s 1426966
Ġsomet imes 1426879
or age 1426598
Ġl oad 1426577
ĠApp le 1426126
ĠS l 1425604
Ġm ix 1425523
Ġs izes 1424850
Ġm as 1424728
od es 1422885
Ãµ es 1422676
ell er 1422562
Ġsum mer 1422319
Ġu ma 1421015
Ġl iber 1420572
ĠR el 1419397
Ã¨ s 1419014
Ġfam il 1418842
b ar 1418793
oc ol 1418290
Ġp oll 1418057
ĠB re 1417954
Ġdem on 1417406
ic ks 1417369
ĠMond ay 1415081
Ġlead ing 1414905
e ah 1414710
Ġcomplet ely 1413902
ĠL og 1413263
Ġloc ation 1412942
ĠV ol 1412485
cl ass 1412014
Ġd ed 1411680
Ġp aid 1410944
Ġad ult 1410836
Ġpol ic 1410044
Ġh uge 1409658
Ġc ross 1408844
Ġwho se 1408189
b and 1408048
b t 1406807
Ġg ave 1406417
ion i 1406030
Ġemploy ees 1406011
201 4 1405835
Ġe arlier 1405343
Ġdis cover 1405141
Ġcr is 1404695
Ġl iter 1404648
ines e 1404206
Ġe arn 1403989
ant a 1403983
iv a 1403833
Ġr ates 1403567
on ym 1402912
Ġs av 1402699
Ġst ar 1402585
Ġeconom y 1402538
um an 1401978
ï¼ Į 1401659
m ax 1401519
Ġbl ood 1400687
ĠSci ence 1400510
Ġsm art 1400506
Ġindividual s 1400413
Ġpurch ase 1399162
m es 1396738
' d 1396299
Ġdiffer ence 1395504
ĠC r 1395465
Ã© r 1395285
Ġan g 1395030
Ġd in 1394904
Ġtem per 1394714
is ode 1394310
i ance 1393730
w ik 1393527
Ã¤ t 1392939
Ġcl imate 1392934
ĠCour t 1392746
ĠÐ ´ 1392396
Ġs y 1392213
t ies 1392187
Ġactiv ity 1391457
Ġst ock 1391446
Ġf ans 1390984
ear s 1390201
Ġ ! 1389651
ĠS ur 1389292
h al 1389231
Ġstud ies 1389179
ist an 1388518
ĠG roup 1388477
Ġv irt 1387802
Ġer ror 1387786
om s 1387166
Ġallow ed 1387053
Ġteam s 1386765
i ro 1386036
vertis ement 1385265
Ġw p 1385226
l og 1385150
ĠE very 1384907
Re plies 1383118
iv o 1382344
B S 1382004
ĠSt ar 1380640
Ġm other 1380458
im ately 1380248
Ġcol lection 1379856
Ġem p 1379529
Ġeffect ive 1379339
Ġop in 1377994
D o 1377577
7 6 1377017
ĠG reen 1377003
Ġg iving 1376937
Ġreport s 1376785
Ġg ives 1376351
Ġd aily 1376050
ĠT ex 1375147
Ġactiv ities 1375104
Ð½ Ð¸ 1373955
5 1 1373883
as y 1373247
Ġfre qu 1372377
Ã¡ n 1371961
ĠC am 1371870
Ġstart ing 1370903
* * 1368805
ĠM a 1368480
Ġn Ã£o 1367812
im al 1367807
Ġsc he 1367182
Ġfavor ite 1365633
u is 1365556
d is 1365165
Ġar riv 1364785
Delete Replies 1363904
olog ies 1363643
ak t 1363444
Ġspe ed 1362342
Ġstat us 1362103
ĠAnd roid 1361565
Ġorgan ization 1361303
p on 1361183
Ġd oll 1360810
Ġs un 1360234
j o 1359205
ues day 1358557
Ġval ues 1358403
à¸ ² 1357958
Ġp a 1357548
ÑĤ Ðµ 1357519
ap ter 1356815
se e 1356803
Ġmach ine 1356355
Ġsp read 1356287
Ġ \ 1355512
Ġst uff 1355288
ĠAmeric ans 1354617
Ġwe ight 1354189
um ber 1354124
ri an 1354054
ĠE st 1353915
Ġp sych 1353862
and a 1353625
so ft 1353415
Ġfil es 1353057
ĠU se 1352944
Ġeff ort 1352583
Ġg as 1352502
8 4 1352213
Ġreg ion 1351896
ĠM icro 1351752
Ġp ages 1351095
ĠH ist 1350737
ian a 1350240
Ġhe ard 1350070
Ġcom fort 1349343
b i 1349059
enc ies 1348958
all er 1348380
ĠO ver 1348344
Ġcl ient 1347928
Ġchang ed 1347589
Ġt out 1347476
Ġre ach 1346578
Ã© m 1345730
Ġjob s 1344991
Ġmov ie 1344880
ri ef 1344688
ic ip 1343246
Ġpur pose 1343221
Ġsh oot 1342707
ĠF re 1342065
Ġs ale 1340363
Ġincre ased 1339548
Ġocc ur 1339445
ĠI l 1339334
ĠIt al 1338874
Ġexact ly 1338838
Ġparticular ly 1338549
w ide 1338226
oc ks 1337936
Ġtr ou 1337575
it en 1336724
I nd 1335963
ate ver 1335646
Ġwant s 1335154
ĠT er 1335002
Post ed 1334422
Ġreg ist 1334153
Ġcont ain 1333919
ĠS am 1333370
L a 1333176
ĠO F 1332955
Ġt im 1332185
w ith 1331998
ron ic 1331775
ĠSp ec 1331590
ĠE ast 1330749
Ġh op 1330627
Ġassoci ated 1330488
R el 1330451
T S 1330119
Ġmeas ure 1328734
Ġdise ase 1328263
Ġf ra 1327487
Ġsh own 1327334
Ġmean ing 1326735
ven ue 1326035
Ġsp ent 1326007
ĠThe n 1325958
Î ½ 1325661
Ġw a 1325483
Ġinc ome 1325281
ãĢ Ĥ 1325263
in st 1325224
Ġbe yond 1325151
Ġincre asing 1325121
ĠE ven 1325051
Ġ ĉĉĉĉ 1324780
und red 1324721
Ð¾Ð » 1324105
ig r 1324078
in y 1323887
ĠI I 1323551
u ing 1323496
Ġal one 1322977
Ġl ibrary 1322925
æ ľ 1322910
[ ] 1322805
b um 1321149
ion es 1320768
ph one 1320392
ĠOff ice 1320177
Ġm icro 1319984
anc y 1319806
Ġkn ew 1319534
Ġb rain 1319504
Ġa an 1319170
Ġst ream 1318679
i at 1318512
re me 1318031
Ġofficial s 1318030
M ar 1317251
ill er 1316922
Ġsol ution 1315534
ĠS k 1315332
N A 1315176
ĠB usiness 1315107
Ġturn ed 1314705
kn own 1313817
Ġapp l 1313557
ĠG old 1313187
Ġw ide 1312813
201 3 1312793
Ġne igh 1312188
ĠS y 1311972
ĉĉĉ ĠĊ 1311547
ri al 1311532
au ght 1311323
Ġcele br 1311297
ic it 1310700
g n 1310326
ss l 1310180
ĠPro f 1310151
ect s 1309788
ĠP rivacy 1309593
tern al 1309432
Ġrem ain 1309049
Ð¾ ÑĢ 1308747
Ø§ Ø 1308345
ĠM ost 1306979
ol f 1306727
Ġd ark 1306226
Ġey es 1306058
ĠW ed 1305927
am ing 1305387
Ġm es 1305321
wit ch 1303764
I F 1303455
DeleteReplies Reply 1303444
Ġtalk ing 1302879
he st 1302761
ĠW ork 1302746
Ġbud get 1302266
Ġz ijn 1302254
ĠGener al 1301763
ĠT imes 1301234
Ġn or 1301135
Ġsur v 1301091
Ġa ware 1301038
7 2 1300769
Ġgrow ing 1300119
Ġare n 1299996
Ġcor onavirus 1299904
ĠS al 1299557
el es 1299138
i em 1298761
Ġcent er 1298611
g if 1298554
Ġpr inc 1297193
le ar 1297138
D ec 1296974
s rc 1296465
al se 1295754
Ġw ir 1295600
Ġacc ur 1295494
ĠOn line 1295423
ij k 1295142
b ol 1295005
ru pt 1294310
Ġem ot 1293938
Ġpi ece 1293573
Ġdirect or 1293393
Ad d 1292945
d ef 1292940
Ġorig in 1292866
Ġdel i 1292535
F L 1292287
Î µ 1292246
urs day 1292205
a Ã§Ã£o 1292122
Ġ ing 1291368
Ġstre ng 1290995
Ġful ly 1290927
Ġprovid ing 1290585
ĠSund ay 1290481
] . 1290424
N ow 1290127
Ġpost s 1290087
int on 1289995
Ġz e 1289853
w a 1289154
Ġ[ " 1288871
Ġabs ol 1288812
Ù Ĭ 1287820
ous ly 1287794
Ġpart ies 1287257
Ġac qu 1286322
ĠJ ames 1286181
ĠD ef 1285721
h an 1285552
S P 1284952
Ġw at 1284734
ĠJ ack 1284660
Ġn av 1284589
Ġnot ice 1284120
ĠR ich 1283951
ate gy 1283877
ĠL ibrary 1283268
ch er 1282827
atur day 1282437
l ist 1282211
ent y 1282193
Ġlim it 1281952
Ġj our 1281872
Ġ200 6 1281806
Ġcond ition 1281619
ĠLe g 1281579
Ġtrans fer 1281370
ĠMich ael 1280713
Ã¤ n 1280600
Ġcomp on 1279996
9 6 1279938
iz z 1279645
Ġb rought 1279215
ãģ ® 1278967
w orks 1278773
Ġtri ed 1278474
it ude 1278116
Â » 1277936
I R 1277818
Ġstru gg 1277218
Ġp ark 1276777
Ġcar ry 1276311
om a 1276138
ĠT re 1275207
et e 1275165
M e 1274273
M ore 1273559
ĠD ist 1273487
Ġex erc 1273432
Ġav oid 1272407
Ġre asons 1271997
Ġcor por 1271209
Ġeff orts 1270594
Ġmove ment 1269617
ch t 1269357
Ġdeli very 1269128
ĠR ober 1268923
o e 1268252
nes day 1268143
Ġl if 1267811
ter m 1267751
r at 1267731
Ġd ur 1267613
ri ve 1266911
Ġinter act 1265179
Ġn ice 1265169
av atar 1265040
Ġc ert 1264603
ĠR em 1264270
k u 1264124
Ġn os 1263851
Ġgu ide 1263812
ag ram 1263361
Ġsoc iety 1262511
Ġd ream 1261933
a ft 1261826
âĢĶ âĢĶ 1261492
h and 1261113
Ġf arm 1260580
O W 1260435
Ġr ap 1260204
Ġsec ret 1259948
Ġf ine 1259222
Ġw ww 1258165
um n 1258123
ind er 1257595
Ġsk ills 1256878
Ġb es 1256376
Ġpat tern 1256231
ç ļ 1255773
7 4 1254953
os ition 1254881
Ġhigh ly 1253854
yn am 1253819
ĠPart y 1253653
it ar 1253258
8 3 1252689
Ġfr ame 1252666
Ġdescri bed 1252022
Ġ ik 1251592
ĠF orm 1251192
Ġpriv acy 1250861
" ]=> 1249612
id ad 1249575
Ġref lect 1249493
vol ution 1249076
Ġcreat ing 1248619
Ġser ver 1248408
vent ion 1247485
K e 1247475
w s 1247421
Ġbe i 1247078
ĠAustral ia 1246925
] [ 1246468
Ġother wise 1246449
ĠBrit ish 1246221
Ġrespons ible 1246175
ĠP C 1245964
Ġn ames 1245954
Ġunderstand ing 1245748
Ġdevelop ed 1245606
ĠB el 1244984
Ġch arge 1244640
Ġw ish 1244459
Ġto wards 1244325
Ġl i 1244239
Ð½ Ð¾ 1244101
Ġh ous 1243688
ed ia 1243372
Ġschool s 1243284
ant o 1241693
Ġc atalog 1241601
Ã© d 1241447
Ġest im 1240762
Ù ħ 1240647
pl ace 1240309
Ġapp ropri 1239339
ĠD el 1239310
atic ally 1239246
ĠT ime 1239017
ent ially 1237967
ĠW indows 1237775
Ġf ol 1237447
ĠG reat 1236775
id el 1236672
ĠUS A 1236305
ment e 1236165
Û Į 1235769
B A 1235580
ast e 1235241
Ġpo or 1235099
Ġd ass 1234958
Ġpl aces 1234006
Ġhappen ed 1233999
Ġsrc set 1233769
Ġphot os 1233251
Ġpr ices 1232456
Ġw arm 1232135
A fter 1232117
Ġapplic ations 1230840
Ġre pe 1230225
Ġp and 1230159
Ġ8 0 1230103
çļ Ħ 1229529
om p 1229027
o on 1228868
Ġst ress 1228248
Ġfin ally 1227623
Ġ ich 1227572
Ġinterest ed 1227379
b ing 1226201
un ction 1226051
b ut 1225924
ĠA tt 1225556
Ġro ck 1225539
Ġbas is 1224712
ĠTh om 1224636
Ġbusiness es 1224130
ĠFr anc 1223990
ac ing 1223808
ĠI P 1223317
Ġm echan 1222807
il er 1222483
Y our 1222213
d s 1221905
Ġsp ot 1221761
Ġad m 1221587
Ġext rem 1221054
Ġbas ic 1220006
Ġcertain ly 1219490
h op 1218874
Ñ Ĩ 1218405
und er 1218358
a ud 1218067
Ġmov ing 1217281
Ġimmedi ately 1217093
ĠS ub 1217034
6 3 1216998
ĠS ol 1216214
ĠMark et 1216205
og en 1215928
7 3 1215481
ĠM em 1214871
F r 1213704
M S 1213673
ĠT uesday 1212699
ĠB et 1212393
Ġs ont 1212346
D S 1212296
Ġb and 1211813
im in 1211770
Ġmay be 1211738
Ðµ ÑĤ 1210907
ĠJ ew 1210897
Ġm iddle 1210378
Ġleg isl 1210271
ĠO ther 1210118
Ġg old 1209754
Ġcomp ared 1209539
f ol 1209166
Ġsh ared 1209079
an z 1208979
ĠC lick 1208801
Ġro b 1208296
u ate 1208165
Ġv s 1208094
ir gin 1208003
id en 1207992
ĠH am 1207850
Ġact ual 1207386
au x 1206826
D A 1206637
Ġdev ices 1206173
Ñ İ 1206089
Ġbe g 1205957
Ġpress ure 1205558
it Ãł 1205532
8 2 1205498
Ġcris is 1205034
Ġsp end 1204772
Ġt end 1204586
Ġbegin ning 1204570
A m 1204299
Ġsh ot 1203228
ed om 1203176
Ġupd ate 1203046
ĠF il 1203025
Ġmaterial s 1201831
Ġrest aur 1201510
Ġdam age 1200778
ĠS and 1200386
ĠG ood 1200212
ign ed 1198588
Ġcharac ters 1197759
f ree 1197518
S he 1196846
ant ly 1196560
Ø§ ÙĦ 1196403
iss ions 1196338
F C 1196091
Ġins urance 1195281
isc hen 1194478
Ġc ry 1193488
Æ ° 1193338
Ġcol lege 1193256
>< / 1193221
Ġprim ary 1193020
ĠB ank 1192474
7 1 1192435
ell en 1192261
Ġb aby 1191864
Ġsle ep 1191734
ĠJ ournal 1191605
l or 1191470
it ely 1191368
Ġcons ult 1190178
Ġte ach 1189341
Ġfore ign 1189284
E P 1189246
Ġc art 1189085
Ġpay ment 1188994
L C 1188033
Ġsk in 1187899
a e 1187664
Ġg reen 1187617
im o 1187417
Ġcap ac 1186816
ĠTex as 1186684
ĠN or 1186674
atis f 1186619
Ġv irus 1186211
Ġal g 1186138
m i 1186085
h ouse 1185918
vert ising 1185287
Ġp ow 1184037
re c 1183085
Ġlet ter 1182916
Ġele ment 1182839
ear n 1182790
ä º 1182576
Ġh undred 1182500
ĠInst itute 1182461
ĠM al 1182363
Ġfeel ing 1182310
ash ion 1182211
Ġcall s 1182067
w in 1181601
ĠSt at 1181368
à¸ Ļ 1180750
Ġst age 1180507
Ġsi ÄĻ 1180063
it able 1179984
Ñ Ī 1179897
s l 1179081
Ġam b 1178875
is er 1178721
Ġw ie 1178517
Ġg un 1178205
ĠCh inese 1177983
Ġpart ner 1177243
Ġcom mercial 1177000
ĠE arth 1176839
ĠIs land 1176498
ĠJ ul 1176299
Ġs ources 1176299
Ġv or 1175990
ĠR ob 1175609
ĠDe velop 1174601
ĠS il 1174178
ann ed 1173745
Ġass ess 1173431
ĠPro t 1173013
ĠC ap 1172822
at ively 1172605
ĠÐ ¼ 1171582
ĠT or 1171441
6 2 1171221
opp ing 1170231
Ġfamil ies 1169618
Ġc ivil 1169507
Ġfig ure 1169436
Ġact ive 1168991
Ġcons erv 1168904
ĠÃ© t 1168673
Ġ ign 1168270
Ġb irth 1167507
Ġinn ov 1167181
Ġmod els 1166876
Ġb on 1166452
Ġtest ing 1166403
Ġadv ant 1166266
Ġl ines 1165898
Ġbehav ior 1165107
Ġt it 1164771
Ġam azing 1164615
us ing 1164493
ain e 1163909
Ġf ather 1162249
am in 1161927
T H 1161885
Ð¾Ð ¼ 1161872
Ġh arm 1161753
r ad 1161630
ĠSoc ial 1161577
ĠH ill 1161304
Ġd an 1161243
ell ent 1161193
Wh ile 1161140
Reply DeleteRepliesReply 1161132
cri be 1160629
ri o 1159957
ĠT op 1159751
ĠCol lege 1159386
Ġreal ity 1159107
Ġk an 1159092
s en 1159046
T C 1158207
ow e 1158082
ann el 1157121
Ġrequire ments 1157057
Ġsuccess ful 1156706
b uch 1156281
ĠSt and 1155481
ow s 1154821
ig ation 1154558
Ġg one 1154464
is che 1154080
Ġtrad itional 1153654
ist ry 1153575
Ġtr uth 1153537
ĠComp any 1153476
am i 1153443
ed y 1153424
Ù Ī 1153090
ĠWh y 1152917
Ġ ĉĉĊ 1151470
Ġhel ps 1151081
Ġc orn 1150800
Ġstr ateg 1150722
ĠH el 1149800
Ġuse ful 1149700
a us 1149629
Ġl ock 1149458
Ġexp and 1149035
ĠFr ance 1148692
pp ing 1148654
ou l 1148243
Ġinvest ment 1148187
d y 1147896
ĠW ord 1147800
Ġadminist ration 1147617
pos es 1147460
Ġatt ract 1147448
Ġgreat er 1147187
ĠPl an 1147161
ĠTh ursday 1146935
ĠA lex 1146479
Ġvar iety 1146475
Ġ9 0 1145910
Ġz a 1145317
Ġart icles 1145280
ĠL es 1145235
Ġclaim s 1145174
Ġval id 1144880
Ãª n 1144663
Ġqu arter 1144459
Ġob vious 1144334
b ase 1144160
G B 1144054
ĠF ore 1143842
o ch 1143435
D es 1143391
Ġbenef it 1143390
E d 1143345
Ġpro ced 1143192
Ġ5 00 1143025
Ġw ild 1142690
ĠSh are 1142568
Ġpower ful 1141918
ĠS ign 1141309
y th 1140917
ĠE v 1139806
p oint 1139720
H ere 1139636
Go ogle 1139601
ol es 1139493
Ġstep s 1139054
ĠFl or 1137677
8 1 1137066
ĠPe ople 1136368
Ġn ach 1136300
ĠMed ia 1135872
h l 1135541
Ġh our 1135388
Ġc ast 1135292
ĠAl so 1133289
Ġredu ce 1131820
Ġ ì 1131556
Ġcit iz 1131354
Ġal though 1131203
on o 1130908
Ġtrans port 1130812
ĠW ell 1130445
ĠWed nesday 1130263
AT ION 1130157
ac ter 1130149
á Ģ 1129867
Ġmov ed 1129650
use um 1129586
P R 1129303
g i 1129232
Ġ20 00 1128970
w ell 1128875
Ġtre nd 1128772
ĠS pr 1128412
Ġmajor ity 1128230
ard en 1128104
y e 1128039
Ġmem ory 1127779
ĠS ing 1127250
or ial 1127241
Ġlarg est 1126977
un n 1126218
Ġprot ection 1126093
ÑĤ Ð° 1125925
c b 1125827
Ġa head 1125279
Ġlook ed 1124952
Ġcent ury 1124916
ab e 1124610
ic ago 1124464
augh ter 1124366
b ro 1122371
em pl 1122123
bs ites 1121548
os a 1121433
c are 1120826
Ġexist ing 1120770
Ġover all 1120444
ĠS aturday 1120313
al le 1118897
Ġachie ve 1118782
ĠÐ½ Ð° 1118619
Ġ200 5 1118227
Ġstruct ure 1117961
Ġ7 0 1117915
ĠB ig 1117915
ah r 1117895
Ġser ve 1117366
m od 1117332
ĠK ore 1117100
Ġrest rict 1116562
ĉĉ ĠĊ 1116556
e ed 1116465
Ï ģ 1116176
Ð¾Ð ´ 1114825
g ency 1114587
os ure 1114303
re ci 1114277
Ġv ideos 1114231
Ð½ Ñĭ 1114139
id ade 1113314
p at 1113283
S A 1112892
ĠB ack 1112777
a o 1112289
ĠWe bsite 1112088
Ġag ency 1112001
Ġconn ection 1111762
ĠAn al 1111711
Ġex clus 1111377
ĠAn y 1111105
Ġcould n 1111028
ic ate 1110815
Ġvo ice 1110402
Ġcell s 1110389
ĠF am 1109772
Ġcont roll 1109273
Ġt ick 1108430
Ġl ov 1108204
ĠD aten 1108105
Ġâ Ĩ 1108021
Ġas pect 1107229
ht ml 1107120
ĠP ower 1107030
Ġper haps 1106972
Ġm ist 1106675
Ġbig gest 1106304
ĠJ an 1106218
r d 1106062
ĠLe ague 1105924
Ġw ird 1104946
Ġcl ub 1104729
Ġexper t 1104728
ĠSt r 1104222
o es 1103767
ec k 1103379
com ing 1102932
Ġn amed 1102728
Ġla unch 1102562
Ġequ ipment 1102397
Ġf ear 1102103
ust r 1101949
o z 1101400
Ġre b 1100667
Ġlarg er 1100242
Ġde i 1100224
it ect 1099757
Ġc ru 1099726
ĠEm ail 1098881
ĠN ov 1098870
Ġpolic ies 1098834
Ġc ash 1098478
ĠRepublic an 1098167
Ġpur poses 1098042
Ġcl ients 1096590
Ġstra ight 1096372
Ġgo als 1095948
ĠC ur 1095420
Ġim pl 1095262
ĠCl ass 1094832
ĠCh ar 1094828
â Ĥ¬ 1094796
Ġcam era 1094625
Ġlead er 1094578
ĠI D 1094198
Ġw id 1094007
Ġcon text 1093052
R es 1092835
ĠCl inton 1092629
p a 1091402
6 1 1091294
Ġdemon str 1090368
Ġprofess ion 1090352
2 50 1090241
Ġr ich 1090118
ellig ence 1089724
Ġse ven 1089504
ĠAn n 1089284
Ġindepend ent 1088808
Ġc op 1088730
ĠY es 1087890
Ġl ie 1087855
Ġrem ains 1087815
Ġs at 1087319
ot es 1087159
Ġg ar 1087059
Ġm ount 1087029
is k 1086972
Ġchall enge 1086829
ĠTerm s 1086379
im m 1086375
Ġm ir 1086317
Ġha ir 1085861
Ġche m 1085514
Ġconf ig 1085031
ef ore 1084864
Ð» Ð¸ 1083859
or ter 1083739
is a 1083548
ĠT ur 1083457
Ġsur face 1083453
ĠE U 1083255
Ġp un 1082781
f s 1082336
Ġc at 1082166
Ġcrit ical 1081930
Ġact ions 1081730
âĢ ĭ 1081402
d iv 1080997
Ġf resh 1080575
ĠS un 1080551
l ink 1080212
cd n 1080147
ĠD u 1079879
Ġcent ral 1079753
ãĢ ģ 1079334
ĠChrist ian 1079196
M P 1079100
os ing 1079001
Ġar ray 1078944
ÑĢ Ð¸ 1078772
ĠF ire 1078526
: : 1077916
Ġun f 1077875
il ed 1077405
if ying 1077307
Ġw ind 1077252
ĠIsra el 1076905
ĠL ife 1076672
B N 1076655
Ð½ Ð° 1076632
A Y 1076604
Ġm ort 1076437
Ġrequ ires 1076222
V iew 1076221
Ġpict ure 1076028
Ġ % 1075764
ic he 1075679
ĠM ex 1075557
i h 1075117
anc ing 1075101
er d 1074616
Ġk Ã¶n 1073287
ĠM ad 1073280
j et 1072137
a ise 1071995
T e 1071854
inter est 1071766
Ġadv ice 1071259
Ġr ule 1071236
Ġen h 1071172
Ġhelp ed 1071023
ĠL ink 1070615
ĠE duc 1070507
and om 1070418
Ġcomp ar 1069538
A Q 1069279
I nt 1068422
Ġe ight 1068263
ty pe 1068140
ĠSec urity 1068064
Ġt ut 1067634
C ol 1067526
201 2 1067152
ad y 1066204
Ġappear s 1065299
n ÃŃ 1065182
ĠF rench 1065170
b es 1065075
Ġcl in 1064968
Ġ // 1064776
e v 1064727
ĠPro duct 1064262
it z 1063972
Ġh ospital 1063503
Ġprodu ce 1063488
v w 1063204
ound s 1063161
ult ure 1062959
Ġeas ier 1062923
ĠM er 1062810
ub Med 1062506
ru it 1062294
ri er 1062213
Ġoffer ed 1062196
ro y 1062126
Ġcommun ities 1061633
re y 1061584
Ġpand emic 1061275
Ġm ission 1061169
ab ase 1060924
ic ial 1060606
ec es 1059688
Ġpass ed 1059660
ĠRuss ia 1059362
a ire 1058856
ĠComm ission 1058549
T R 1058376
Ġwould n 1058077
or ia 1057945
ĠM any 1056662
ĠB ay 1056390
F acebook 1055856
ĠH ot 1055773
Ġre nt 1055403
ĠC ouncil 1055084
Ï ĥ 1055022
Ġfe et 1054956
Ġregard ing 1054764
ier t 1054275
ĠJ es 1053895
Ġo bl 1053658
i us 1052715
ĠD i 1052595
ĠPro ject 1052551
Ġer a 1052381
E l 1052244
Ġg raph 1052198
Ġsc en 1052016
Ġcoll abor 1051926
Ġc ounter 1051297
Ġ3 5 1050960
Ġthous ands 1050767
ut o 1050396
ĠD en 1050236
6 00 1050163
Ġl abor 1050111
Ġmethod s 1049761
Ġpost ed 1049545
Ã© c 1049490
Ġstr ategy 1049485
az ine 1049471
ĠL ou 1049165
Ġf ant 1048905
The se 1048785
ĠB ill 1048350
Ġpred ict 1048164
à¸² à¸ 1048060
ĠT om 1048044
ici ans 1047187
^ " 1047180
Ġp al 1046877
Ġtrans l 1046793
ĠH all 1046700
rom e 1046097
Ġj u 1046079
ĠSm ith 1045529
id den 1044813
Ġto ward 1044705
Ġthan ks 1044333
Ġinst ruct 1044150
ãĥ ¼ 1044087
er ap 1043776
Ġ3 2 1043402
ac her 1042990
ĠC le 1042965
Ġfollow ed 1042529
Ġhealth y 1042426
Ġcomm and 1042177
ĠAssoci ation 1042009
Â ° 1041862
Ġsub m 1041608
Ã ² 1040829
us ion 1039436
Ġsu st 1039247
Ġcon v 1038949
Ġev al 1038897
om in 1038896
ens es 1038705
or row 1038600
Ġ( @ 1038513
Ġad just 1038417
P lease 1038267
Ġd anger 1037974
Ġjo in 1037852
Ġess ential 1037686
Ġan c 1037487
Ġr at 1037378
=" ( 1037338
8 00 1035333
Ð ¶ 1035154
Ġrele vant 1034882
Ġme ant 1034856
y an 1034448
Ġw ife 1033595
h ow 1033310
w ar 1033044
e z 1032423
ab led 1031992
Ġgener ally 1031797
c ks 1031367
ic ed 1030861
oy al 1030609
Ġinst ruction 1030371
ock et 1030329
r um 1029810
Ġ ; 1029568
Ã§ Ãµes 1029500
ĠE lect 1029447
Wh y 1029170
Ġph il 1029155
ĠCom ments 1028986
Ġdr ink 1028829
Ġdes pite 1028809
ĠS P 1028708
Ġc red 1028401
hen s 1027573
s m 1026974
ĠUn ion 1026852
Ġloc ated 1026436
S ome 1026209
Ġdep end 1026007
Ġinit ial 1025851
em a 1025328
ĠU nder 1024899
4 00 1024395
in clud 1023951
Ġshow ed 1023903
C an 1023255
Ġdou ble 1023241
Ġon t 1023015
ĠE p 1022972
f ig 1022690
Ġl iv 1022641
Rel ated 1022551
it ors 1022396
Ġf at 1022221
Ġcontin ues 1022049
ĠC amp 1021647
Ġto m 1021537
M arch 1021481
ess o 1021428
Ġcontin ued 1021136
} } 1021036
ĠL ist 1020841
ĠM ont 1020712
ĠS pe 1020607
ed e 1020525
ĠN ame 1020428
it chen 1020143
Ġg ra 1019981
Ġcomm it 1018473
oc ation 1018460
Ġdef ault 1018376
J uly 1018318
Ġpro te 1018230
Ġb ul 1018113
il ing 1017786
Ġsp ending 1017484
m os 1016975
p et 1016798
y r 1016669
ap ers 1016407
m al 1016365
Ġwh atever 1015873
ĠRep ort 1015652
Ph one 1015306
ĠAN D 1015045
el er 1014062
Ġson o 1014035
ĠT est 1013880
Ġconf irm 1013821
ol o 1013184
Ġf an 1013076
co in 1013068
on om 1012663
Ġsp irit 1012602
Ġal leg 1011677
as ion 1011380
Ġplan ning 1011274
Ġex cept 1010968
ĠAfric a 1009761
ams ung 1009181
Ġs in 1009089
ĠGe orge 1008631
Ġhapp ens 1008538
Ġl ength 1008199
p age 1007861
Ġset ting 1007538
ber t 1006742
qu est 1006682
Ġĉ Ġ 1006429
Ġm ap 1006341
os oph 1006317
Ġal bum 1006040
er en 1006005
Ġres ist 1005838
Ġmain t 1005623
ĠEng land 1005393
Ġem b 1005256
ĠSen ate 1005219
ĠR ad 1004785
Ġa ux 1004772
Ġbott om 1003399
th umb 1003111
Ġadd ing 1003048
a an 1003007
Ġsee ing 1002800
Ġfl oor 1002580
Ġprevious ly 1002363
Ġview s 1002292
ipp ed 1002222
Ġb an 1002106
Ġgu y 1001984
ic ient 1001792
ro wn 1001704
ord in 1001620
Ġele ments 1001464
ik i 1001396
Ġaff ect 1000577
ĠInd ian 1000415
lic hen 1000181
g t 999665
el o 999637
Ġz ur 998941
l ished 998891
ĠE nd 998881
n os 998201
ic ine 998158
Ġb ra 997922
Ġagre ement 997871
let ter 997602
Ġthe ory 997199
el ine 996321
ĠO R 995788
C T 995738
ĠL ab 995647
C O 995606
o is 995039
ĠP et 994833
ĠG en 994560
ĠL os 994465
ĠFlor ida 994401
ĠD er 993836
ian o 993469
un a 993322
Ġc ore 993209
C E 993182
Ġ 00 993167
Ġs atisf 992995
Ġbut ton 992269
Ġspe ak 992190
Ġn ous 991169
Ġmult i 990357
k ing 990244
ig ital 989759
res pond 989461
- > 989308
ig ration 989244
A pril 988822
au f 988588
Ġprodu ced 988538
Ġsol id 988371
ĠD ownload 987886
ĠAr ab 987690
Ġsex ual 987201
Ġweek end 986881
Ġd rop 986842
Ġsupp ly 986725
ĠQ ue 986658
por ary 986340
Ġqu ant 986304
c an 986290
Ġelect ric 986284
Ġlearn ed 986056
Ġein er 985891
E mail 985528
Ġey e 985500
Ġsit u 985186
Ġr are 984721
S ee 984695
Ġin iti 983962
Ġed itor 983784
Ġappropri ate 983465
Ġsp orts 983307
ri age 983282
ĠIn s 983277
F rom 982699
P er 982409
Ġre v 980992
G u 980979
ĠGerm any 980887
ĠSt ep 980770
v ar 980507
onym ous 980321
Ar t 980011
Ġoper ations 979999
ĠC are 979695
ĠO h 978739
amp ions 978362
ow a 978282
Ġback ground 978202
Ġar r 978013
Ġsp ok 978010
Ġm ental 977791
Ġdis app 977354
ĠP ay 977037
oad ing 977012
Ġsol utions 976766
Ġaff ord 976755
ot i 976716
Ġâ Ĥ¬ 976536
Ġth row 976305
ut y 976117
ĠR E 975889
Ġdi ed 975771
C L 975610
Ġcan cer 975297
Ð¾Ð ³ 975094
ĠL and 975018
Ġt ak 974664
Ġmod e 974605
Ġtr uly 974083
Ġsus p 973947
ce an 973815
is co 973756
Ġ200 4 973638
L et 973458
Ðº Ð° 973378
ĠU N 973126
Ġann ual 972993
Ġwe bsites 972854
Ġdefin itely 972545
ĠM il 972508
Ġa im 972346
Ġca used 972124
Ġst ars 971959
Ġgr ant 971469
Ġse qu 971179
Ġveh icle 970950
ĠT O 970935
ack s 970785
Ġupd ated 970374
Ġp ra 969968
ĠW all 969866
ĠTe am 969636
ÑĤ ÑĮ 969117
Ġsl ight 968901
Ġ icon 968618
Ġt on 968149
Ġha ven 967642
p i 967527
Â ® 967454
Ġo l 967395
Ð» Ð° 967368
ĠSh ow 966708
Ġown er 966687
T ER 966437
Ġhig hest 966380
ĠRep ly 965730
ad ing 964887
t i 964601
Ġcont ains 964598
Ġw all 964565
ĠE nt 964549
ĠM ass 964109
ar ks 963767
um bl 963738
Ġass um 963548
ĠE conom 963535
Ġrem ove 963261
Ġhe at 963110
ik a 963038
Ġatt rib 962308
ĠS um 962307
ĠB ecause 962195
ĠS ince 962096
Ġe uro 961872
ĠBro wn 961790
Ġold er 961711
ĠM at 961325
Ġapp reci 961251
Ġcon ference 961008
Ġcrit ic 960701
ruct ure 960471
Ġmon itor 960466
Ġo k 960460
t itle 959910
ob e 959430
z ie 959012
ad s 959003
n ect 958629
Ġar m 958516
ĠTh anks 958197
res ize 958029
Ġopportun ities 957962
U p 957960
o ir 957892
Ġr ise 957633
Ġgu ys 957488
az y 957479
ig t 957337
el ess 957280
Ġconst ruction 956771
9 8 956347
ĠEn ter 956168
Ġorganiz ations 956019
in ue 955373
ĠCar ol 955226
i ant 955128
ĠV is 954917
ÃŃ t 954888
Ġm ail 954859
Ġcl osed 954510
ĠDirect or 954262
Ġmeas ures 954250
Ġprocess ing 953897
Ġn ur 953844
Ġpe ace 953238
or i 952941
Ġb atter 952332
ol ic 952301
Ġknow s 952245
in en 952190
t d 951776
Ġn iet 951602
Ġv a 951266
ach ment 951177
Ġen for 951032
ĠMicro soft 950673
] , 950427
ĠC ON 950304
ĠCon st 950296
å ı 949421
st en 949414
Ġn ut 949391
Ġs pl 948800
ang ing 947761
uc lear 947354
Ġsepar ate 946595
ĠOr gan 946401
Ġj ed 946149
Ġmanag er 945358
ĠA v 945167
h ors 944788
opy right 944317
ar be 944230
h re 944065
ook ie 943985
Ġs an 943840
M A 943518
ut ter 943514
Ġk l 943446
Ġtri p 943395
g ent 943206
ĠCh icago 943136
ĠDon ald 942668
Ġestab lish 942551
ä » 942543
ad as 942515
Ġrecord s 942343
ĠMan agement 942159
ĠT im 941847
Ġd ating 941820
at in 941578
Ġd urch 941241
ĠC D 940895
ĠSec ret 940891
il a 940693
Ù ĩ 940595
or ters 940082
A cc 940072
ĠM att 939663
Ġb orn 939173
ĠA L 938877
Ġfact ors 938684
ĠFound ation 938563
Ġc ards 938384
ant ic 937690
w ers 937456
Ġbecom es 936837
Ġinst ance 936789
Ġt ask 936137
Ġw ood 935910
Ġbl ue 935474
ĠS ite 935453
ol it 935112
":" "," 935098
sp ect 935027
Ġsec ure 934675
a a 934655
is ch 934535
os h 934534
Ġresearch ers 934125
Ġn i 933939
J une 933498
Ġconf lic 933426
Ġz um 933218
is se 933132
Ġb er 932981
ĠÐ ± 932932
is her 932863
A meric 932506
Ġun it 932415
ĠV irgin 932093
ut z 931862
ĠG ame 931861
ste in 931665
Ø ¯ 931326
P re 931231
å ħ 931195
Ġd ar 930873
pr int 930524
Ġa ward 930169
ĠRe al 929860
ĠT oday 929448
ĠM iss 929345
Å¼ e 929126
Ġl ose 928224
ind ing 928140
ĠChe ck 927882
âĢ ĺ 927814
Ġf ab 927691
Ġfa ith 927616
Ġac ad 927464
Ġfind ing 927433
Ġwe ap 927000
à ¯ 926855
Ġdi vers 926508
Ġad apt 926479
b urg 926324
ĠC ustom 926300
Ġdeg ree 925750
Ġdeb t 925730
Ġp us 925684
k in 925611
Ġinc red 925222
Ġcal cul 925081
Ġcle arly 925023
M an 924706
Ġfoot ball 924585
Ġke pt 924372
Ġ ĉĉĉĉĉ 924317
ĠBo ard 924138
Ġnot es 924009
Ġoffer ing 923825
ĠRuss ian 923750
ann a 923276
ont o 923262
Ġse a 922908
Ġfund ing 922763
Ġ4 5 922604
ab ilities 922407
S C 922293
du le 921837
Ġexper iment 921631
Ġc row 921208
in ct 921126
ĠAt l 920926
Ġr ank 920537
el ing 920496
Ġthere fore 920227
Ġconcern s 920177
Y es 920104
Ġopt im 919946
ĠSc ott 919813
Ġspec ies 919740
ĠPr ice 919719
i able 919340
R L 919237
Ġh us 919054
Ġb order 918824
ism o 918650
ay er 918360
Ġb ij 918187
Ġdec isions 917340
Ġun ivers 917143
ĠE in 916766
Ġd ress 916488
Ġcover age 916371
Ġk illed 916261
Ġident ify 915842
) ) 915319
e qu 914765
ĠCh urch 914635
ig g 914384
à¹ Ī 913735
ri p 913703
Ġc ities 913591
ĠP R 912999
Ġextrem ely 912673
Ġmil es 912440
Ġad opt 912139
t es 911965
O h 911719
Ġcreat ive 911392
Ġmin or 911321
Ġ Ñ 911127
Ġsc ene 911083
s es 910831
Ġaud ience 910355
Ġpack age 910348
Ġun less 910309
est e 910228
Ġadvant age 909963
ri pt 909828
Ġdis cl 909701
Ġ1 50 909675
Ġneg ative 909436
Ġpi Ã¹ 908938
am os 908887
Ġnum er 908702
× Ļ 908297
Ġsc ale 908288
Ġfor ces 908253
Ġtest s 907956
ul ed 907581
Ġdiscuss ion 907438
Ġvis ual 907047
ff ee 906955
n ight 906950
ĠP an 906943
ĠF ederal 906748
201 1 906200
ili ar 906097
Ġad vertising 906054
Ġdeterm ine 905667
Ġc old 905271
os en 905178
b our 904726
R ec 904662
ah l 904482
n s 904286
ĠS af 904274
Ġtra ffic 904274
Ġdire ction 904219
Ġp urs 904053
ĠFr ank 903873
g ov 903714
Ð» ÑĮ 903634
Ġg ather 903603
Ġhand buch 903452
wh ich 902818
Ġstreng th 902697
os it 902523
Ġexc ellent 902509
Ġstand ards 902123
Ġon to 901729
Ġdec ades 901689
Ðº Ð¸ 901687
est ival 901184
Ġein en 900655
ĠH T 900582
Ï Ģ 900565
ĠCh ild 900562
Ġm ut 900373
Ġk om 900357
ful l 900256
h ost 899911
Ġform at 899875
ĠAut hor 899413
Ġviol ence 899396
Ġmain tain 899207
ot os 899092
ens ions 899057
Ġsh aring 898959
Ġg od 898675
Ġshow ing 898606
f riend 898503
n am 898446
Ġfund s 898444
ic ious 898419
ĠA R 898280
Ġcons ent 898063
ĠT wo 897033
Ġdom ain 896929
Ġopen ing 895986
o oth 895978
Ġtechn ical 895971
he nt 895665
ĠSe x 895650
ĠGovern ment 895410
Ġarg ument 895388
Ġent ry 895269
ific ations 895142
C he 895035
Ġpers pect 894979
ĠP ass 894408
ĠG al 894354
ĠL ast 894342
Ã© g 894205
ĠComm ittee 894021
Ġm aster 893990
9 7 893852
est ic 893709
AC H 893455
Ġdom in 892780
Ġrep air 892356
ier en 891508
c ons 891074
Ġsp ort 891034
Ġre ference 891016
Å Ħ 890955
ĠT ele 890828
" / 890610
9 2 890605
ĠM ary 890592
et ic 890528
Ġth us 890433
stand ing 890371
Ġd ell 890227
R esp 890209
Ġform s 889820
Ġst orage 889778
ĠEduc ation 889687
um s 889283
Ġm ur 889053
Ġinc or 888841
ut ely 888720
Ġsh ip 888420
l ook 888414
Ġh ier 887459
r ast 887097
Ġr id 886917
ĠM ot 886637
ĠCont act 885880
Ġe at 885804
Ġfl u 885674
f in 885214
Ġc i 885191
l ie 885142
Ġb rief 884617
ten ance 884462
U s 884461
I E 884269
S E 884131
Ġthan k 884015
Ġg ift 883653
Ġs el 883546
Ġv ent 883387
am m 882929
Ġun l 882548
Ġimp ress 882534
c re 882312
Ġsign ed 882261
rel ated 882240
Ġrem oved 882005
ir med 881869
Ġcall ing 881854
Ġf alse 881846
Ã¡ t 881517
Ġpar am 881486
Ġspe ech 881463
9 3 881399
Ġwe ar 881275
Ġwill ing 881184
ĠOn ce 880925
go ing 880861
Ġsur round 880392
Ġ ice 880359
âĢ¦ ] 880319
Ø ª 880051
ov a 879851
ĠÃ ¥ 879266
ad er 879093
ĠB ur 878813
Ġestab lished 878496
Ġv ill 878198
ĠB i 878068
Ġfail ed 878032
Ġpolit ics 877692
Ġmost ly 877627
iment o 877601
Ġcl oud 876818
Ġcommun ication 876461
ĠAfric an 876152
Ġk ann 875955
Ġhelp ing 875746
Ġbal ance 875476
lic he 875071
ĠE s 874950
Ġm ale 874864
Ġ ðŁ 874699
Ġpract ices 874232
ick en 873772
F ollow 873743
y er 873263
ĠD E 872887
Ġchalleng es 872840
Ġdoc uments 872401
Ġsupp l 872373
Ġ200 3 872238
g rav 872067
end a 872056
Ġb reat 871968
Ġinf o 871910
Ġcirc um 871776
Ġexper ts 871586
Ġex ecutive 871371
P A 870975
Ġcitiz ens 870860
ri z 870590
ac ement 870582
Ġopin ion 870245
ur ation 870195
ot al 869941
or ry 869898
ĠRober t 869863
k et 869858
Ġcon sequ 869509
j s 869432
ploy ment 869184
act ions 869170
ate ur 868801
Ġexpl ain 868576
ĠC ard 868509
ĠMin ister 868319
B r 868288
Ġsh op 868127
T A 868039
Ġb ag 867963
Ġe arth 867923
Ġsen ior 867542
u ps 867521
Ġprot ected 867415
Ġfun ctions 866866
end en 866741
Ġprof ile 866224
ĠGerm an 865759
Ġcar s 865627
Ġv en 865426
l ife 865091
Ġsupport ed 864965
ur er 864500
Ġm ac 864356
or ig 864338
Ġed ition 864160
Ġgr at 864098
Ġo h 863697
Ġevent ually 863598
al ign 863452
h ab 863350
Ġle aving 863120
ĠHist ory 862998
b ur 862976
Ðµ ÑĢ 862884
Ġvot re 862679
ĠkÃ¶n nen 862654
â Ĩ 862561
ĠW il 862545
V ER 862270
Ġord ers 862189
Ġp ush 861999
em e 861950
Ġinflu ence 861793
Ġch urch 861789
Ġcapac ity 861477
ĠEng ine 861384
c ious 861240
Ġrelig ious 861092
p ret 861042
P ress 860921
Ġ0 1 860405
qu es 860386
Ġf av 860270
ortun ately 860264
ĠR ock 859688
Ġdi agn 859609
Ġb attle 859368
Ġgl ass 859101
J ust 858637
J anuary 858576
Ġest e 858456
Ġc atch 858350
Ġman age 858173
Ġgener ation 857973
Ġsmall er 857909
Ġpat ient 857868
Ġdi et 857448
Ġvol ume 857321
pr ise 857275
Ġinst it 857209
ĠWe ek 857106
Ġchang ing 856732
Ġpl aced 856298
it ness 856083
à¸ Ń 855716
Ġlo an 855616
Ġl oved 855384
ĠNet work 855381
Ġrad io 855324
U M 855268
Ġanim als 855181
Ġpr z 855098
Ġheav y 855027
E very 854739
Ġupd ates 854291
ul ations 854045
ul ated 853914
A ugust 853718
ĠC ross 853613
Ġtra in 853407
all ed 853254
ĠAb out 852362
ĠCol or 852258
ĠMart in 852168
Ġobs erv 851799
ĠDemocr atic 851601
Ġscient ific 851555
ĠCent ral 851073
Ġsc ript 850890
sp ec 850655
c or 850519
Ġc os 850497
Ġf ill 850390
Ġbecom ing 850376
Ġst ation 850323
Ġst ick 850114
um er 850058
Ã© l 850018
Ġv ac 849381
Ġproper ties 849007
anc he 848751
Ġpass word 848330
we b 848260
Ġhab en 848240
ĉĉĉĉĉ ĠĊ 848143
th at 847953
Ġsett ings 847901
Ġre ached 847633
ĠL o 847043
Ġt aller 846912
Ġb ien 846762
Ġres idents 846494
Ġprinc ip 846410
clus ion 846185
Ġm ai 846065
ĉĉĉĉ ĠĊ 845973
Ġreturn ed 845700
T V 845268
ÐµÐ½ Ð¸ 844829
wh ile 844724
ĠJ ava 844230
Ġmill ions 844015
ell ed 843554
Ġto d 843444
Ġa st 843263
Ã ¬ 843159
Ġb le 843128
k an 843079
ÅĽ ci 842870
Ã¼ n 842783
Ġcor respond 842549
ent ed 842445
c ar 842416
Ġapp s 842345
ĠL ove 842286
ĠM en 841088
M od 841013
Ġask ing 840748
Ġnot ed 840737
Ġcandid ate 840314
Ġm ent 840286
d ed 840269
Ġoper ating 840069
in ci 839993
ĠH and 839846
ĠC ode 839548
ĠI ran 839321
ĠCan ad 839296
s ize 839052
Ġ ] 838750
Ġrun s 838617
Ġst reet 838552
ann o 838382
Ġnov el 838345
ĠM el 838211
Ġgirl s 837821
Ġpre par 836789
y ou 836751
Ġh ref 836709
ĠR oad 836526
Ġcover ed 836231
ul ate 836166
ĠS et 836014
Ġch ief 836010
Ġdef ense 835925
Ġsp ect 835668
ot ic 835643
ĠM ake 835590
å ¤ 835568
ĠJes us 835480
r ig 835341
Ġwait ing 834071
ck now 833634
Ġgu ess 833584
× ķ 833339
Ġart ist 833140
Ġla un 832960
Ġsc ore 832608
ab il 832468
Ġexperi ences 832321
Ġex change 832238
Ġread ers 832185
ĠDevelop ment 832076
Ġep isode 831987
Ġp ou 831737
Ġm Ã¡s 831634
Ġserv ed 831614
Ġsym pt 831605
ĠAc ad 831471
ĠProf ess 831457
Ġg ain 831439
Ġcon cent 831298
Ġk on 831294
at ie 830810
oss ible 830745
Ġt ag 830177
o j 830167
Ġsh ipping 829946
wh at 829485
Ġd ry 829456
d i 829362
Ġrais ed 829178
th is 828969
Ġd raft 828861
D E 828799
Ġmention ed 828384
Ġu it 828256
uck y 828249
ĠArch ived 827917
ĠTechn ology 827746
Ġt ip 827612
9 4 827579
st ract 826803
Ġse lection 826741
Ġfem ale 826390
Ġret ail 826256
ĠY ear 826027
ond e 825823
Ï Ĥ 825800
Ġvis ion 825753
Ġcomp re 825728
Ġ ë 825363
ĠN OT 825251
ol i 825011
ĠIn vest 824836
Ġsur vey 824152
on na 823861
Ġdeb ate 823673
Ġre nd 823650
d ated 823473
h ar 822677
Ġdef ined 822665
ĠTh ank 822596
Å ¯ 822517
ĠI r 822328
Ġkeep ing 822095
r ag 822041
Ġmin imum 821957
Ġapp oint 821646
all ery 821415
ĠJ un 821402
Ġlist ed 821337
Ã¸ r 820998
Ġtrans form 820775
um in 820674
ut sch 820592
ĠV ideo 820098
P L 819596
Ġdec ide 819493
edd ing 819246
ack ing 818980
ĠAcc ording 818909
ĠW ater 818608
Ġj ump 818386
Ġdem ocr 818261
P M 818106
Ġhom es 817803
Ã§ a 817626
n oc 817623
Ġreview s 817408
Ġin put 817038
Ġm el 816936
ĠA D 816822
Ġrap id 816594
ow l 815788
Ġsupp osed 815674
Ġtemper ature 815109
ric s 815085
ĠGl obal 814964
Ġd im 814777
iver se 814398
Ġm arg 814277
n el 814223
Ġinter nal 814142
Ġso ft 813949
Ġein em 813895
á ĥ 813801
Ġlot s 813518
Ġrespons ibility 813409
ĠH uman 813144
p ir 813136
or ney 812968
ĠÐ · 812884
Ġpropos ed 812776
ĠB as 812353
Ġvot ers 812150
Ġp u 811844
D is 811795
ul ner 811790
Ġm and 811602
Ġg est 811527
Ġexerc ise 811517
Ġend ed 811103
ĠAl though 810596
P e 810564
Ġco ach 810428
ge b 810307
F ebruary 810245
O ctober 810133
er ry 809786
Ġenvironment al 809727
ree k 809064
ĠP eter 808996
T ube 808895
ig an 808803
Ġcr us 808374
Ġsh ape 808193
ĠJ ud 808064
Ġall a 807731
Ġtrans m 807704
ĠJohn son 807641
Se ptember 807610
ãģ Ħ 807412
Ġj ak 807239
Ġinterest s 807124
Ġoper ation 806831
Ġfocus ed 806612
ĠP rem 806289
ĠE xt 805945
ens ch 805938
ĠPar is 805796
Ġter ror 805661
Ä « 805582
! âĢĿ 805231
u en 805228
Ab out 804988
g al 804897
Ġd ynam 804754
Ġf lex 804626
Ġso le 804489
ĠO per 804153
M T 803928
Ġdevelop ing 803526
ĠL in 803301
R ef 803262
ĠA ccess 803101
Ġwe ather 802998
ĠMus ic 802967
Ġmess ages 802892
Ġregister ed 802870
w ing 802706
Ġwh om 802250
Ġconvers ation 802040
Ġleaders hip 801960
Ġatt end 801884
Ġmot iv 801874
as ure 801396
Ġmiss ing 801108
20 10 800993
Ġc ab 800963
ĠWh o 800643
ĠB it 800432
ĠM ess 800368
Ġfor ced 800357
un te 800237
ang es 800127
ĠSpec ial 800115
Ġint ended 799972
ES T 798982
Ġcompet ition 798964
Ġaltern ative 798936
ĠM ach 798791
ĠGr and 798718
Ġappe ared 798643
Ġa o 798588
F l 798546
ak ed 798334
ed In 798258
ĠThom as 797501
ĠAng eles 797474
Ġl it 797159
Ġe c 796768
Ġfe es 796739
Ġfre edom 796664
ch o 795816
C A 795305
Ġn el 794893
Ġfor t 794553
ĠE ach 794315
L ast 794031
Ġattack s 793729
Ġdriv ing 793456
ĠF und 793415
Ġres ol 793387
ĠW estern 793189
Ġf uck 793091
ĠE ner 792845
Ġaccount s 792776
ĠF ood 792541
ĠA ff 792353
Ġp aint 792193
ic ing 792051
Ġs ession 791976
cl es 791888
ĠR om 791882
re ens 791866
Ġpi eces 791576
ord s 790978
ub b 790832
Ġaff ili 790676
ĠI T 790520
ident ial 790411
Ð¾ ÑĤ 790304
ç Ķ 790227
9 1 789752
ĠL oading 789669
ĠCl ub 789512
Ġseem ed 789262
Ġfield s 789205
ĠSupp ort 788993
L S 788694
ĠIs lam 788601
ri f 787916
p ass 787878
à¸ £ 787598
ĠChrist mas 787474
å ® 786912
B I 786859
Ġwor ry 786779
Ġsu d 786372
Ġpresent ed 786281
Ġexperi enced 786268
Ġpl ug 786027
Ġre form 785969
st yle 785855
x y 785736
op en 785667
ĠD at 785531
Ġmot or 785489
p ath 785402
Ġident ity 785354
Ġn one 785036
ĠA T 784871
Ġcl ot 784770
Ġs ac 784479
Ġdistrib ution 784172
ĠG ar 783693
Ġwatch ing 782993
Ġg es 782918
ell es 782651
Ġp ed 782203
f rom 781756
st ream 781655
à¹ Ģ 781508
Ġpres ence 781288
ĠC EO 781258
). " 781066
u per 780453
ĠTe xt 779717
ant i 779356
Ð¾Ð ¹ 779320
os is 779018
Ġap art 778937
Ġex ception 778858
ĠR iver 778824
ĠW ood 778809
Ġwor se 778758
Ġth erap 778477
e ur 778413
Ġcontin u 778109
Ġadv oc 778067
b est 777877
Ġn ar 777679
au c 777575
u h 777573
Ġv ast 777318
Ġs witch 777276
ĠM ur 777235
ĠN on 776938
arr ant 776736
w rit 776638
s ub 776393
Ġplan et 776276
Dec ember 775857
Ġdou bt 775836
Ġ Ø§ÙĦ 775809
Ġdoll ars 775723
U P 775555
E m 775396
P art 775193
A ut 774957
Ġstart s 774704
Ġcol umn 774229
Ġlist en 773504
ĠW he 773470
est a 773426
ĠB ud 773380
Ï ħ 773151
Ġspecific ally 773100
Ġcomplet ed 772873
Ġallow ing 772841
> > 772814
idel ines 772779
Ġwrit er 772708
Ġk ill 772420
Ġout put 772290
D P 771768
sp ot 771677
Ġadminist r 771666
Ġfe els 771470
ĠW al 771280
Jo hn 771213
ĠM ike 770892
ĠM ax 770348
Ġtop ic 770310
Ġtra v 770239
Ġb ound 770097
Ġdri ver 770035
ĠL ong 770033
ĠInst agram 769916
pt ions 769811
Ġmass ive 769750
out s 769618
Ð² Ð° 769400
Ġtechn ologies 769265
es ome 769109
Ġtri al 769109
ant es 769032
ai res 768970
ĠC H 768918
N ovember 768838
Ġvirt ual 768404
Ġen able 768226
Ġconsum ers 767744
re al 767673
Ġ Äį 767412
ĠL ive 767399
k ins 767264
od ies 767124
ing ly 766938
ĠSt art 766691
Ġs z 766335
Ġreve aled 766331
Ġ200 1 766175
ĠÃ º 766083
Ġa cknow 765913
ph ere 765906
ĠA us 765848
Ġide al 765741
ist e 765310
Ġscient ists 765008
un ning 764990
ra f 764760
co hol 764638
Ġopen ed 764600
ĠW ay 764139
e ff 764023
ĠD a 763921
v s 763778
um es 763773
Ġn as 763722
ĠL im 763718
ĠC as 763692
ĠV an 763658
Ġ ` 763516
. âĢĻ 763202
st at 763195
ĠLou is 763194
C o 763139
ĠM ount 762863
Ġapp arent 762788
In st 762735
ĠI d 762383
ä ½ 762311
ar ia 762293
grav atar 762197
Ġclass es 761979
âĢ ĳ 761946
Ġthought s 761166
Ã¤ nd 761130
an ie 761093
fer ences 761005
!! [] 760845
Æ° á» 760533
Ġmark ets 760520
r ick 760392
Ġs yn 760361
O ther 760332
ĠR ights 760232
ĠSoc iety 760176
Ġt ou 760117
ust er 759447
Ġrem ov 759303
Ġput ting 759278
Ġhus band 759194
Ġappl ied 759153
Re g 758987
ĠD ou 758974
ĠBl ue 758664
rou d 758545
Ġw y 758450
Ġsect or 758321
ĠEx per 758231
ĠP ri 757806
ĠR o 757319
ĠCommun ity 757109
S cript 757079
k es 757055
Ġlic ense 757004
Ġc ra 756766
ien e 756738
T witter 756632
Ġg ay 756580
Ġhon est 756553
ĠSer ies 756546
ur ies 755837
Ġl ib 755666
Ġinvestig ation 755636
Ġdat abase 755592
ĠP age 755551
Ġsc hed 755323
ĠMex ico 755265
Ġfail ure 755005
ĠDemocr ats 754983
Ġg ender 754960
Ġwe alth 754799
Ġob t 754419
P ubMed 754386
ac er 754308
Ġfin ished 754195
un s 754192
Ġcult ural 754171
ob s 754089
f il 753952
Ġf uel 753942
Ġsol o 753454
Ġocc up 753394
Ġf ashion 753259
Ġo t 753099
ĠO N 752595
Ġjour ney 752184
ĠL iber 751819
c ement 751552
ĠN Y 751498
ru nd 751326
ĠRepublic ans 751258
sc ale 751254
Ġreturn s 751109
Ġdist ance 751088
Ġfam iliar 750870
âĢ¦ âĢ¦ 750865
Ġfor get 750672
ĠA ud 750647
Ġdo i 750411
r ors 750216
Ġset s 749941
à¹ ī 749661
Ġconf irmed 749661
Ġanim al 749591
Ġselect ed 749545
Ġr ain 749483
Ġautom atically 749462
os c 749351
Ġhot el 748935
Ġent ertain 748852
Ġun ser 748793
l ib 748709
Ġ200 2 748172
Ġpict ures 748035
ĠThe ir 747386
Ġeff icient 747339
ĠO ld 747335
Ġdel le 747288
g ers 746919
Ġt ips 746657
L ist 746655
enc ing 746434
ip es 746376
Ġag ent 746074
ĠAd minist 746006
Ġconst ruct 745999
Ġt ree 745867
Ġs vens 745754
Ad vertisement 745465
Ġan che 745426
Ġmain tenance 745238
nos cript 745226
Ġh un 745149
Ġp ic 744919
ĠÂ © 744802
V E 744459
ĠC re 744223
ĠD iv 744213
ĠS ports 744050
Ġfund ament 743886
Ġpo ol 743833
ĠG ames 743827
Ġdec re 743661
Ġadv anced 743654
Ġ7 5 743630
ĠL ight 743567
ĠW atch 743536
Ġfin ish 743398
Ġd aughter 743363
Ġc er 743088
ack er 742801
F ig 742725
F irst 742587
Å ĳ 742359
Ġcon ven 742157
n h 741803
1 20 741705
Ġcont ro 741558
Ġneigh bor 741528
Ġsh ift 741466
Ġso bre 741034
ici ency 741000
Ġs weet 740501
Ġs and 740209
ĠPol it 739784
B ook 739668
C R 739661
at z 739618
ograph ic 739375
Ġil leg 739188
Ġr andom 738468
ES S 738274
ĠS ou 738199
f ox 738194
Ä Ł 737984
ĠDist rict 737978
Î » 737942
Ġconn ected 737863
Ġ/ >< 737746
æ ĸ 737701
Ġexp ression 737685
yt ics 737499
ĠN av 737491
Ġpl ants 737459
ul s 737247
å Ī 737246
v y 736966
r id 736757
ot ed 736620
Ġper man 736371
Ġsound s 736298
O pen 736288
Ġno ch 736251
Ġint elligence 736120
ĠLe vel 736018
med ia 735985
Ġcorpor ate 735979
Ġhy p 735849
Ġpr ime 735817
c m 735760
Ġappro x 735514
Ġdo ctor 735349
Ġmen u 735342
z ione 735075
al o 734815
Ġv oc 734642
G e 734570
? ? 734375
Ġt ab 734334
Ġun ter 734262
org ia 734253
I B 734249
Ġn uclear 734243
w ater 734102
ĠV ers 734073
Ġdep artment 734013
Ġk t 733571
Ġanal y 733510
Ġtyp ically 733181
Ġle ague 733006
Ġhundred s 732987
ER S 732938
W S 732869
Ġd ir 732552
uild ing 732017
Ġre ject 731739
Ġ3 6 731597
ĠCh ris 731503
Ġf aster 731499
er g 731439
d r 731361
and on 731286
ren cy 730717
o very 730479
O ut 730465
ĠJe ff 730306
Ġch at 730205
ac le 730194
ĠJ on 730056
l h 729975
ĠJo e 729537
uz z 729523
wik ia 729392
mer ce 729307
eng er 729286
Ġp air 728769
Ġentire ly 728751
Ġmax imum 728282
Ġiss ued 728243
Ġ Å¾ 728124
H T 728090
gr ade 727359
E r 727112
Ġk ick 727043
ĠJ ose 726640
ĠMc C 726638
ĠJ ones 726407
Ġemer gency 726013
ĠC up 725850
O U 724568
ĠOn ly 724437
N ame 724398
Ġslight ly 724317
Ġc ro 724199
% ) 724007
Ġsu a 724005
Ġmar riage 723994
Ġprep ared 723957
ut en 723716
ĠP sych 723645
Ġarch itect 723568
ĠL ook 723382
Ġhous ing 723269
O ver 723178
How ever 723141
am er 722914
ĠDe v 722671
le vel 722547
s aid 722487
ĠPl us 722312
yth on 722054
m ary 722031
m ond 722005
Ġp p 721709
Ġaut o 721635
ra q 721623
Ġcomm itted 721144
Ġabsol utely 721111
enc ia 720834
Ġi Phone 720250
is hes 719742
Ġlab el 719556
Ġreport ing 719547
Ġpl ays 719523
Ġpro s 719151
à¸ ģ 718923
Ġd it 718530
Ġident ified 718413
Ġaut hors 718381
p ons 718353
? " 718327
ĠW omen 718233
f iles 718160
Ġsh ut 718068
et her 717932
+ + 717833
Ġr aise 717719
ax y 717694
Ġpass ion 717452
Ġfeed back 717067
Ġhappen ing 716978
D r 716967
ffic ient 716961
y les 716798
it u 716700
ĠA ug 716623
b el 716221
Ġsou l 716208
ph p 716161
Ī Ĵ 715947
Ġmanag ed 715819
E X 715654
Ġinf rast 715407
Ġind ex 715367
Ġtax es 715182
Ġhum ans 714883
ÑĤ Ð¸ 714726
ĠSt ory 714713
ĠM P 714567
Ġrelationship s 714546
Ã¼ ck 714433
Ġs es 714390
Ġ6 00 714317
Ġch air 714226
Ġcandid ates 714160
ĠI ll 713974
ad ow 713861
i u 713705
l azy 713696
Ġexp ensive 713556
ĠJ im 713547
ĠL ord 713344
qu ir 713165
v an 713135
r ich 712610
Ġk id 712346
Ġequ al 712319
Ġh ij 712134
or ation 712073
i ation 712035
r ont 711470
Ġter rit 711368
Ġd ial 711263
Ġmov ies 711232
erm an 711047
Ã ĥ 710935
Ġsp ring 710855
Ġd al 710816
Ġwonder ful 710661
Ġver t 710621
Ġhe aring 710532
ĠA p 710343
Ġaud io 709973
Ġintrodu ced 709715
Ġad s 709693
Ġ3 3 709265
Ġcircum st 709243
Ġobject s 709015
Ġphil osoph 708914
ov en 708889
Ġoffic ers 708734
el ijk 708491
st ar 708323
Ġprocess es 708174
Ġpl enty 708153
Ġw arn 708140
Ġexpl ained 708114
Ġth read 708040
ĠKore a 707841
ind s 707547
ĠC all 707502
ĠSp ace 707348
Ã¡ l 707099
ĠAP I 707098
Ġk un 707021
Ġexam ples 706994
i ams 706890
Ġy es 706708
gr ad 706563
un es 706289
Ġsust ain 706227
ĠT our 706141
ĠC N 706123
Ġfact or 706078
ĠYou Tube 705884
r ar 705878
Ġst ated 705868
sk i 705736
Ġ0 9 705598
ig ger 705561
ost a 705485
c ur 705355
Ġc raft 705290
Ġded icated 705164
ĠCor por 704438
us er 704360
r l 704322
Ġporn o 704073
b et 704062
Ġlead s 704046
l ines 704012
Ġcar bon 703944
ĠMus lim 703745
inci ples 703473
ag g 703397
opp ed 703158
Ġneg oti 703043
ĠD uring 702999
ĠOr der 702884
ĠAd v 702736
ĠCarol ina 702715
it ure 702575
Ġdiffer ences 702573
Ġauthor ity 702432
ĠH a 702365
Ġc ul 702057
Ġy a 701820
E G 701579
Ġsym bol 701358
v g 701131
ĠInst ead 701024
ãģ « 700799
Ġs outh 700799
Ġtell s 700614
Ġinst r 700256
Ġcl im 700038
ĠS on 699768
T P 699722
new s 699689
Ġhold ing 699464
Ġfe e 699321
Ġseek ing 699072
Ġ4 00 699067
Ġs we 699009
Ġk a 698857
Ġt ech 698842
b al 698709
ens us 698688
ost on 698676
Ġest ate 698493
ĠS up 698473
ĠÃ ® 697871
M on 697819
Ġsol ar 697528
ord ers 697324
Ġbe at 697252
r ite 697236
Ġinter pret 696906
or o 696874
Ġex hib 696792
ĠPh oto 696592
Ġv acc 696394
b ly 696206
art s 696203
O f 696094
t ar 695561
Ġfam ous 695444
Un ited 695284
ĠVirgin ia 695198
d oor 694544
L og 694509
Ġ4 8 694451
Ġk o 694232
b b 694193
Ġlaun ched 694129
Ġparticip ants 693756
C S 693591
ĠPro v 693550
Ġdiscover ed 693550
ci pl 693302
Ġtell ing 693211
Ã¶ g 693207
a at 693188
Ġcompon ents 693093
Ġwin ning 693025
ĠIS BN 692972
Ġcomm e 692780
x x 692683
S ec 692545
Ġun c 692499
ans as 692224
O b 692215
Ġtele vision 692068
ĠU RL 691988
av en 691886
Ġb ug 691816
Ġsche dule 691714
ess ions 691439
ĠJust ice 691418
Ġj est 691066
) ( 690848
Ġs elling 690662
sec ure 690607
t est 690560
or ith 690468
L ink 690221
ĠSo ftware 690120
Ġco ffee 689995
ubs cribe 689963
os es 689886
Ġm ine 689877
Ġredu ced 689632
ĠC A 689497
ĠP ubl 689458
Ġv end 689402
Ġmin ute 689314
ĠF ollow 689215
Ġb is 689136
ost er 689064
Ġcomfort able 688814
Ġour selves 688739
ĠC ond 688690
ĠFam ily 688511
ĠCom ment 688385
Ġr u 688218
ex p 688191
Ġdis s 688072
Ġagre ed 687935
w i 687862
Ġre venue 687698
Ġsecond s 687671
Ġoffic er 687585
oc ument 687552
ĠCook ies 687547
ing u 687357
.. .. 687315
Ġassist ance 687039
Ġchem ical 686851
Ġcomm ission 686837
ĠP ac 686709
Ġsympt oms 686705
ĠIm ages 686478
ĠCont rol 686415
ry pt 686405
ĠLe e 686324
Ġwas te 686245
ar p 685932
Ġca uses 685847
Ġsignificant ly 685658
à ´ 685277
as se 685176
Ġaff ected 685110
Ġgu ard 685082
Ġrequest s 685074
re land 684804
z z 684553
Ġg ew 684005
ĠQu est 683933
as p 683770
Ġcopy right 683611
ĠJapan ese 683559
bl ing 683548
j u 683439
h m 683244
Ġ Ñĥ 683207
Ġs ample 683147
y cl 682937
Ġjo ined 682810
Ġinj ury 682761
Ġcol le 682753
ĠE qu 682310
Ġclass ic 682140
ĠV ict 682115
oc ial 682043
Ġun its 682034
Ġperm ission 682011
T op 681871
Ġdo ct 681546
noc ookie 681379
Ġwel come 681063
Ġcook ie 680983
ĠÃ ¤ 680970
ult ural 680898
ĠWill iam 680854
Ġn orth 680692
l atest 680667
ab et 680556
Ġcomb ined 680077
ang ed 679835
ĠÃ ª 679593
å Ĳ 679566
ĠRich ard 679550
ĠEd ition 679433
as i 679357
ĠNe xt 679357
Ġappro ved 679260
Ġ3 4 679178
In ter 678912
fr ont 678781
Ġadult s 678556
ãģ Ĺ 678511
s pe 678369
B O 678284
ĠS H 677574
Ġcateg ory 677356
Ġ[ âĢ¦] 677285
Ġcorn er 677230
Ġv ulner 677179
Ġv eter 677164
Ġc up 677075
Ġwor st 677019
ĠPr int 676697
Ġcomb ination 676669
Ġag encies 676276
Ġperspect ive 676271
ĠF ind 675981
ĠA S 675894
ĠE t 675774
ek t 675702
Î · 675407
ic as 675260
Ġme hr 675192
ĠM it 674994
C omm 674925
Ġbu ying 674814
Ġjust ice 674669
Ġhandle iding 674612
Ġr ough 674608
ĠT ype 674342
Ġtechn iques 674280
Ġpay ing 674229
Ġex ternal 674224
ĠN FL 674153
ĠN a 674114
v ign 674066
lic ation 674003
erv ice 673934
ĠFranc isco 673867
Ġdetail ed 673815
ĠH or 673639
f Ã¼ 673446
el ly 673405
Ġsupport s 673303
l ar 673256
ore n 673249
el lect 673140
g age 673133
Ġrel atively 672999
act ive 672827
st ate 672458
Ġtem pl 672367
ãģ § 672212
Ġwe ak 672183
E E 672140
Ġsvens ke 671925
P ar 671691
Ġbig ger 671668
AN T 671441
Ġdec ade 671347
w est 670971
Ġr om 670929
r s 670885
Ġt amb 670790
erse y 670681
ĠInd ust 670365
ĠEx pl 670346
t op 670336
Ġst ores 670256
ĠT em 670179
ĠG i 670132
iz er 669784
Ñ ī 669616
Ġf ellow 669591
Ġfor g 669393
ãĥ ³ 669334
en za 669281
ĠNot e 669253
Ġdeterm ined 669236
ĠQ ual 668855
app ing 668842
D ie 668742
ĠH en 668591
in ar 668528
Ġconcern ed 668409
Ġdeliver ed 668345
Ġperform ed 668213
Î º 668212
on n 668103
C P 667730
Ġche ap 667585
er ia 667554
Ġhom se 667550
Ġhelp ful 667282
Ġpan el 667244
ver e 667039
Ġpay ments 667036
Ġs au 666923
Ġt as 666575
gy pt 666570
Ġdevelop ers 666251
Ġconsum er 666151
ĠBl og 666082
app y 666037
Ġsim pl 666016
Ġdel ay 665961
Ġd ra 665952
Ġaccur ate 665883
Ġdrug s 665589
Ġinstruct ions 665537
Ġw ur 665436
AN D 665423
Ġf ly 665296
Ġf ish 664828
ĠâĨ Ĵ 664590
Ġp il 664582
Ġĉĉ Ġĉĉ 664572
an ish 664167
Ġcollect ed 663890
am o 663808
ĠC ast 663667
ĠP ack 663633
el en 663615
Ġh ate 663189
ĠL u 663050
S l 662959
Ġab er 662853
ĠO ct 662598
Ġbro ther 662456
ch arg 662441
Ġv ie 661933
ro g 661811
Ġis ol 661446
um a 661365
A nt 661325
h ere 661318
C D 661168
Ġm ob 661080
im p 660981
ir k 660980
Ġmechan ism 660813
ord an 660468
ĠH D 660447
áº ¿ 660378
Ġbro ken 660136
Ġse in 660068
ĠPerson al 659855
Ġs ad 659823
Ġfl ag 659650
Ġsupport ing 659605
u able 659506
ĠD aily 659136
ar on 658532
F F 658298
EC T 658154
ic an 657957
G l 657678
Ãª me 657531
Ġp ure 657440
ied er 657407
ĠD as 657375
Ġcr ime 657317
raz il 657293
ans ion 657231
AT E 657176
ath an 657128
om pl 657111
Ġsuggest ed 656857
ĠM ult 656600
Ġf le 656597
Ġbr ings 656513
Ġinfrast ructure 656460
ĠV e 656423
S ign 656398
Ġman ner 655912
Ġann ounc 655871
ĠK n 655830
Ġab use 655687
Ġgood s 655511
ag ues 655366
Ġf ait 655341
ĠL ake 655298
S ch 655294
S m 655200
Ġfollow s 655169
å ľ 654936
Ã¥ r 654927
\ " 654416
ro ad 654316
l arge 654057
ob by 653603
th let 653588
AA AA 653578
Ġesc ort 653477
se x 653457
ì Ŀ 653289
Ġsign s 653284
Ġg al 653228
Ġel imin 653133
ĠO l 653044
Ġdisc ount 653040
ÑĤ Ð¾ 652940
Ġren ew 652450
C hor 652202
Ġf old 652199
Ġdest roy 652145
H S 651943
Ġres erv 651923
Ġo ok 651858
pt y 651792
Ġsh opping 651568
ĠF OR 651200
Ġco al 651160
Ġpresident ial 651085
Ġ0 8 651027
Ġc ette 650836
Ġcharg es 650663
ij u 650580
Ġbelie ved 650557
Ġturn s 650212
Ġfight ing 650120
ĠSec ond 650108
Ġexc ited 650054
ibr aries 649897
w as 649547
M ost 649266
Ġfl at 648924
Ġworks hop 648805
ĠAs ia 648802
et ing 648776
ĠIt s 648775
Americ an 648689
Ġ0 3 648581
or al 648539
ag a 648467
re vision 648458
Ġb ought 648333
Ġbr ight 648306
Ġfac ilities 648251
ke it 648084
ĠD igital 648015
aw a 648008
Ġro t 647944
vent ure 647909
Ġk itchen 647458
ost en 647425
= =" 647338
F e 647293
Ġapplic able 647257
S upp 647140
RE E 647027
Ġconflic t 647014
Ġp roud 646891
ĠS i 646879
200 9 646841
hip s 646830
ph as 646657
áº ¡ 646491
aut hor 646336
omet imes 646117
Ġdr am 645845
Ġst im 645613
c ode 645448
ÅĤ a 645406
Ġres ource 645134
Ġimp ossible 644604
Ġmonth ly 644597
ed en 644408
Ġex ec 644331
ĠVal ley 644316
ar o 644307
Ġa qu 644269
ĠB ern 644135
id ers 643821
Ġimag ine 643712
Ġed ge 643681
igh ter 643498
Ġsp ons 643177
Ġte en 643164
ĠCanad ian 643112
Ġo ch 643021
az z 642987
G OD 642883
ĠW in 642800
T ype 642658
n ik 642654
Ġpart e 642623
Ġdis pos 642515
m ann 642492
az ioni 642479
sp an 642458
AL L 642395
ĠC arl 642355
à¤ ¾ 642245
r ac 642243
al and 642096
ĠP op 642063
ĠH aw 641865
H L 641840
Ġdis p 641473
res ents 641413
Ġp ÅĻ 641391
itution al 641389
Ġmod er 641300
ateg ory 641164
iven ess 641046
Ġcontr ast 640940
Ġex ecut 640840
D T 640813
ĠEner gy 640760
ĠL uc 640715
ro t 640560
×ķ × 640497
et ers 640352
Ġdanger ous 640333
Ġfilm s 640321
Chor us 640298
ĠW ild 640280
Ġ3 7 640253
Ġprovid ers 640204
Ġb ird 640056
Ġveh icles 639972
Ġch a 639952
ĠWh ere 639878
ĠP S 639801
Ġmat ters 639593
ĠAcc ount 639562
Ġthem e 639474
Ġtest ed 639453
Ġn ine 639341
Ġal ter 638705
bl ed 638693
Ġste el 638629
An y 638545
ĠS qu 638458
O K 638456
Ġbring ing 638420
H D 638340
ig a 637936
az a 637677
arant ee 637564
Ġposs ibly 637551
=" // 637319
Ġ riv 637245
Ġart ists 637185
f a 636952
Ġy eah 636910
Ġs ul 636387
w orld 636299
Ġr an 636223
er al 636179
urn s 636134
Ġmet al 635946
ĠP o 635733
Ġel ig 635586
Ġinstit utions 635508
vign ette 635489
Ġspe aking 635466
Ġsud den 635218
att achment 635118
f ast 635089
re es 635062
Ġimport ance 635017
w an 634897
anc ial 634721
w art 634596
ĠB oy 634576
Ð¾ Ñģ 634551
Ġte aching 634503
cent er 634462
Ġsuggest s 634387
ĠD C 634302
â ĸ 634079
W ell 633695
Ġt ight 633614
ĠV i 633438
Ġb ond 633334
Ġ0 5 633212
Ġnet works 633143
à¸ ĩ 633131
ĠMed ical 633068
com es 633002
sc ape 632920
Im age 632814
ĠF ig 632630
Ġtrad ing 632498
og a 632339
Ġcre ation 631995
ĠW rit 631992
Ġl ived 631920
ĠC oll 631829
ear ing 631768
ĠR ight 631667
ĠTh ose 631367
Ġrece iving 631309
ĠCont ent 631149
Ã Ĥ 631027
ĠB uy 631000
Ġexpl ore 630746
Ġl iqu 630671
if ier 630577
ak a 630381
Ġan x 630072
ult s 629722
en en 629635
Ġr ide 629547
20 00 629112
Ġtw ice 629075
Ġlink ed 628847
Ġvisit ors 628789
l GOD 628737
Ġdef end 628669
Ġun iversity 628427
ĠM useum 628389
ool s 628322
Ġshe l 628294
Ġinter face 628204
Ġw ire 627915
Ġj oint 627831
Ġfl ight 627709
Ġcircumst ances 627656
Ġrestaur ant 627596
Ġt ough 627587
Ġbo ost 627349
end ar 627335
d raw 627227
Tr ans 627179
lGOD lh 627093
à¸ ± 626881
Ġclos er 626717
or gan 626687
Ġadv ance 626536
Ġloc ations 626385
u v 626308
ĠS ize 626293
Ġv el 626182
ĠH y 626007
Ġ0 7 625961
n ia 625892
ĠGu ide 625877
id os 625767
if est 625580
es se 625383
Ġregul ations 625382
Ġany where 625266
Ġch ain 625137
Ġfl o 625120
u w 625090
Ġ6 4 625048
AQ AB 624869
f all 624718
ĠE ll 624716
ĠDan iel 624660
l ong 624659
og ue 624635
ĠGu ard 624491
Ġest Ã¡ 624448
Ġg el 624332
iam o 624059
Ġrelig ion 623967
ĠL earn 623888
ĠF ox 623537
Ġch annel 623429
Ġĉ ĠĊ 623389
Ġdes ire 623359
F in 623053
AR T 623026
ĠC P 622981
Ġ iz 622938
U E 622659
t witter 622617
Ġfig ures 622586
lGODlh AQAB 622371
D ownload 622012
ĠKing dom 621865
og y 621605
ition ally 621269
Ġa id 621214
ad el 621193
Ġdist rict 621137
b u 621001
Ġle aves 620821
ĠR est 620693
Ġtre ated 620611
i Ã¨re 620568
Ġe gg 620507
ĠH om 620494
Ġz ero 620378
Ġhouse hold 620358
if ts 620039
Ġw arrant 619892
ĠPro du 619779
u an 619654
all a 619430
Ġf ell 619370
C ar 619087
ock ed 618962
b ec 618961
Ġdif f 618897
ĠCon f 618869
ĠM as 618858
Ġbel ong 618779
Ġfix ed 618681
Ġg am 618667
Ġs ter 618649
ĠC reat 618514
Ġ3 8 618508
ĠE ff 618502
Ġsh ares 618366
ic ian 618240
Ġ Å 618024
Ġgreat est 617963
Ġn ost 617960
V erse 617681
ci ence 617598
ĠT ake 617590
ĠM ic 617576
Ġst ret 617544
Ä ĵ 617505
re ement 617265
ĠU ser 617172
Ġcho ices 617065
Ġas sem 616878
Ġproper ly 616854
Ġend s 616810
Ġc aught 616761
M in 616660
Ġa uss 616571
×Ļ × 616546
" >< 616436
Ġm ol 616410
ind a 616153
Ġt i 616076
Ġk m 615796
li ament 615605
anc er 615290
: " 615197
Ġprom pt 615063
Ġe ating 614892
Ġren cont 614725
he im 614647
Ġreal ize 614433
Ġ _ 614287
rodu ction 613984
P G 613692
ĠSecret ary 613650
Ġ q 613296
Ġteach ers 613234
Acc ording 613137
ph oto 613122
Ġs itting 613096
Ġstand ing 612703
Ġconf idence 612699
af e 612684
ert s 612390
N G 612203
Ñ ĸ 612176
c am 612168
Ġh ur 612138
oc o 612104
Ġtal ks 612049
ĠPol ice 612037
hem at 611995
ect ive 611748
ay a 611658
Ġa i 611559
Ġvers ions 611546
Ġs v 611355
ĠS ky 611343
ap i 611230
Ġf illed 611091
!! ! 610976
ĠB oth 610950
R S 610656
Ġwin ter 610314
ger y 610257
Ġtot ally 610163
Ġacc ident 610084
G r 610039
ch i 609815
het ic 609716
C ross 609627
ĠD ate 609549
Ġdef e 609287
ĠÐ ° 609250
Ġz one 608982
ĠU k 608951
Ġsp r 608864
Ġd ivid 608678
n ail 608638
ĠP ok 608567
ĠCh arl 608496
ĠS ar 608427
( " 608390
Ġacc ompl 608381
O G 608379
ĠP enn 608360
Ġth r 608355
Ġnumer ous 608326
le m 608321
Ġlarg ely 607742
200 8 607683
ĠWill iams 607277
V al 607192
Ġvol unte 607150
Ġhy d 607043
Ġposs ib 606820
le ts 606721
ĠM S 606656
Ġshoot ing 606568
Ġtrans ition 606553
ab a 606427
Ġmin ister 606321
Ðµ Ð¼ 606288
Ġauthor ities 606210
Ġev ol 606029
Ġb anks 606011
if er 605994
Ġmur der 605959
Ġse at 605958
umbl r 605818
Ġrepl ace 605674
blog spot 605622
Ġdep ending 605578
Ġaut hent 605499
ell i 605336
ĠD eb 605300
Ġing red 605238
Ġfil ter 604935
ÑĨ Ð¸ 604792
er r 604730
ĠR oman 604659
Ñģ Ñı 604596
av id 604468
à¸ ¡ 604461
IS T 604404
ãĤ ĭ 604282
. ' 604131
Ġv ary 604037
Î ¼ 604001
ĠUn ivers 603932
F orm 603901
Ġs ides 603692
st ra 603690
in ations 603589
Ġcomm ittee 603540
ic os 603538
Ġâ ĸ 603422
ri x 603037
ĠÙ ħ 603021
ut ch 603010
Ġlegisl ation 602965
ĠAnd rew 602962
Ġemploy ee 602949
ãģ ¦ 602530
Ġse u 602370
New s 602152
at iv 602114
Ġhistor ical 601928
Ġconsist ent 601692
en z 601592
AAAA ACH 601590
lGODlhAQAB AAAAACH 601585
Ġbe ar 601534
Ġbehav i 601532
Ġprov ider 601504
Ġdep art 601272
ĠO s 601184
Ġaspect s 601176
Ġ4 2 600932
p y 600704
ĠM ov 600695
S te 600579
p in 600471
ly mp 600322
ĠM aster 600321
Ġr app 600290
Ġeven ing 600252
Ġrel ative 600214
á» ĩ 600187
Ġst opped 600042
Ġcy cle 600028
Ġsu it 599997
ĠL ic 599988
Ġyou th 599970
angu ages 599937
Ġindust rial 599735
Ġve get 599675
d b 599415
Ġ ~ 599337
ut ral 599179
ĠE T 599132
Ġ0 2 599105
ĠW ars 599076
od ing 599040
Ġpos itions 598992
p ower 598962
ĠS S 598921
Ġkt Ã³ 598639
Ġreason able 598633
ĠHe ad 598621
Ġcon clud 598597
v ard 598483
ĠF ort 598397
ĠAustral ian 598329
Ġ Å¡ 598229
Ġn arr 597990
ãģ Ļ 597683
âĢĻ . 597492
Ġimpro ved 597377
ĠG re 597156
Ġar rest 597100
Ġdefin ition 597091
Ġmed ium 597023
ri ver 597019
Ø © 596870
Ġhard ware 596712
ir ation 596562
Ġencour age 596367
Ġacad emic 596039
Ġrem ote 596021
ĠL LC 595952
Ġint ent 595911
ĠJew ish 595796
ing en 595713
Q L 595642
Ġb in 595461
ĠMay be 595445
ĠP ot 595419
áº £ 595304
ud a 595146
Ġwalk ing 595101
ĠJ er 594917
Ġ5 5 594750
W eb 594727
Ġ19 90 594716
Ã ® 594455
Ġp itch 594373
Ġfa ire 594372
Ġv it 594356
ĠW alk 594318
ĠP od 594186
Ġj ur 594068
i est 593828
ĠPh ys 593591
de v 593492
Ġmark ed 593453
Ġext ent 593432
ix el 593415
Ġpot entially 593405
uc ks 593250
P DF 593195
Ġneighbor hood 593133
E A 593111
im ents 593012
Ġet h 592953
Ġ1 000 592916
ig o 592890
part y 592864
r ate 592762
p erson 592738
is ters 592486
Ġf if 592427
Ġhe ll 592409
Ġprom ote 592358
Ġ0 6 592281
Ġtop ics 592257
qu er 592026
ĠH ave 591962
! ) 591858
ĠH ard 591574
includ ing 591558
ob ody 591444
Ġclin ical 591321
l en 591317
Ġfour th 591263
ok ing 590970
ĠArt icle 590952
h us 590028
ĠU r 590025
v ia 589944
" ) 589806
Ġgl i 589740
D ata 589702
Ġposs ibility 589685
z n 589560
Ġphot ograph 589523
ĠU t 589327
r ical 589161
Ġprot est 589002
ent er 588993
s a 588968
Ġaccept ed 588898
ĠPr ime 588786
Ġpro ve 588784
ĠÐ ³ 588758
Ġal cohol 588748
Ġpl astic 588689
ĠCh ief 588601
ĠR od 588576
ĠG ra 588512
ãģ ¨ 588499
S er 588457
Ġ ĉĉĉĊ 588322
os ite 588306
ĠKe y 588213
ur i 588176
Ġconduct ed 588155
à ° 587964
Ġass ets 587638
M ark 587627
å ¹ 587577
Ġt a 587538
Ġestim ated 587363
Ġtrad em 587347
Ġsubst ant 587245
Ġcon vert 587192
ĠD isc 587171
A ss 587099
ĠC ath 586793
ur ers 586626
p ack 586577
s i 586453
Ġs ick 586374
Ġr ing 586294
Ġsub mit 586229
ĠCo ast 586164
Ġ iron 586075
Ġn h 585984
el come 585976
Ġde als 585870
Ġlik ed 585867
Ġans wers 585778
R I 585745
Ġeffect ively 585735
Ġobl ig 585388
Ġprofess or 585259
Ġinc ident 585255
Ġclaim ed 585181
s ing 584883
Ġnew sp 584863
Ġ8 00 584589
Ġrepe ated 584443
gh an 584398
=" "> 584292
Ġpro d 584213
p an 583866
ĠØ ¨ 583866
ed ing 583815
ĠCh o 583584
el n 583580
Ġ6 5 583573
ly n 583324
ĠK l 583318
ly wood 583244
is o 583239
Ġrel ax 583172
Ð¾Ð ± 583104
L A 583068
Ġhigh light 582953
Ġun able 582762
Ġalg orith 582547
on i 582539
Ġemot ional 582196
Ġrecomm ended 582145
ester day 582119
N S 581902
ail ability 581874
ĠD ar 581684
ĠB oston 581655
ul ing 581411
Ġwe aring 581399
ond a 581357
as tern 580837
Ġsurpr ise 580742
ir al 580625
Ġlic ens 580607
g ener 580514
Ġ19 99 580502
Ġrout e 580243
Ġr ig 580128
ãĤ Ĵ 580111
is en 580012
ar ante 579907
t ra 579894
Ġdisc rim 579737
we ight 579718
ĠG irl 579616
ĠN ight 579607
p arent 579527
ow nt 579430
ren ce 579272
ens ity 579194
Ġs now 579187
Ġcatalog ue 579147
B ack 578977
Ġpl anned 578568
Ġal ign 578551
Ġt rib 578460
Ġqu iet 578408
Ð¾ Ð½ 577966
Ġgu est 577670
âĢĻ , 577570
ĠS n 577515
Ġsqu are 577440
Ġconsider ing 577406
Ġrem aining 577188
Ġvot es 577185
ÅĤ o 577098
Ġbatter y 577064
cl aim 576425
Ġ0 4 576330
Ġilleg al 576275
is i 576213
Ġm u 576146
Ġprofession als 575938
ĠN E 575880
Ġcan c 575867
ann er 575838
ĠCon ference 575833
omm od 575710
ĠF ar 575633
Ġpercent age 575552
Ġincre ases 575520
Ġn atur 575350
Ġwid ely 575320
Ġb ath 575182
ĠK ong 575070
Ġz o 575064
Ġres olution 575013
ĠK now 575004
Ġc m 574999
Ġt aste 574835
Ġexpress ed 574825
Ġco ast 574633
Ġris ks 574620
F ree 574587
v or 574414
ĠL td 574363
Ġkind s 574224
P al 573878
r t 573857
Ġt one 573542
+ !![] 573516
re a 573430
Ġsy nt 573297
ÑĢ Ñĥ 573283
ec ess 573209
Ġh ers 573200
Ġte acher 573128
ĠÃª tre 573029
Ġp ued 572981
ĠÐ½ Ðµ 572809
em on 572801
form ance 572795
ra ine 572501
ect or 572483
i ar 572448
h ome 572435
Ġlos ing 572390
Ġag ents 572362
ĠSte ve 572135
Ãªn cia 572129
I d 572095
Ġfr ag 572078
Ġm outh 571859
Ġappear ance 571530
Ġcontro vers 571505
P ol 571442
R et 571261
ĠB on 571203
w ill 570878
p ool 570811
hens ive 570693
ĠGe orgia 570691
Ġp hen 570672
ĠZe aland 570648
Ġfac ility 570502
Ġent ered 570439
and e 570212
Ġinvest ors 570163
Ġdom estic 570109
E ng 569942
Ã ī 569916
Ġhab it 569899
ĠD om 569891
Ġfore st 569764
Ġr ating 569700
Ġm erc 569684
Ġtrou ble 569683
Ġcar ried 569600
ĠBe ach 569558
h as 569509
s z 569421
Ġm m 569331
W ill 569178
Ġsong s 569164
Ġcent re 569144
Ġe u 569139
Ġelect ronic 569005
in et 568727
Ġlog o 568643
ro ph 568541
ĠWord Press 568532
ĠI reland 568442
Ġc z 568412
ad en 568410
ĠI II 568097
ov id 567934
Ġpattern s 567924
f i 567802
ĠSup reme 567758
Ġcol ors 567749
Ġbe er 567615
ĠC ru 567574
ĠBrit ain 567310
Ġnav ig 567097
Ġrec overy 567020
à § 567012
B D 566982
ient o 566964
Ġr ic 566702
Ġpost ing 566673
Ġexc iting 566584
for ce 566540
Ġarriv ed 566441
Ġorigin ally 566392
Ġb are 566219
ĠL as 566210
T ime 566162
ur ning 566100
ĠÃ ¡ 566061
bre ak 566015
Ã© ri 565951
ĠAn other 565883
Ġt we 565621
ĠYou ng 565520
H A 565408
æ Ĺ 565394
st ruct 565376
Ġpubl ish 565338
Ġimplement ation 565240
Ġw itness 565043
Ġ Ñĩ 565039
ay lor 564951
ĠTr ust 564835
id as 564795
ĠFor ce 564695
ock ing 564621
Ġfav our 564513
ĠF eb 564495
Ġev olution 564371
ĠC ore 564367
U D 564336
ure n 564329
Ġw ine 564290
å Ń 564121
Ġstat ements 564060
Ġult imately 563872
Ð» Ñı 563830
I O 563673
Ġweap ons 563673
orm al 563635
Ġdeath s 563534
ĠA ward 563394
ĠB ox 563384
ient e 563181
Ġwor den 563140
Ġ1 20 563118
Ġext ract 563084
Ġsur ve 562962
at re 562917
ĠP ak 562858
Ġincreasing ly 562832
ĠL abor 562756
ĠÐ· Ð° 562732
Ġh urt 562695
Ġown ed 562657
Ġcan n 562580
ĠCh ampions 562530
Ġa z 562487
Ġhas n 562468
Ġph ase 562302
Ġdi verse 562147
ĠS earch 562115
ell s 562063
Ġun ion 561889
Ġopp on 561847
ĠCent re 561832
Ġrecord ed 561696
Ġsk y 561670
1 10 561429
ri ble 561426
Ġemploy ment 561277
Ġcap able 561092
g el 560930
Ġtal ent 560831
ĠSystem s 560734
ĠF all 560697
ĠR ub 560679
Ġt ack 560386
Ã¤ ng 560343
Ġt ail 560297
ast a 560279
N ote 560156
Ġw enn 560010
ĠR yan 559899
Ġn ou 559729
orn o 559488
an ing 559423
id i 559332
ĠIm age 559237
Ġinvol ve 559237
Ġem pty 558941
Ġon going 558851
ud o 558771
Ġequ ival 558752
Ġcompon ent 558542
ĠF un 558467
pre ne 558455
und o 558326
Ġsign al 558137
ĠOr ig 558068
Ġprof it 558046
ĠN AS 557824
Ġbelie ves 557749
ĠB all 557744
Ġgener ated 557561
ĠE ric 557555
Ġpre gn 557519
ĠT ax 557500
t hen 557420
ĠT able 557404
ĠW ik 557319
Ġincor por 557212
C ons 557167
Ġacc ord 557155
F A 557090
ĠN umber 557082
ĠItal y 556965
Ġrec ipe 556918
Ġvict ory 556881
m iss 556796
ĠJack son 556761
OR E 556384
w ick 556342
ĠO S 556328
ĠdÃ© c 556023
Ch rist 555914
B est 555860
ĠI raq 555859
Th anks 555852
M et 555375
Ġfab ric 554955
Ġpro hib 554837
O UR 554830
Ġcomp ens 554760
m at 554718
Ġus age 554646
S ince 554558
ou ston 554472
ib t 554402
Ġgu arantee 554372
Ġob tain 554306
Ġprote in 554194
Ġt ill 554159
Ð´ Ð° 554137
ort e 554067
R C 554039
Ġnecess arily 553946
eg en 553925
ĠCom put 553919
à¹Ģ à¸ 553891
Ġsp oke 553820
d am 553773
ra it 553711
ĠU lt 553654
ĠP oint 553600
Ġrec over 553574
S ub 553463
% . 553430
in ch 553227
Ġav atar 553172
c ore 553048
Ġpr ison 553044
Ġworld wide 553038
ij d 552784
ĠA uf 552700
Ġem phas 552643
co very 552584
Ġnews letter 552405
Ġrel iable 552376
Ġ< / 552359
tr ans 552353
Ġst orm 552351
ĠKe ep 552220
ic ity 552215
ap es 552196
s ites 552160
ĠCol umb 551834
E ven 551737
Ġengine ering 551709
oun sel 551648
Ġ4 9 551621
ĠK en 551613
so le 551607
M r 551597
Ġfor th 551427
ole c 551418
Â · 551391
if ies 551243
] ] 551142
Ġik ke 551013
Ġme at 550961
Cl ass 550936
ang ers 550909
p ay 550873
Th ank 550854
Ġb urn 550764
Ġpro ceed 550726
c s 550686
Ġg er 550505
Ġexclus ive 550418
W orld 550292
ĠChar les 550284
ĠCont inue 550106
Ġbeg ins 550079
uit o 549986
Ġfact s 549868
Ġind eed 549794
Ġstud io 549777
Ġexpl an 549590
Ġperson ally 549578
ain ts 549546
ag ged 549532
ac i 549522
Ġcl ar 549489
end ment 549382
ocol ate 549332
ad ium 549275
I l 549231
ĠD am 549213
med ium 549050
ĠM iddle 549049
et ime 548961
B L 548924
w orth 548896
br idge 548700
æ Ī 548611
Ġpod cast 548564
st atic 548512
H P 548495
b oy 548149
ãģ Ł 548136
aw ay 548132
Ġk h 548074
re te 547970
Ġmass age 547882
m b 547766
Ġsu gar 547614
Ġplatform s 547507
ĠW H 547408
d it 547395
Ġreg ional 547307
Ġre ward 547154
ĠB efore 547149
ĠSt an 547091
Ġp ag 546965
ĠG er 546896
c u 546695
Ġdri vers 546588
Ġn em 546505
Ġaw esome 546250
Ġco oper 546157
Ġcr im 546156
Ġtre es 546102
Â « 546011
7 00 545797
ĠM A 545770
ĠC S 545716
ĠC redit 545256
æ ĺ 545227
ellect ual 545205
Ġext ended 545173
Ġ3 9 544764
Wh ere 544665
Ġobs erved 544563
ĠRe qu 544532
ĠL A 544463
Ġcommit ment 544412
ãģ ¯ 544290
ĠAcad emy 544174
id ance 544159
Ġgu idelines 543763
Ġm ul 543723
we i 543594
Ġur ban 543471
Ġs ed 543160
Ġalleg ed 543050
ĠM obile 542952
ap ed 542862
ãģ ª 542855
Ġne uro 542764
Ġmom ents 542749
Ġp ens 542565
omm en 542484
S outh 542430
Ġbeaut y 542426
epend ent 542312
Ø ³ 542269
ire ment 542243
al y 542129
f unction 542108
er k 542055
ĠA bs 542048
Ġfind ings 542036
Ġterm in 541767
Ġcrow d 541703
Ġcharg ed 541603
Ġg rew 541552
Ġco ordin 541464
g reg 541367
G ener 541329
Ġfrequ ently 541298
fl ow 541062
L es 541051
Cont act 540839
ip edia 540635
ĠAg ain 540596
Ġdies e 540495
Ġmar ried 540167
Ġsubs cri 540146
ru ption 539632
Ġstrateg ies 539567
Ġt or 539494
" ; 539428
Ġparticip ate 539360
Ġrep resents 539254
Ġfac ing 539173
ĠC ivil 539151
iz ar 539148
Ġexpl ains 539143
200 7 539140
Ġregist ration 538761
c ase 538754
Ġill ustr 538555
ĠM ain 538255
il ly 538187
S im 538048
Ġj un 538027
ateg ories 537918
Ġre volution 537773
ĠF air 537728
Ġlo ans 537555
Ġre act 537539
Ġspec ified 537473
Ġocc asion 537301
Wh o 537261
em porary 537147
Ġcommun ications 537068
ĠSou thern 537016
Ġsm ooth 536711
Ġtr ab 536609
Ġenfor cement 536531
ĠP RO 536519
Ġt weet 536328
h ot 536297
Ġst ored 536288
Ġus ual 536272
Ġprot ocol 536097
ĠS ection 536007
á» Ļ 535939
Ġfil ed 535878
M D 535692
Ġhol iday 535612
Ġval uable 535574
Ġb odies 535437
au g 535268
Ġc in 535224
Ġinstall ed 535053
Ġemail s 534976
Ġi OS 534844
Ġserv ing 534805
n Ã© 534618
ĠP a 534310
Ġm ask 534285
Ġapprox imately 534225
Ġdep th 534133
ow ie 533751
C al 533710
Ġinsp ired 533696
aj Äħ 533624
ĠS us 533622
Ġf asc 533451
ĠL ine 533396
A g 533379
j en 533121
Ġrestrict ions 533086
p ublic 533004
ĠM ill 532998
Ġgener ate 532985
ĠT R 532917
ĠB ush 532815
Ġu pload 532771
ĠA pr 532750
Ġprogram ming 532734
ĠAr my 532712
Ġhold s 532686
h ren 532666
ĠD ark 532632
Ġs ans 532448
ific ate 532288
ĠDis ney 532282
dis play 532265
Ġb att 532249
ĠP rom 532093
u je 532092
Ġle ur 532054
iju ana 531962
Ġacc omp 531950
Ġf i 531916
ĠSt ore 531805
Ġdescri be 531714
Ġver d 531655
P N 531630
ut ers 531586
no on 531572
Ġcomp at 531470
hr er 531434
Ġon der 531252
. - 531215
Ġrec on 531213
Ġmor al 531129
Ġ4 4 531007
P C 530953
Ġm ad 530882
Ġsub sequ 530792
ĠMich igan 530697
ah ren 530581
ur b 530467
e y 530383
. [ 530336
Ġ ÏĦ 530299
Ġpublic ation 530222
Ġtas ks 530119
Ġpre v 529922
Ġeduc ational 529822
Ġmag azine 529767
ic ide 529713
âĢĶâĢĶ âĢĶâĢĶ 529485
er as 529443
Ġsc r 529399
Ġfriend ly 529389
En ter 529249
Ġserious ly 529168
Ġk ing 529001
B el 528819
in ent 528797
Ġgr ab 528794
Ġk il 528735
ĠK enn 528660
ĠO K 528573
Î ¬ 528393
Ġn g 528387
Ġjud ge 528352
ah a 528351
an Ã§ 528276
ir ts 528216
Ġr ub 527977
ik es 527896
an es 527680
§ a 527529
Ġpract ical 527467
le ments 527459
Ġb ru 527359
Ġprem ium 527344
Ġs Ã© 527255
Ġc el 527233
ĠBit coin 527125
Ġsch rij 526958
n one 526956
re nd 526856
Ġass ume 526691
Ġa le 526643
in fo 526589
Ġpro of 526566
7 68 526323
è ¿ 526314
Ġn ative 526252
ul ous 526127
Ġdiscuss ed 526089
ĠP ut 526065
ud es 525905
Ġdies er 525807
Ġst one 525722
be z 525686
Ġappreci ate 525660
ar ry 525570
b ra 525490
e xt 525432
ĠPal est 525325
Ġtur ning 525283
Ġar ms 525259
Ġsu c 525216
Ġ2 50 525182
Ġag gress 525175
â Ħ 525163
ĠÃ ¶ 525094
. ; 525025
n ament 524740
Ġexp osure 524697
Ġpropos al 524566
ĠG ro 524524
igr ants 524267
ĠBro ok 524225
em p 524131
ak i 524040
à¸ µ 523943
ple te 523884
ĠK im 523801
ĠD S 523717
le ft 523702
Ġcompar ison 523630
ĠA ction 523424
M any 523360
Ġconst ant 523314
n ov 523275
Ġfol ks 523101
Ġexpl o 522941
Ø ¨ 522910
Ð» Ðµ 522868
Ġstre ets 522688
ĠJ ersey 522658
aud i 522647
Ġpurch ased 522616
S ource 522438
Ġobt ained 522415
aw s 522300
on ia 522265
ĠB al 522029
ĠEn vironment 521971
ĠAg reement 521956
ĠF urther 521942
b n 521867
R em 521851
Ġ- > 521781
Ġmot ion 521737
ĠH arr 521715
he it 521587
Ġknow ing 521563
Ġresult ing 521384
Ġrequest ed 521273
Ġpe ut 521201
ĠY et 521111
ĠT w 521027
room s 520974
Ġch osen 520707
ĠI de 520677
ĠU m 520507
Ġquest o 520333
ĠJava Script 520150
Ġcompet itive 519995
r Ã© 519616
ĠB ob 519560
N et 519465
Ġbas ically 519387
Ġs oll 519360
T hen 519334
olog ist 518998
È Ľ 518931
Ġstand s 518839
Ġb oot 518749
Ġj oy 518733
Ġs ending 518718
Ġ4 3 518619
Ġis land 518460
Ġgovern ments 518172
ĠC a 518027
c as 517949
ĠB BC 517744
Ġcontin uing 517678
Ġf u 517638
ic er 517609
Ġport ion 517558
Ġ199 8 517494
Ġvot ing 517378
Ä± n 517172
ann y 517106
d z 517056
def ault 516925
Ġmov es 516900
Ġmag n 516786
An other 516735
qu ality 516589
Ġprom ise 516550
D R 516494
ĠS C 516447
ĠÂ § 516333
oc a 516260
ĠS ource 516259
ĠR on 516180
ĠÐ¿ ÑĢ 516172
an h 516080
Ġpr zy 516057
Ġmembers hip 515959
Ġconserv ative 515796
ĠC irc 515645
Ġmach ines 515571
em ail 515206
he ight 515140
Ġreg ions 515123
ĠB a 515095
ass en 514999
ĠSpr ing 514963
Ġcateg ories 514939
Che ck 514879
ent i 514733
Ġc es 514696
m itt 514691
Ġacc ommod 514665
Ġappro val 514650
et ary 514638
ĠO lymp 514637
Ġb ike 514531
Ġenc ounter 514511
ĠD ies 514478
St ar 514301
B M 514205
ĠE ss 514195
ure au 514132
Ġbuild ings 514115
Ã¡ c 514104
Ġregular ly 514035
isc al 513883
Ġcom un 513834
Ġass ign 513596
Ġelect ions 513579
D ef 513572
ĠR oyal 513210
ĠE th 513174
Ġleg it 513084
Ġdist inct 513039
ĠF our 512855
un ter 512845
Ġtr igger 512730
ess a 512677
ĠLin ux 512452
Ġpr Ã© 512338
Ġch ose 512307
Ġcrim inal 512272
ot te 512026
ol is 511939
T E 511878
Ġpl ate 511804
F P 511753
Ġgro wn 511747
Ġinv ent 511646
ov o 511619
Ġdes c 511601
ĠHel p 511598
ac hel 511538
ĠT ri 511490
ber ry 511298
Ġl ux 511295
ĠAss ist 511218
Ġmiss ed 511149
Ġher o 511062
S aint 510997
ut ing 510917
Ġcut s 510904
ĠD O 510880
Ġopp osition 510746
Ġtherap y 510582
ĠMan ager 510543
om o 510467
Ġna ar 510351
Ġth ick 510272
ĠC R 510206
Ġanc ient 510191
L ook 510107
Ġstrugg le 509961
on ial 509882
riz ona 509834
! " 509808
or se 509796
ult y 509747
Ġtrack ing 509734
em os 509650
D C 509603
b in 509601
st ood 509454
Ġlim its 509330
Å¼ y 509317
c rop 509164
ĠDet ails 509047
f ortunately 509044
Ġl at 508951
ĠFil m 508853
Ġext ension 508714
l ights 508637
Ġhers elf 508493
Ġdro pped 508472
St ep 508375
ĠA I 508371
Ġfundament al 508207
Ġst rict 508177
Ġredu ction 508138
pro fit 508075
kt op 507883
Ġadd s 507609
ĠMach ine 507557
Ġd ance 507525
ĠBook s 507515
Ġext reme 507418
Ðµ Ñģ 507402
ĠS ep 507352
l s 507305
G E 507123
Ġg onna 507058
Î ¯ 506844
Ġcour ses 506817
Ġw al 506789
st art 506676
On ce 506588
Ġsitu ations 506508
Ġent r 506500
Ġbe z 506458
ĠRad io 506439
ĠTor onto 506247
se ason 506220
ĠM id 506158
ãģ ¾ 505957
N L 505824
Ġlay er 505720
Ð² Ð¸ 505714
ĠAg ency 505703
Ġman uel 505636
c r 505623
ith ub 505541
l ia 505474
Ġrefer red 505438
Ġs ig 505248
l ig 505196
ĠW as 505139
Ġshould n 505112
Ġf ut 504984
Ġres erved 504809
Ġsk ill 504802
Ġmin i 504676
Ġcra zy 504612
ĠJ ac 504541
Ġac id 504506
ĠC y 504434
Ġf urn 504383
10 24 504321
ĠCon nect 504284
ich er 504266
p df 504187
C or 504099
ĠHT ML 504097
Ġdesign s 503881
Ġ19 80 503768
Ġrecogn ize 503712
Ġex cess 503698
st one 503674
it em 503577
clus ive 503503
Ġsu fficient 503461
ĠR am 503337
Ġread er 503280
ĠOh io 503263
ĠJ r 503262
Med ia 503229
Ġfe at 503099
ĠF act 502996
riv ate 502975
ĠT own 502864
Ġw ave 502624
Ġex ists 502593
ix ed 502588
ĠB es 502582
V er 502415
mon th 502367
j ud 502359
Ġbus y 502037
Ġf ont 502020
Ġpass ing 501991
Ð¾Ð³ Ð¾ 501878
ĠS at 501728
Ġfac ilit 501633
Ġinf l 501471
Ġm Ãªme 501450
Ġcont est 501405
ĠN ut 501270
ĠProfess or 501116
Ġpr inciples 501086
Ġpro spect 501072
Ġsurpr ising 501065
Ġcan cel 500933
P ort 500849
ect ions 500790
Ġhealth care 500681
"/ > 500601
ps on 500507
Ġt iny 500454
et z 500225
b p 500204
b ie 500066
Ġro ot 499934
ail ed 499921
h ire 499877
ĠP en 499774
à¯ į 499759
ĠD NA 499744
re p 499632
Ġfew er 499600
Ġbr ands 499546
Ġgu arante 499526
if orm 499401
ĠR en 499377
å ° 499300
Ġwrit ers 499288
i ot 499165
ĠSp anish 499122
Ġl ens 499021
Ġup coming 499004
ÃŃ s 498933
Resp onder 498831
ĠSc ot 498747
ĠSe a 498583
sh are 498563
az e 498562
ĠChild ren 498548
Ñ Ħ 498371
v as 498303
ab el 498129
he w 497930
c ard 497884
K E 497670
Ph oto 497565
Ġcont ained 497525
Ġfin ance 497289
Ġauss i 497268
og rap 497254
% , 497240
ur d 497083
ze it 497065
w hel 496985
ĠEx p 496960
Ġkeep s 496942
ĠE X 496931
Ġg eb 496890
Ġenjoy ed 496845
ĠCons erv 496773
l ast 496742
D et 496562
Ġexist ence 496202
ĠUs ing 496159
Ã§ o 496156
d d 496141
Ġin ner 496057
ĠB ul 496055
Ġprep are 495947
Ġoccur red 495937
Ġ Å¼e 495911
Ð¾Ð² Ð° 495789
app ed 495595
ĠAr ts 495584
Ġadv is 495484
ĠColor ado 495391
an ne 495276
Ġfeature d 495196
Ġfl ood 495182
ÃŃ n 495138
ad i 495134
sc reen 494929
ĠB ra 494901
Ġeng age 494690
k k 494534
Ne xt 494530
ĠSe ason 494471
c al 494391
r un 494333
Ġimmedi ate 494320
ap ore 494317
å Ľ 494253
Ġn ull 494218
od a 494206
R ed 494197
Ġre action 494155
Ġ ÑĤ 493916
ĠE gypt 493911
Ġro z 493893
it als 493321
Ġre in 493181
Ġb oss 493049
ĠPac ific 492925
Ġspok es 492866
Ġag ric 492850
f en 492761
ar ian 492742
Ġconst antly 492653
Ġref und 492569
ĠSand ers 492481
Ġem bed 492351
M O 492233
An onymous 491999
ĠB razil 491930
Ġelig ible 491889
int s 491756
Ġmed icine 491175
f re 491060
Ġer rors 490827
Ġconsequ ences 490752
A c 490567
ĠCorpor ation 490487
ĠHot el 490449
ru ck 490413
ent es 490351
Ġobvious ly 490278
N E 490273
i ences 490205
Ġmanufact uring 490108
Al so 489964
o en 489880
ĠCol lect 489866
y es 489837
Ġ( $ 489821
ins on 489799
Ġsu ite 489727
v et 489713
S earch 489514
ort ion 489466
ĠSt ock 489438
Ġl anguages 489383
Don ald 489273
Ġs ke 489232
Ġmeet ings 489154
un icip 489138
Ġclos ely 489040
ĠT al 489024
ĠW orks 488965
ĠP L 488817
iam i 488718
ãģ Į 488695
che ck 488627
Ġaccess ible 488572
Ġpow ers 488536
ĠN O 488287
ĠAdminist ration 488186
Ġco vers 487966
Tr ump 487919
Ġele v 487914
Ġdin ner 487891
Ġperfect ly 487633
im port 487554
or er 487524
ri ff 487497
ĠÃ® n 487405
ub a 487348
Ġph arm 487108
ari os 486985
erm al 486946
ack ed 486909
ĠB ase 486754
Ġg arden 486665
ÃŁ en 486648
Ġh idden 486616
Ġtyp ical 486594
Ġh all 486581
Ġb ol 486479
ÃŃ m 486462
om y 486460
Ġat mos 486407
d ec 486365
ĠÃ©t Ã© 486355
ĠStand ard 486231
Ġspl it 486084
âĢ¦ . 486029
h u 486016
Ġsched uled 485927
Ġne ither 485836
Ġa in 485785
ĠBr and 485723
ĠFin ancial 485602
Ġdisapp oint 485560
Ġs ab 485321
P ad 485180
ĠRe f 485165
Ġv om 485141
Ã¨ me 485125
Ġcons cious 484879
s he 484863
ĠA u 484835
Se lect 484802
ĠB row 484787
Ġoper ate 484777
Ġl augh 484626
Ġw edding 484570
Ġresist ance 484365
Ġg ut 484337
ac o 484328
Ġin her 484274
Ġdog s 484266
Ġsh it 484256
Ġlet ters 483997
Ã¤ Ã¤ 483714
Ġsuccess fully 483660
Ð¼ Ð¸ 483536
1 000 483535
ĠM ir 483383
h av 483333
Ġg rav 483298
Ġt ent 483069
H z 482929
Ġbroad cast 482811
Q U 482695
w ort 482688
Ġcut ting 482630
ro it 482628
Ġcontrol s 482579
Ġafter noon 482416
Ġw et 482186
ich ael 482096
ĠF ord 482047
Ġhon or 482045
Ġunc ertain 481888
Ġle tt 481833
he id 481713
ĠH et 481680
ie k 481267
it et 481232
Ġun iverse 481048
Ġdeal ing 480796
O ff 480723
Ġcre w 480646
Ġfair ly 480633
È Ļ 480576
Ġ( âĢľ 480512
Ġh al 480394
Ġe ar 480376
Ġpro c 480367
per ty 480331
Ġstri ke 480137
f oot 480126
Ġtechn ique 480070
Ġappe al 479873
Ġfra ud 479863
ĠT ech 479855
ne h 479719
200 6 479601
Ġl ists 479553
ĠL ew 479518
Ġl ang 479482
Ġf oi 479476
Ġor ient 479257
Ġrep ut 479249
âĦ ¢ 479214
Ġy ang 479176
il ton 479084
Ġwer en 479068
Ġcontrib ute 478876
ĠF oot 478856
ik ely 478846
se y 478711
Ġill ness 478651
og ether 478629
l os 478609
D avid 478598
V D 478536
s ource 478461
S et 478457
Ġrespons es 478434
Ġfeel ings 478405
und en 478103
ĠC art 478097
e ft 478012
reg on 477975
es a 477914
st al 477636
D ate 477549
Ġdec or 477478
Ġexp osed 477439
d el 477357
Ġproced ures 477228
Ġl ui 477194
ĠE vent 477089
Bl ack 477058
ĠIn f 477052
ist ent 476925
ric ht 476865
áº ¥ 476688
yl v 476686
Ġlog in 476656
ess ed 476519
Ġhe b 476447
Ġtr ick 476431
d em 476409
Ġcompre hensive 476261
Ġcre am 476227
ĠR oll 476175
A re 476100
ast s 476046
Ġcamp us 475909
ĠF ield 475886
ot ten 475766
Ġrel ief 475760
Ġmod ule 475612
12 5 475456
á» ĳ 475329
Ġincred ible 475329
Ġgi ant 475297
Ġcontrib ution 475282
ĠS anta 475278
Ġf ruit 475261
Ġ5 2 475212
Ġess ere 475123
Ġma ar 475100
Ġf ond 475023
ĠL ittle 475021
amp ion 474852
Ġbl ow 474836
Ġu pper 474817
ĠAs ian 474718
Ġem br 474689
ĠH o 474656
Ġsol ve 474492
Ġv ital 474431
Ġcry pt 474377
Ġpr Ã©s 474278
Ġrem ark 474235
Ġassess ment 474197
c ount 474140
u ous 473829
y o 473809
ann els 473731
Ġch apter 473701
Ġf er 473692
Ġtem por 473661
Pe ople 473636
Ġprincip al 473615
g ment 473572
in te 473475
Ġboy s 473361
Ġdis cipl 473235
Ġexp ansion 473215
Ġcolle agues 473062
Ġsp aces 473054
ĠH ouston 473019
Ġsever e 472927
ĠA G 472908
200 5 472901
art en 472864
ĠCh ange 472824
Ġclean ing 472796
Ġv iel 472708
Ġs ister 472676
il o 472622
ot ton 472533
on ly 472328
Ġsubs cription 472309
Ġbelie f 472012
ÅĽ Äĩ 471976
ĠLink edIn 471684
Ġsu p 471616
Ġpick ed 471591
Ġorder ed 471354
Ġpe u 471255
Ġgrat uit 471126
Ġad min 470826
ãĢ Ĳ 470778
Ġun known 470584
Ġg em 470548
ĠDo es 470512
Ġn am 470471
ER E 470362
ĠE N 470323
thumb nail 470311
ãĤ ¹ 470299
Ù ģ 470240
ĠB ol 470127
Ġnot iced 470127
Ġt ables 470119
ĠPost ed 470012
ĠF estival 469996
Ġfant astic 469980
Ġhy per 469874
ĠB ad 469855
Ġvisit ing 469854
Ġcare fully 469846
ĠAr m 469719
Ġh ide 469714
Ġ9 5 469673
at to 469553
Ġwar ning 469504
Ġper o 469410
Ġpriv ile 469121
et ch 469090
Ġtrad ition 469049
Ġvari able 469035
ab is 468962
Ġcomp rom 468945
Sp ec 468878
ĠAre a 468612
Ġd ates 468540
ink ing 468445
b orn 468408
Ġyoung er 468328
Ġt aught 468246
n ost 468176
. âĢľ 468153
b les 468128
Â © 468121
Ġlog ic 468026
Ġwrit es 467991
Ġl Ãł 467689
Ġbre aking 467623
{ " 467568
ph a 467525
Ġpark ing 467406
Ġamount s 467376
u ated 467367
00 1 467223
F i 467184
f ire 467178
ĠC L 467130
Ġreal ized 467063
Ġl ights 467013
ãĢ ĳ 466982
Ġqu el 466923
Ġt act 466895
Ġsupp orters 466877
Ġd ann 466871
Ġsam ples 466864
Ġde ploy 466715
Ġrestaur ants 466714
Ġinform ed 466689
J e 466641
Ã¢ n 466527
Ġdi am 466522
Ġinstall ation 466432
ĠItal ian 466424
ĠSt one 466291
un ci 466286
ĠL y 466275
Ġbeh alf 466149
ĠS a 466129
Ġelect ed 466087
Ġbas ket 466051
Ġr ail 465811
ĠH ospital 465809
h ist 465654
Ġsur f 465639
Ġa thlet 465558
ĠP i 465461
W E 465432
Ġto do 465097
Ġconsum ption 464866
Ġj ew 464773
ĠPro cess 464758
n is 464716
ch ain 464589
A ct 464587
ep ing 464570
B ar 464411
Ġ199 7 464182
Ġfore ver 463990
is p 463849
ĠProt ection 463831
A ust 463554
Ġdeg rees 463431
ĠSe lect 463375
Ġ4 1 463315
Ġregard less 463200
Ġtrend s 463128
s che 463082
m akers 463020
enn is 462957
f ound 462895
Ġse asons 462840
Ġarg uments 462681
Ġhard er 462530
Ġform al 462481
Ġh an 462362
Ġsurpr ised 462150
Ġant icip 462149
b st 462067
Ġcreat es 462026
Ġsus pect 461958
irc raft 461904
iz on 461628
Pr int 461586
I X 461540
Ġris ing 461449
u ct 461386
Ġla zy 461347
z w 461275
Ï Į 461247
ĠO x 461202
Ġp el 461173
ĠRec ht 461124
un ity 461023
res se 461014
Ġmil k 460989
U se 460929
Ġ4 6 460847
Ġprim arily 460784
ĠAut om 460639
Ġcont aining 460337
uts che 460326
ĠS uch 460290
Ġmix ed 460133
Ġf az 460109
us et 460051
ĠR og 460043
ĠC ou 460042
qu is 460041
Ġindic ate 459882
Ġlik es 459785
Ġph r 459739
Ġle ct 459547
Ġcas o 459501
ĠR ay 459429
ĠSp ain 459342
ĠDe ad 459202
end ers 459140
Ġimm igration 458892
Ġand ere 458679
ĠN BA 458645
id ades 458589
Ġfac es 458506
Ġdoct ors 458458
or ough 458362
ĠDav is 458351
em en 458294
F T 458232
as m 458229
Ġful f 458224
Ġm ont 458026
L earn 457939
Com p 457835
Ġsome what 457707
at u 457641
C N 457532
Ġsur gery 457527
Ġaddress es 457333
Ġ4 7 457228
IT Y 457201
r ition 457107
Ġchalleng ing 457090
Ġb acter 457088
Ġwa ar 457074
re ts 456989
Ġ ÑĢÐ° 456920
F O 456886
Ġpl ane 456853
h y 456833
Ġequival ent 456688
Ã¡ rio 456652
ft en 456637
è ¯ 456521
Ġsal t 456510
å Ĭ 456504
Ġsp in 456432
Ġoff ensive 456307
Ġacc eler 456303
c ie 456274
ĠCook ie 456254
ĠT ar 456203
ĠF riend 456174
ĠM ail 456103
Ġs Ã¥ 456079
Ġk r 456011
Ġmag ic 455921
ĠT urn 455899
ĠP interest 455887
à¸ § 455870
Ġvis ible 455805
pro duct 455795
Ġhand ling 455767
Ġattempt s 455316
ab s 455239
Ġtick et 455224
Ġl ies 455177
Ġinnov ation 455131
Ġcontroll ed 455118
Ġr az 455071
ok ed 454998
ĠG es 454998
Ġun em 454890
Ġd ol 454803
Ġ âĢĻ 454801
ĠS che 454730
Ġpol y 454613
or ic 454436
Ġapparent ly 454414
Ġevery body 454333
A ng 454245
em i 454081
Ġframe work 454079
enn es 453898
Ġgu idance 453878
Ġ9 78 453863
V A 453826
Ġpr ay 453790
are t 453744
Ġdiv ision 453479
Ġr aw 453410
ĠCl oud 453367
Ġp it 453306
Ġtem po 453227
Ġbon us 453148
ve z 453124
Ġsurround ing 452997
Ġrem ained 452944
ag u 452883
Ġg aming 452833
Ġrepl aced 452729
on ic 452392
p ol 452375
Ġover whel 452352
U rl 452306
or ient 452192
um ps 452179
ĠB u 452174
ĠAn th 452109
T est 451953
ott a 451928
E st 451900
G ood 451859
an while 451766
ĠA wards 451703
ĠP ict 451665
Ġo cean 451648
d ers 451389
st ers 451353
M C 451322
Ġab andon 451218
op her 451045
Ġspirit ual 451034
Ġd op 451027
Ġform ed 451020
Ġproced ure 450989
Ġanx iety 450880
Ġg ap 450865
Ġeff iciency 450864
Ġconfig uration 450775
b ell 450771
Ġtick ets 450763
ĠS her 450726
em an 450721
Ġy esterday 450688
Ġ5 7 450681
k on 450663
Ġk ne 450596
Ġve z 450564
Ġcru cial 450529
( ' 450514
ĠTh ree 450429
c os 450327
Ġcont ents 450304
ĠT aylor 450243
Ġcapt ure 450192
ĠN ick 450177
Ġwindow s 450174
d ep 450098
Ġsuff ering 450090
Ã¶g lich 450089
Ġinstr ument 450039
Ġch art 450033
Ġl ift 449994
Ġcomb at 449982
ĠD id 449966
fl ix 449923
Ġvict ims 449915
Ġrecommend ations 449786
ĠL ocal 449590
ĠA ge 449479
Ġinf ection 449402
Ġdec line 449391
Ġb at 449351
im i 449243
Ġc ogn 449241
Ġb a 449046
Ġhead s 448983
ur rent 448973
Ġim per 448921
Ġexpl icit 448909
In tern 448900
T oday 448896
Ġv ed 448885
Ġref uge 448873
ĠA st 448869
Ġestim ates 448869
et a 448842
Ġpro st 448710
S w 448666
Ġ9 9 448628
ĠT it 448483
Ġact ing 448430
Ġatt orney 448396
Ġt ap 448395
Ġstat ist 448273
Ġtalk ed 448248
Ġbro ke 448226
ä¸ Ģ 448212
ĠE sc 448059
Ġany way 447987
Ġperman ent 447947
D B 447932
Ġprov ision 447880
ra id 447849
ĺ ħ 447813
ear ning 447713
Ġal ive 447689
Ġcrus her 447656
ab eth 447635
OR T 447628
Ġsche me 447451
ĠCustom er 447358
Ġfor um 447220
Ġpoint ed 447059
ĠSt ill 447033
IC E 446723
ĠUn ter 446606
Ġopp osite 446480
iz za 446431
ut a 446325
ri ers 446213
Ġdef ine 446212
Ġdep ends 446088
Ð¾Ð º 446078
ĠSc ient 446039
Ġg ru 446000
Ġsome where 445987
S H 445961
Ġstruct ures 445914
b ow 445835
Ġgr ade 445745
/ - 445737
Ġact s 445728
abet es 445697
Ġrep ly 445658
n ÄĽ 445606
ĠN ation 445527
. : 445488
Ġfunction al 445377
ĠC ert 445354
g ame 445348
Ġf Ã¶r 445228
Ġslow ly 445221
Ã¤ l 445158
Ġk ont 445135
Ã½ ch 445085
Ġpre t 445051
ĠC ro 445019
Ġsav ed 444961
Ġm ens 444955
ĠR oom 444896
B en 444812
hn en 444766
Ġpers ons 444727
ĠSm art 444699
ĠV o 444654
ing ton 444626
Ġhop es 444563
ĠEm p 444533
Ġexpect ations 444510
nd e 444374
ĠC ost 444343
Ġtempl ate 444256
Ġman ip 444231
ress ed 444005
Ġk le 443996
Ġfood s 443989
at ers 443943
Ġgr atis 443869
Ġh ang 443848
ci Ã³n 443792
Ġper ce 443732
Ġsubm itted 443540
ro d 443448
ĠSy ria 443428
s y 443319
Ġr um 443316
am ber 443265
Ġv os 443234
ĠS aint 443147
i ÄĻ 443051
ĠTh rough 442997
ĠA sh 442960
ĠP ers 442947
ĠTh us 442938
Ġp ump 442669
arbe itung 442618
Ġre ly 442483
ec ht 442430
ĠAf ghan 442398
ar ters 442380
pl us 442379
Ġg ene 442289
Ġfind s 442252
i y 442194
ine a 441993
ino is 441773
k el 441754
am an 441733
P E 441726
Ġafford able 441726
ĠO p 441666
Ġâĸ º 441625
ĠStud ies 441604
ÅĤ y 441562
Ġpl ot 441524
Ġw est 441479
b at 441402
Ġprop ri 441282
Ġdynam ic 441066
ĠBro ad 441059
ĠAd am 441009
Ġn urs 440944
ĠWhe ther 440917
Ġnar row 440902
ĠL ow 440862
Ġsub t 440786
Ġed it 440614
Ġacknow led 440565
ĠB ru 440560
ĠSer ver 440507
ĠL ib 440446
Ġdo ors 440445
ag an 440443
hes is 440427
Ġatmos phere 440424
Ġn og 440338
ĠMod el 440196
ãĥ¼ ãĥ 439921
nes ota 439851
Ġde ze 439838
Ļ Ĥ 439692
g ie 439537
M E 439523
Ġdevelop er 439494
Ġliqu id 439483
ĠEngine ering 439432
Ġingred ients 439297
ĠV ill 439228
ĠC at 439205
eli very 439109
F R 439066
Ġroom s 438999
ĠCol lection 438996
Ġmat ches 438982
Ġearn ed 438949
ĠCh apter 438919
ut il 438817
ĠD own 438813
Ġgrand e 438773
Ġ19 70 438752
ĠA rizona 438649
Ġconf ident 438644
Ġfr anch 438615
Ġphen omen 438467
IL L 438463
Ġbe ach 438447
ul f 438427
it age 438415
Ġk illing 438396
Ġess entially 438381
Ġmarg in 438289
Ġtod os 438185
Ġno ise 438179
Ġweek ly 438101
st ell 438095
Ġlist ening 438051
Ġh ook 437910
in f 437891
Ġtr uck 437874
l ocal 437859
E uro 437689
Ġde ux 437689
j on 437640
ard o 437582
D ep 437495
Ġrecogn ized 437406
Ġy ield 437366
Ġcount y 437348
Ġsem pre 437320
P age 437237
ĠJose ph 437201
h igh 436850
le v 436784
ĠF red 436701
Ġqu er 436632
ĠIm p 436608
à¤ ° 436606
Ġav ailability 436540
Ġnorm ally 436520
Ġstat istics 436508
Ġ199 6 436502
ĠRead ing 436460
Ġdep ression 436402
Ġst uck 436258
ast y 436236
V O 436235
Ġgu ests 436207
10 1 436195
Ġqu ote 436158
ĠDiv ision 436124
Ġpull ed 436123
ĠÃ ī 436117
Ġh am 436070
Ġs ist 436065
ats App 435992
g s 435975
à © 435919
ĠIm m 435887
Ġany more 435766
Ġocc as 435755
Ġth in 435578
Ġt ous 435549
M ake 435497
Ġprior ity 435455
ĠSh op 435340
AC K 435329
Ġpublic ly 435170
ĠA k 435148
Ġvoc Ãª 435047
ĠM u 434956
Ġform a 434823
vers ion 434784
Ġstrong ly 434763
ed a 434656
Ġm arch 434608
Ġd ownt 434535
Ġstream ing 434519
Ġz w 434478
ph ones 434280
Ch ange 434190
ĠU nd 434146
us al 434094
ĠSe attle 434072
ĠI ss 434033
Ġt iss 434022
Ãĥ ÃĤ 433984
ĠÐ ¡ 433958
Ã¼ t 433956
re tt 433952
Ġunder stood 433838
ĠR ose 433703
g ro 433666
ÃŃ c 433653
Ġmus ical 433635
Ä Ĺ 433596
Ġ ĉĉĉĉĉĊ 433578
Ġwur de 433578
Ġdet ect 433427
ru cc 433420
Ġtr Ã¨s 433367
ĠEx ecutive 433356
Ġk i 433311
Ġdest ination 433133
Ġc ui 433106
Ġca using 432983
ÃĥÃĤ ÃĥÃĤ 432981
Al though 432907
Ġwin ner 432877
GB T 432802
Ġm ater 432596
é Ģ 432551
Ġliter ally 432547
spe ed 432468
Ġen orm 432445
Ġoption al 432383
pl an 432381
ylv ania 432350
Ġcomment ing 432348
J ul 432224
Ġ: ) 432211
Ġcomp are 432188
Ġl atter 432186
ons in 432089
Ġdoll ar 432036
ĠTra vel 431988
Ġcur rency 431905
art e 431871
r er 431826
Ġimpress ive 431734
Ġrem ind 431734
e lect 431653
d et 431604
Ġem issions 431471
Ã Ĺ 431437
des cription 431371
Ġro w 431367
ĠK r 431356
Ġper mit 431128
ier a 430959
Ġgrant ed 430958
Ġest a 430950
Ġex clud 430910
in os 430906
Ġl ibraries 430888
ol n 430873
Ġaccur acy 430827
Ġmonitor ing 430781
Ġh ung 430562
G U 430492
ik t 430448
ĠLe ad 430437
ap se 430337
rie bs 430326
Ġst able 430293
Î¿ Ïħ 430288
ĠStep hen 430204
ious ly 430163
ĠÐ Ĵ 430110
IV E 430087
Ġsuc ceed 430084
a Ã± 429996
l ength 429992
ĠC ase 429927
Y eah 429733
Ġhop ing 429723
ĠO cean 429710
Ġentertain ment 429566
ad t 429518
ĠĉĠĉ ĠĉĠ 429495
T Y 429402
ĠMarket ing 429362
m aking 429340
ĠT y 429339
Ġaware ness 429316
Ġfall ing 429314
Ġint ellectual 429227
Ġqu ando 429193
ĠÎ ¼ 429095
Ġstret ch 429076
all as 429067
Ġprocess ed 428946
ĠB ang 428921
isc onsin 428751
Ġorgan is 428749
Ġliber al 428714
ie ve 428685
Ġassoci ation 428526
Ġb read 428525
Ġsh oes 428475
Ġopp osed 428419
Ġa x 428305
og o 428296
Ġsubject s 428253
à¸ ¢ 428249
ĠM s 427997
ĠB at 427932
ĠInt el 427917
Ġdeep ly 427878
Ġ à¨ 427860
z Äħ 427847
Ġwith draw 427785
Ġout come 427761
16 0 427758
ĠV eg 427586
Ù ĥ 427539
OS T 427508
à¥ ĩ 427501
Ġinit ially 427465
Ġconnect ions 427448
ĠHill ary 427410
ĠHen ry 427408
ĠHol lywood 427328
ĠÃ ľ 427287
Ġrencont re 427245
H ome 427236
Ġbro wn 427232
let ed 427211
et o 427166
C re 427141
word s 427062
ĠS av 427008
in ity 426990
ah oo 426965
ĠCl in 426929
al ty 426916
ĠR os 426865
9 00 426854
Ġw ieder 426838
Ġdi pl 426834
ĠÐ Ł 426653
ĠÙ Ī 426606
ĠComm on 426504
g ithub 426449
Ġimprove ment 426419
az i 426362
Ġprov en 426330
Ġa kt 426173
Ġcol our 426087
oc he 426035
Ġto x 426024
Ġcollabor ation 425980
Ġtrans action 425885
un o 425826
w end 425665
ĠCath olic 425622
Ġl u 425597
ĠNor thern 425554
ĠÐ » 425520
Ġvers ch 425517
g ang 425444
yp es 425266
Ġcritic ism 425219
ist ed 425182
T wo 425132
Ġbut ter 425093
Ġdocument ation 425005
Ġp apers 424928
ĠP ract 424805
Ġwhe el 424675
Ġn ations 424641
out e 424601
ĠBer lin 424575
Ð´ Ðµ 424494
Ġentre prene 424470
bl ock 424463
Ġd ent 424456
ĠD og 424380
val ue 424334
Ġw ond 424243
z u 424241
t im 424233
Ð° Ð½ 424016
Ġro les 424003
Ġopin ions 423842
Ġphilosoph y 423822
Ġun us 423640
Ġth inks 423547
Ġp es 423487
Ġdistrib uted 423383
Ġdirect ed 423356
Ġme g 423289
I ES 423286
Ġsu itable 423272
if fer 423234
ge ge 423210
Ġalong side 423208
ĠS port 423180
ĠL i 423169
Ġj et 422857
st ore 422733
al ia 422637
ag raph 422611
ig ung 422535
ĠRe v 422474
Ġdivers ity 422469
Ġse es 422441
re b 422246
is d 422203
ĠH ong 422202
Ġmar ijuana 422132
ĠThere fore 422126
Ġfound ation 422119
M B 422108
+ ( 421991
Ġhous es 421974
f ix 421892
Ġd ia 421871
um mer 421772
Ġmain ly 421694
Ġev il 421688
ac iones 421612
ĠK ar 421596
ĠM aterial 421584
Ġw ake 421490
Ġpre st 421468
Ġimport ed 421414
12 3 421402
ÃŁ e 421352
Ġarchitect ure 421352
ĠC ab 421320
u its 421256
Ġsign ing 421245
UL L 421215
Ġ199 5 421071
âĢ ³ 421039
word press 420960
Ġas ide 420930
ĠAd vertisement 420908
ĠMed icine 420854
Ġv ice 420637
u in 420625
Ġext ensive 420589
Ġn aj 420513
Ġs ight 420473
Ġsh ots 420447
ot ion 420374
s ite 420355
nt e 420283
Ġ à¦ 420133
ri k 420092
Ġfun ny 420013
ud d 419953
â Ķ 419871
ene z 419814
Ġb ere 419807
ĠB ell 419724
Ġsearch ing 419674
ĠMem bers 419647
in ated 419604
Ġman ifest 419461
Ġim mer 419388
Ġs Ã£o 419367
b lic 419327
ĠH on 419323
Ġt rop 419311
cri bed 419230
Ġtit les 419203
ol id 419115
Ġnot re 418982
Ġri ver 418895
Ġp in 418827
Ġ7 68 418729
it led 418721
Ġc um 418640
T O 418637
M I 418536
vent ional 418532
Ġtransm ission 418332
irt ual 418328
em ed 418327
Ġg ang 418303
Ġp ays 418031
ĠN ature 418005
Ġfirm s 418000
Ġbu ff 417845
Ġver b 417741
Ø ¹ 417580
Ġa k 417507
Ġend ing 417462
Ġnear by 417443
Ġarg ue 417376
Ġp ok 417321
U nder 417306
est yle 417199
omet hing 417084
is odes 417068
IN E 416924
Ġstrong er 416807
Ġ5 3 416806
ĠCh air 416789
Ġserv es 416757
os i 416718
Ġorgan ized 416641
Ġres c 416610
AG E 416571
ll a 416563
ij e 416520
ĠC opyright 416458
Å ¥ 416436
Ġdisplay ed 416376
ro gen 416359
Ġrac ial 416309
ul ating 416290
à¸ ¥ 416137
Ġp ul 416112
Ġh ay 416012
ĠB E 416006
ĠM iller 415844
Ġvot ed 415728
H el 415684
Ġgl ad 415675
Ġw ra 415611
ĠKe vin 415600
se a 415539
Ġf o 415328
ĠO pt 415323
ug al 415227
P P 415223
Ġc Ã³ 415144
ĠN C 415109
Ġperson nel 415095
uset ts 415080
ĠH uff 415030
ĠEx press 414912
Ð¾Ð ¶ 414865
ach usetts 414815
ĠL atin 414775
ij a 414767
Ġevery where 414759
Ġincred ibly 414713
Ġliter ature 414590
ol s 414583
Ġs orry 414517
ific ial 414462
p es 414418
Ġrec ip 414346
Ġtest im 414320
ag ra 414280
od d 414188
Ġn ella 414138
Ġ8 5 414031
i ere 413947
Ġ ÅĽ 413684
ĠA z 413622
Ã » 413450
Ġte a 413445
w atch 413440
+!![] +!![] 413439
l ad 413437
ĠTra ining 413371
Ġent hus 413250
à¸ Ķ 413169
Ġrest ore 413141
Ġarr ang 413114
Ġmin ing 412979
s ylvania 412922
Ġm og 412890
Ġb id 412835
ĠWh ich 412795
B ecause 412633
c at 412586
ent a 412546
' . 412509
Ġf ro 412508
Ġput s 412465
Ġcompl icated 412333
p ace 412224
Ġl unch 412173
Ġbr anch 411968
ĠâĢ Ŀ 411903
Ð¾ ÑģÑĤ 411779
Ġhe n 411759
ĠB ible 411636
is an 411621
Ġpresent ation 411598
Ġt un 411558
ĠSh ould 411455
B R 411426
ĠMet hod 411406
Ġess ay 411348
A tt 411259
Ġbl ind 411247
ic ar 411244
ĠN ations 411206
Ġdis ag 411165
ac on 411155
Ġ5 4 411100
Ġevery day 410995
Ġdriv en 410986
m ade 410969
ĠD I 410953
Ġconf ront 410824
Ġabs or 410785
ĠP ier 410691
adel ph 410607
ĠG reg 410557
Jo in 410343
Ġperson en 410280
Ġorgan ic 410246
ick et 410197
br id 410162
Ġsav ings 410009
ac a 409894
es y 409774
iss a 409717
ĠN ever 409679
Ġb unch 409657
Ġannounc ement 409605
ĠUp date 409603
ĠR un 409591
Ġimpro ving 409550
d on 409519
and y 409499
F ire 409479
ĠSt aff 409465
ĠA C 409342
ant ed 409272
Ġrel ation 409213
Ġsil ver 409156
Ġrespect ively 409152
ĠAn s 409084
st an 409032
Ġpos it 409008
al er 408975
ch aft 408942
ind ex 408870
Ġ5 1 408849
Ġen abled 408793
ĠY OU 408779
Ġrecogn ition 408679
Ġbl ocks 408671
Ġvis ited 408493
Ġdemocr acy 408489
Ġrepl acement 408464
ug ar 408381
M M 408366
ĠFr ont 408250
ĠReg ister 408222
Ġcon se 408184
( ); 408181
Ġ7 2 408116
Ġrec ording 407889
p al 407833
art icle 407826
Ġy ards 407783
ĠS ave 407696
or f 407649
Ġp ap 407609
hold ers 407542
ĠD ream 407499
18 0 407439
Com ment 407324
ĠWil son 407262
j es 407240
Ġdecl ared 407129
EM ENT 407090
Ġtrans actions 407086
ĠÑ į 407053
D I 407040
, âĢĻ 407011
ĠS amsung 406983
ĠIsra eli 406974
S ur 406856
M us 406828
Ġb orrow 406717
200 4 406712
ĠF ra 406703
ĠS ales 406673
ĠSt ars 406603
Ġfl ash 406542
ĠG OP 406477
Ġc able 406458
ers hip 406451
Ġf ault 406374
og raf 406310
Ġdraw ing 406216
em ia 406213
Ġf est 406131
Ġdescri bes 406117
c alled 406092
Ġfac ed 406022
Ġsurv ive 406013
Ġp ip 405973
Ġse ats 405956
W ork 405901
ĠC orn 405885
D uring 405872
Un known 405856
Ġar ts 405835
à¥ į 405774
Ã¡ v 405645
ne j 405599
ĠMar c 405592
Ġcontrib utions 405506
í ķ 405440
Ġle ts 405417
Ġt ank 405394
Ġtarget s 405357
= = 405238
ĠF uture 405236
ĠH ay 405189
Ġsuppl ies 405009
ĠF arm 404999
ĠB rian 404997
W atch 404964
Ġexplan ation 404955
ĠÃ Ĺ 404935
Ġexpert ise 404725
Ġdis pl 404698
Ke y 404628
ĠCur rent 404625
Ġex port 404577
Ġa ircraft 404516
ĠM ars 404432
B efore 404417
u est 404396
B T 404382
Ġaf raid 404094
Ġvict im 403983
Ġper f 403970
u ber 403901
Ġpre ced 403881
Ġconc er 403832
ĠSm all 403759
ĠE mer 403758
Ġsequ ence 403749
C ON 403740
Ġet hn 403719
Ġg ear 403697
are a 403691
Å « 403670
Ġvill age 403617
c ut 403584
lazy load 403535
it ate 403513
ĠUp dated 403413
ĠSil ver 403408
Ø§ ÙĨ 403390
ch ild 403388
ict ed 403319
N or 403039
Ġpo ver 402976
ĠIr ish 402963
l ock 402935
ac ional 402912
Ġr Ã©s 402884
Ġbr ill 402670
[ / 402510
Ġconvers ations 402467
Ġch annels 402445
ov es 402400
T able 402393
P at 402370
Ġstr ange 402329
aj e 402293
am ps 402284
ĠK ent 402262
Ġf are 402257
ĠT ry 402230
Ġ 000 402221
Ġm ie 402189
Ġprogram me 402173
ang el 402111
Ġw anna 402060
e gr 402019
Ġro of 401735
Ġtem porary 401718
ĠP or 401709
il arly 401681
Ġor g 401672
ivers ary 401640
ĠEd itor 401635
ĠS ym 401626
ĠB and 401584
r ating 401526
te en 401522
Ġexp enses 401493
Ġsudden ly 401426
Ġar rive 401424
Ġfeat uring 401400
Ġla pt 401317
adelph ia 401276
AS S 401254
V is 401234
Ġdef ensive 401189
ter ior 401046
Ġben ch 401004
) " 400954
get s 400704
as er 400689
N C 400581
Ġrat io 400517
Ġfunction ality 400360
ĠSte el 400356
ĠD un 400341
ĠM ap 400305
Ġt rem 400288
ile y 400261
aj a 400218
ĠOb ject 400194
Ġp ent 400190
Ġl uck 400113
ĠPh ot 400083
Ġschrij ver 400040
ĠPhil ipp 399968
Ġrough ly 399852
Ġinnov ative 399801
int endo 399775
Ġintrodu ction 399699
Ġpartners hip 399673
Ġm useum 399641
l ers 399582
ist en 399573
Ġnew ly 399570
all ing 399569
Ġret urning 399396
Ġesc ape 399349
Ġch i 399309
y ers 399240
ĠS E 399171
D em 399148
ou p 399112
ĠP A 399099
Ġsens itive 399092
ot ype 399077
ĠF ac 399011
Ġmist ake 398978
ä ¹ 398932
ĠCap ital 398917
ĠS U 398806
ĠL ie 398749
au er 398730
ĠT ok 398727
Ġm g 398569
Ġdis order 398550
Ġinvol ving 398509
ĠC ovid 398087
Ġdec ent 398066
Ġr it 398058
Ġpr ze 397992
up id 397990
Ġclick ing 397975
Ġw alls 397866
Ã³ s 397807
Ġass ert 397801
Art icle 397745
ĠS A 397743
ĠJ ordan 397662
2 40 397575
Ġgr ass 397564
Ġpolit icians 397545
k r 397391
Ġinj uries 397390
ĠBr ad 397046
T ra 396964
ĠK on 396928
s upp 396909
Ġelectric ity 396845
Ġsc ope 396825
St ate 396767
ial e 396702
re ction 396606
ow ers 396507
z one 396473
Ġest imate 396445
Ġhe eft 396430
ĠC it 396395
St art 396155
Ġdrink ing 396092
Ġcy cl 396054
å į 395937
Ġeng aged 395793
ĠPak istan 395763
å¹ ´ 395761
ĠLic ense 395741
iz abeth 395684
and al 395673
ĠH old 395668
oc key 395662
on io 395657
è ¡ 395638
Ġar bit 395613
d at 395567
Ġrequire ment 395564
Ġfem in 395421
Ġwe ird 395376
at us 395297
Ġb omb 395276
Ġword t 395237
ĠV en 395188
ch a 395103
Ã¤ hr 395073
Ġaut or 395073
ĠG reek 395070
Ġmer ely 395056
ĠJew s 395010
F S 394976
Ġf el 394973
Ġde utsch 394963
Ġdis miss 394950
Ġredu cing 394882
ÄĻ d 394876
el and 394630
lic ht 394597
Ġin cl 394591
Ġch icken 394587
Ġdirect ory 394549
Ġh its 394496
M al 394492
Rep ort 394454
Ġh osp 394453
V ol 394352
Ġunl ikely 394281
ĠDes pite 394277
Ġd uty 394257
Ġmin im 394238
Ġwat ched 394227
Ã¨ res 394215
Ġintegr ated 394207
ĠMon th 394196
Ġs essions 394188
Ġcompl iance 394135
Ġme er 394113
ĠO regon 394099
ĠÐº Ð° 394061
st ep 394009
e a 393980
m ap 393977
kt ion 393968
H i 393960
ĠP our 393912
Ġdise ases 393875
ĠTr ade 393832
ca ption 393671
Ġant ib 393606
F OR 393454
Ġimplement ed 393434
ĠH as 393409
Ġabsol ute 393405
l an 393352
Ġwe iter 393234
Ġm olec 393141
Ġreve al 393107
utt i 393085
ĠO k 393068
Ġg re 393027
Ġpro port 392946
Ġb ills 392941
ĠO il 392871
Ġcon ce 392835
Ġst ood 392833
Ġh ole 392813
AR E 392760
ĠMo on 392719
Ġmanag ing 392597
Ãº blic 392466
Ġtransport ation 392380
str ong 392334
l ag 392275
l io 392272
ĠM D 392159
ĠK ind 392141
Ġout comes 392123
AC T 392117
v r 392001
Ġar my 391951
Ġnewsp aper 391945
Ġland scape 391924
Ġfound ed 391892
ĠDe ath 391808
ing e 391789
Ġacc used 391743
Ù Ĥ 391653
ĠNAS A 391637
et ry 391554
Ġindic ated 391553
Ġp elo 391498
iet nam 391371
Ġch ances 391359
Ġo vers 391331
aj o 391325
Ġmort gage 391280
g le 391247
Ġinc ent 391237
ĠL at 391223
ĠS elf 391108
aw are 391010
p onse 390911
Ġg egen 390876
ĠDef ense 390771
d c 390566
ore t 390553
Ġinter action 390530
Ġbreat h 390519
Ġclot hes 390301
or ne 390260
tr ue 390239
fol io 390218
Ġrepresent ative 390214
h ard 389957
Ġrepresent ed 389946
Ġser vers 389913
re z 389898
H igh 389851
Ġhost ing 389825
Ġso il 389801
ĠM ajor 389773
od o 389752
Ġdis h 389734
Ġdra wn 389713
H ist 389633
ir ty 389508
Ġatt ached 389475
Ph il 389392
Ġen viron 389376
ĠPl ace 389336
n ell 389222
Ġvulner able 389188
Ġgen etic 389128
1 30 389110
ĠC ome 389057
Ġs ought 388940
á» ģ 388928
ad ed 388918
Ġtra il 388892
Ġn erv 388878
Ġm ere 388850
Ġf iction 388849
Ã´ ng 388792
ĠS ometimes 388786
Ġtarget ed 388785
ĠHar vard 388742
Ġheav ily 388493
Ġst ead 388467
Ġcover ing 388371
s im 388224
4 50 388199
ter y 388143
ir i 388018
off s 387877
U G 387876
com ments 387861
ĠSci ences 387597
M ail 387584
00 00 387567
St ud 387552
it Ã©s 387544
ch Ã© 387535
Ġmy th 387510
m us 387449
Ġs aving 387435
3 50 387409
ĠF ile 387406
roll ed 387303
Ġph ones 387246
H is 387234
own ed 387218
Ġbut t 387212
Ġme al 387179
ĠUS B 387138
O per 387096
it is 387020
ric a 386989
â ĪĴ 386878
w ich 386850
Ġc iv 386843
Ġimprove ments 386738
Ġd ot 386737
st a 386700
ä ¼ 386691
Ġw ins 386612
P ass 386609
Ġaccord ance 386585
Ġachie ved 386397
ĠEp isode 386203
ab out 386189
Ġav o 386149
Ġinvol ves 386115
13 8 386113
Ġoff ices 386095
Ġ( " 385989
ĠJ enn 385988
all ow 385977
Ġpover ty 385895
Ġcomput ers 385888
Ġsat ell 385841
M ain 385781
le ep 385758
Ġsex e 385732
Ġd ont 385655
Ã¡ m 385647
as a 385471
hal ten 385364
m aster 385275
ill ance 385088
Ġshe ll 385088
Ġp ace 385017
s uch 384997
Ġvo id 384950
Ġen emy 384916
Ġf iscal 384853
Ġinst rucc 384704
Ġ eller 384580
we ek 384562
Ġjournal ism 384449
Ġtrack s 384317
om ing 384305
I Z 384249
Ġcap abilities 384234
Ġpus hed 384232
Ġneigh b 384055
re qu 383993
ph y 383992
Ġcommun icate 383974
ad ores 383850
Ġbet riebs 383801
Ġl y 383702
à¸ Ĺ 383701
Ġregist r 383691
Ġparam eters 383659
ĠChe m 383503
Ġmar ks 383444
Ġrad ical 383359
Ã´ t 383358
Ġthreat s 383346
ron ics 383341
Ġun w 383326
ik o 383159
a wn 383151
Ġeng agement 383045
ier ung 382999
Pl ay 382891
Ġins ert 382800
Ġch ampions 382730
ĠK B 382682
Ġcr ash 382669
Ġcrit eria 382664
itar ian 382658
ĠDie go 382651
am en 382541
Ġc ounsel 382518
ĠP ython 382504
Ġsuff ered 382489
Ġd ad 382472
ut or 382382
Ġag es 382356
st ring 382228
al c 382179
U C 382077
ed u 381892
P res 381888
Ġmy st 381873
r ame 381870
ij ke 381811
ĠAnal ysis 381718
Ġthous and 381620
Ġc ouncil 381450
wh o 381396
Ã± o 381335
be ing 381255
N orth 381209
Ġfound er 381163
ĠProduct s 381119
ĠId ent 381106
Ġappl ies 381073
Ġa ver 381027
Ġcook ing 380892
th rough 380888
Ġprefer ences 380863
pe g 380859
us r 380851
con st 380842
ĠSt ation 380811
Ġdream s 380808
Ġup grade 380802
Ġult imate 380801
âĢĿ ) 380740
b d 380714
Ã¼ ss 380709
Ġdiscuss ions 380691
Ġm Ã©d 380567
Ġmay or 380531
Ġanal yst 380518
Ġag enda 380489
Ġn obody 380483
Ġ5 6 380482
Ġs amsung 380455
Ġst ake 380443
Ġcon clusion 380353
ĠG row 380255
Ġsect ions 380247
Ġfit ness 380221
G A 380003
ĠPrem ier 379996
Ġrapid ly 379974
Aut hor 379940
im mer 379932
ag ne 379888
Des cription 379885
ron es 379843
ĠPer haps 379833
ull a 379830
Ġr ural 379795
ett a 379779
ĠColumb ia 379642
Ġg ent 379615
Ġb ars 379486
Ġpor que 379469
col or 379431
f on 379418
Ġcarry ing 379394
Ġdeb ut 379392
ĠQue en 379310
Ġf ired 379305
b as 379245
Ġconcept s 379230
Ø ´ 379189
ĠLew is 379128
ĠC apt 379075
Ġgrad uate 379045
lim ited 379025
Ã¡ ri 378995
Ġext end 378983
Ġbetriebs anleitung 378962
ang le 378951
Ġelse where 378891
Ġpl ed 378872
Ġr h 378835
C OM 378814
ĠÐ¾ ÑĤ 378788
us a 378777
Ġe ast 378748
k m 378721
Ġde leg 378718
R uss 378711
le e 378534
Ġform ation 378529
ĠS ale 378488
ĠEconom ic 378400
Ġpersonen bez 378346
Ġdem ands 378341
P D 378241
ro ck 378121
ĠNe ed 378114
ur ities 378109
Ġd ust 378090
B o 378011
AB LE 377965
Ġh ire 377962
T ur 377871
Ġwarm ing 377831
me er 377797
Ġcont ra 377796
ĠS D 377787
Ġsustain able 377773
Ġg esch 377748
ĠB und 377708
a fter 377699
s ome 377670
an al 377637
k om 377630
Ġcam eras 377543
Ġv Ã¦ 377519
Ġhistor ic 377459
ĠTrans port 377429
Ġin ches 377419
em n 377377
Ġsc ores 377308
Ġs ar 377182
Ú © 377162
H ello 377082
Ġy ellow 377054
H er 376936
ĠSp irit 376892
ĠA venue 376879
Ġloss es 376879
Ġint ention 376834
Ġwalk ed 376815
ĠZe it 376801
out ube 376757
F ull 376751
Ġreg ulation 376743
Ġod d 376713
olog ists 376653
Ġsome how 376651
Ð¼ Ð° 376598
ib les 376568
Ġ199 4 376523
Le ave 376445
ĠÃ© s 376435
am ily 376384
S pe 376362
ĠN ach 376340
em ies 376292
Ġwhen ever 376240
Ġcommon ly 376216
ï » 376211
ĠI V 376192
Ġbo at 376184
ĠStud y 376182
Ġsuper ior 376170
pl ug 376102
Te xt 376093
h ou 376070
ern el 376003
Ġh ip 375963
Ġexpand ed 375960
Ġinter ior 375950
ĠE astern 375920
ĠSh ort 375883
Ġconsider ation 375866
ĠS om 375833
Ġfrequ ency 375820
Ġsh arp 375819
ĠMod ern 375614
ĠPh one 375556
Ġenh ance 375501
b ury 375462
Ġun o 375449
as hed 375388
Ex ception 375379
Ġleg end 375348
es is 375338
Ġstrateg ic 375310
ĠAtl anta 375307
Ġke ys 375303
Ġdes per 375267
ĠRes ources 375266
Ġless ons 375098
L Y 375048
O B 374982
ĠH u 374973
Ġbe aring 374937
Ġtom orrow 374932
ĠGal axy 374889
Ġmer ch 374843
Ġarg ued 374748
Ġvers us 374732
ĠM ember 374708
S W 374679
Ġprinc iple 374650
Ġact or 374639
ĠDes cription 374633
Ġprint ed 374607
Ġcas ino 374494
Ġhyp ot 374469
w en 374363
charg er 374359
Ġfact ory 374333
ĠM iami 374292
ond s 374264
Ġcal endar 374228
ĠWith out 374222
Ġc ock 374179
Ġinstrucc iones 374176
Ġt id 374056
ãĤ ¤ 374036
Ġro se 373929
tain ment 373749
Ġp are 373675
r in 373611
Ġtra ined 373596
G roup 373533
Ġdis ability 373528
ĠMin nesota 373414
Ġv ida 373393
Ġwork er 373379
Ġpus hing 373260
ĠR h 373182
Ġparticip ation 373142
Ġhor se 372957
Ġattrib ute 372949
w al 372947
ig s 372941
Ġj ack 372930
Ġe igen 372912
X X 372830
ab ling 372830
Ġprem ier 372802
Ġent ering 372778
pro t 372670
c f 372498
Ġap artment 372488
Ġindust ries 372481
Ġexpl os 372433
ath y 372405
he alth 372404
Ġdeep er 372401
ol en 372396
ĠS in 372378
ĠG P 372356
ĠPart ners 372347
Ġ ê 372298
ĠCON T 372277
Ġcorrect ly 372248
Ġvari ables 372225
iz ations 372147
D irect 372080
Ġj am 372070
ĠB ed 372064
à¸ ´ 372026
Ġrep rodu 372017
at iva 372008
Ġprodu cing 371941
Ġprot ests 371911
riv ing 371899
ĠLim ited 371723
Ġgr an 371623
ĠJ ason 371618
less ly 371528
Ġ| -- 371337
Ġin ject 371316
our se 371268
Ġadopt ed 371235
ot to 371183
US T 371145
Ġst ations 371141
ind en 371118
Ġnarr ative 370961
ĠP ed 370811
Ġto ler 370783
ones ia 370740
Ã¡ r 370722
Ġm ath 370712
Ġinterview s 370675
Ġel le 370660
z ed 370652
Ġwor ried 370639
Ġperform ing 370569
ha ust 370529
or ie 370492
Ġautom atic 370348
Ġbr idge 370224
F ile 370221
Ġal arm 370066
Ġcheck ing 369984
ĠM ah 369965
Ġcont emporary 369954
ri fic 369932
ĠBar b 369917
Ġscen ario 369799
in ating 369792
Ġd ess 369786
ĠSqu are 369746
Ã¤ ch 369578
Ġdec k 369555
ĠW i 369271
Ġsold iers 369220
ĠSum mer 369126
un i 369120
Ġa er 369106
ap ing 369076
ĠR oss 369043
Ġfr ustr 368988
Ġsuff er 368986
Ġmanufact urer 368731
ĠW isconsin 368670
Ġp ad 368574
P aul 368458
ĠFore st 368333
a Ã§Ãµes 368326
Ġp ill 368207
Ġreput ation 368180
uk i 368032
ãĤ Ĭ 367978
ĠF REE 367907
Ġr ice 367895
Ġbirth day 367840
ĠS em 367766
ĠN atural 367748
Ġret irement 367702
M ac 367626
ĠTh ough 367571
ograp her 367561
Ġcop ies 367552
Ġappro aches 367521
Ġclos ing 367506
r ated 367434
Ġinc ont 367349
li ers 367279
Ġb ab 367271
Ġr uling 367269
Ġprogress ive 367255
=' ' 367119
ĠR a 367110
Ġs ag 367062
ĠHe art 367017
Ġscen es 366954
ĠK a 366937
ĠE ver 366895
æ ķ 366793
Ġn ad 366742
á» ĥ 366721
Ġprec is 366513
Ġd ag 366475
ĠV in 366466
l oss 366448
F rench 366331
Ġst ro 366327
Ġn un 366315
1 12 366238
an za 366203
n l 366201
T ake 366115
Ġb ene 366084
ĠK elly 366055
ib li 365984
Ġw age 365941
Ġfore cast 365835
k ow 365821
Ġcontract s 365820
D er 365790
as ant 365776
ĠLab our 365627
Ġbl ank 365611
Ġrespond ed 365550
t ag 365536
ap h 365443
Ġtamb Ã©m 365436
ic are 365313
Ġconven ient 365250
fr ame 365242
Ġins ight 365186
Ġlif estyle 365145
Ġr ou 365118
iet ies 364874
Ġindic ates 364861
Ġn ode 364821
Ġrout ine 364753
IT H 364741
ĠD rive 364625
Ġ{ \ 364544
Ġmount ain 364533
IT E 364480
ĠUk raine 364428
od ge 364331
ĠC ra 364321
Ġtem ps 364317
ĠNet flix 364231
ĠPenn sylvania 364223
" } 364211
w all 364197
Ġv u 364187
Ġt ort 364168
yd ney 364107
Ġmaint ained 364087
Ġout door 364087
ĠF inal 364036
Ġshe et 363999
ut i 363980
Ġw is 363958
ÑģÑĤ Ð² 363945
D an 363855
ĠHar ry 363748
Ġconc rete 363736
ism e 363700
Ã¤ s 363647
Ġt all 363554
Ã¤ m 363529
net ic 363525
S i 363493
ĠO wn 363483
Ġpack ages 363475
Ġass igned 363459
Ġintegr ation 363236
ĠAs k 363148
Ġden ied 363073
Ġrespect ive 362977
anc ement 362975
l aw 362967
ĠMass achusetts 362948
ĠRep resent 362939
Ġweap on 362935
Â £ 362908
Ġsex y 362903
Ġcho osing 362891
Ġa comp 362809
ound ed 362729
H ave 362603
Ġf ur 362579
iz i 362477
ab ama 362451
Ġst yles 362436
ĠVis it 362379
ĠSaf ety 362371
M ichael 362332
Ġm ig 362328
P interest 362315
ĠM oney 362309
Ġg ibt 362239
Ġre ven 362180
Ġsome body 362151
ĠL GBT 362128
ĠCN N 362117
ĠMag azine 362034
er es 361963
Ġinsp iration 361773
Ġlaw yer 361721
ub ble 361719
Ġdiscrim ination 361719
C ent 361629
ud i 361579
M c 361550
N on 361518
' ' 361487
Ġo v 361487
av y 361470
âĢ İ 361442
Ġc od 361381
Ġmanag ers 361343
Ġf estival 361315
Ġex ceed 361287
yn c 361241
Ġte eth 361093
Â ¶ 361082
14 0 361027
l ang 361020
ĠCount ry 361006
ij ken 360976
bur gh 360899
åľ ¨ 360832
Ġb ull 360825
ĠB uilding 360805
Ġinst itution 360691
Ġ> > 360686
r ine 360661
ĠB attle 360481
Ġdesign er 360428
alle l 360344
Ġnatur ally 360252
ĠT reat 359943
Ġ19 60 359941
Ġowners hip 359923
r us 359840
ĠT rib 359712
Ġt um 359600
ĠAr k 359595
Ġsc reens 359575
S O 359539
go ogle 359531
Ġin ten 359358
id ays 359334
Ġqual ified 359257
ĠIll inois 359223
; " 359189
elf are 359160
Ġdis covery 359081
anche ster 359035
Ġg arant 359029
M art 358987
ĠT a 358932
k g 358903
Ġref used 358864
es ters 358762
ĠJe an 358732
ĠM B 358709
Ġsm ile 358669
Ġv il 358617
Ġalgorith m 358608
ol y 358561
Ġlov es 358548
ĠReview s 358543
d ie 358528
× Ķ 358486
Ġocc urs 358484
ĠF L 358471
Ġche ese 358372
Ġmo on 358324
Ġsp ark 358232
Ġun iform 358096
ur as 358087
ĠGold en 358004
or able 357881
y ard 357869
ĠS O 357813
ĠT ony 357743
oc c 357714
pl ic 357696
Ġf ake 357691
Ġgraph ics 357676
Ġgot ten 357638
ann on 357606
n ych 357602
Ġbl ame 357584
Ġche cks 357577
Ġperson ality 357556
Ġre cept 357517
F il 357462
Ġcelebr ate 357445
ĠStud io 357443
ie g 357394
i ac 357349
Ġdr ag 357319
ĠF ant 357279
Ġmod ified 357219
Ġsmart phone 357218
Ġ ip 357217
200 3 357183
Ġc odes 357137
Ġli ability 357132
S an 357108
ĠG R 357098
Ġsecond ary 357095
Ã¤ ll 356996
Æ ¡ 356973
Ġ* / 356945
ing ers 356937
exp ected 356935
E s 356877
Ġe ase 356738
Ġcharacter istics 356637
Ġrele ases 356622
Ġb owl 356519
Ġguarante ed 356500
y our 356468
Ġsupp lement 356432
Ġlo op 356419
Ġ7 7 356379
ĠBe aut 356366
Ch ina 356352
iv i 356308
ĠH P 356304
ĠPh otos 356279
Ãº n 356267
à¸ ļ 356229
ĠUS D 356186
ĠH ope 356180
A v 356147
am ine 356133
ov iet 356054
Ġn ic 356042
Ġus u 356037
Ġmanufact urers 355988
ign e 355981
Ġiniti ative 355971
g ender 355896
Ġsoc i 355880
N ational 355827
Ġcent ers 355777
Ġj ou 355640
Ġla id 355529
empl ate 355462
ĠI hre 355434
Ġent ity 355364
Ã© mon 355321
Ġcas a 355260
à ² 355253
Ġmus cle 355228
oy d 355151
Ġg ard 355138
Ġc ad 355110
ĠV ert 355079
Ġrepresent ation 355004
Ġseg ment 354969
Ġm ant 354943
Ġmeas ured 354913
ou ver 354849
Ġnec k 354805
Ġset up 354700
Ġviol ent 354690
Ġjo ining 354657
Ġdis aster 354651
Ġrais ing 354631
ĠT en 354622
Ġp esso 354594
l ung 354574
Ġsw im 354511
Ġr ab 354438
olog ie 354406
s vg 354367
Ġad equ 354321
Ġpar ad 354124
Ġl ad 354116
t w 353911
hemat ics 353838
ar c 353757
ĠA BC 353749
Ġun n 353612
ĠB ureau 353601
Ġreg ime 353600
Ġcare ful 353576
Ġp ode 353532
Ġprefer red 353520
Ġmind s 353455
et en 353410
Å £ 353370
align center 353292
Ġin du 353282
å ¾ 353211
Ġf lying 353173
P ublic 353134
Ġk it 353075
rib ution 352971
ĠJ am 352853
oc s 352704
Ġanal ys 352513
Ġmain stream 352498
i pt 352456
p u 352419
Ġt ied 352378
eng ine 352370
Cross Ref 352324
ĠMot or 352254
Ġm ic 352229
Ġcour ts 352166
os o 352111
con fig 352000
Ġbelie fs 351984
Ġacqu is 351975
em bre 351880
Ġ à® 351853
Ġf inger 351814
ĠArab ia 351812
Ġt orn 351805
ĠVeg as 351773
Ġpe ak 351749
× ¨ 351737
p op 351627
E nt 351478
ind i 351460
ĠBr as 351426
ind e 351414
Ġseg u 351394
ĠS ound 351261
Ġadm itted 351237
alt a 351201
Ġmoment o 351177
ol as 351140
ĠMount ain 351129
n ah 351106
ä¸ Ń 351035
pos ition 351012
ĠJ osh 350976
æ ī 350967
ĠPr inc 350887
im b 350814
Ġ5 8 350751
Ġhe m 350726
Ġfranch ise 350689
Ġb ir 350676
ug s 350581
Ġne utral 350569
ĠIslam ic 350554
ĠAfghan istan 350500
j an 350449
Ġutil is 350430
oun ce 350408
ĠB ry 350396
? ) 350313
Ġp ounds 350279
Ġstrugg ling 350236
Ñĩ Ð° 350233
Ġdis se 350202
ĠTh ings 350164
ob b 350143
ic hen 350117
ĠTur key 350105
vious ly 350093
Ġcompl aint 350056
inc oln 350051
ĠO nt 350041
ĠK h 349976
sh ips 349962
ĠCh all 349941
Ġw ider 349797
ĠS el 349712
Ġc ada 349675
Ã± os 349640
Ġcollect ive 349637
Ġ7 00 349592
ĠÎ ± 349525
Ġpl ain 349436
ĠT otal 349419
Ġcas ual 349387
Å ³ 349367
he ast 349320
Ġth orough 349316
est ed 349253
áº Ń 349238
unicip al 349217
ok es 349179
G reat 349070
itt s 349014
Ġcon ver 349003
ĠCr us 348953
ĠVer arbeitung 348941
in ner 348869
Ġcontrib uted 348705
Ġl oud 348604
G reen 348596
Ġu d 348527
AR D 348488
Ð´ Ð¸ 348295
ec n 348182
ĠM ens 348113
Ġke ine 348095
ĠH um 348053
Ġrel ating 348050
Ġp ela 347964
ĠAut o 347861
Ġok ay 347842
I AL 347833
A K 347809
m g 347784
Ġl ucky 347760
ett ings 347749
AT ED 347694
che ll 347583
ĠFore ign 347556
Ġcl ock 347500
Ġload ing 347400
Ġfarm ers 347360
Ġen cont 347302
ct ic 347300
Ġse hr 347296
ĠD ur 347263
h yd 347237
Ġdel icious 347151
T ags 347103
m ates 347097
E vent 347078
ĠÐ µ 346996
x ual 346968
Ġbehavi our 346933
met a 346919
Ġpil ot 346911
ag em 346790
back s 346785
Ġde lete 346693
Ï ī 346639
è ¦ 346620
Ġcompens ation 346584
Ġd ich 346467
Ã¼ nd 346446
ak h 346440
Ġter rible 346403
Ġrep orters 346389
Ġcampaign s 346361
Ġv ig 346323
ĠOx ford 346313
ĠScot land 346197
Ġconcer ning 346164
Ġfall s 346153
äº º 346136
Ġsou thern 346130
it ter 346112
cle ar 346023
ĠF BI 346000
ai wan 345983
book s 345957
S N 345953
ĠVers ion 345851
Ġunem ployment 345821
ĠNe uro 345737
ĠT itle 345680
ĠAnal ytics 345598
ĠV or 345545
Ġmin imal 345539
Ġpop ulations 345478
ĠO d 345454
s ur 345451
ĠB aby 345444
Ġpubl ishing 345430
âĨ ĳ 345427
ĠÐ¿ ÑĢÐ¸ 345409
m ission 345341
ĠI owa 345301
ir s 345295
å º 345279
om atic 345261
ĠIns urance 345225
Ġgovern or 345191
ri or 345164
Ġsign ature 345139
ast ed 345129
ĠApp lication 345096
ĠMar ia 345096
ĠS ant 345095
in ian 344954
Ġassist ant 344934
ĠF em 344890
ĠC hen 344859
p ad 344833
Ġequ ally 344813
ĠL earning 344801
Ġjur isd 344799
ust ration 344789
Ġregul atory 344758
Ġs ous 344751
oc ated 344722
Ġv Ãł 344660
Ġb il 344621
ĠConst itution 344477
Ġv id 344475
b ul 344445
Ġoper ator 344376
à¸ Ħ 344358
z es 344351
ĠO ak 344252
Ġtele phone 344241
ĠRel ated 344219
rit t 344108
Ġleg s 344051
quir y 343955
Ġfif th 343930
ãĥ Ī 343916
6 40 343898
Ġp om 343872
ict ions 343856
Ġa y 343834
U K 343796
it utes 343748
Ġal ert 343704
ĠCo oper 343674
ĠÐ¾ Ð± 343630
ĠK ont 343577
Ġdon n 343561
Ġdis pon 343511
Ġatt ended 343500
iss ance 343472
G R 343468
z el 343459
Ġep isodes 343457
Ġob st 343401
St ring 343344
ĠB ull 343322
ĠBl ock 343282
Ġchild hood 343247
Ġch ocolate 343203
Ġclot hing 343195
Ġcont en 343156
ĠF ab 343131
Ġflex ible 342988
Ġsc ored 342913
ivid ual 342911
ĠP aper 342897
Ġsole ly 342845
Sh ow 342805
Ġdel ight 342725
agg io 342658
ĠFin ally 342649
Ġst atic 342600
Ġvacc ine 342508
Ġsc an 342448
ecess ary 342404
s u 342350
ĠRed dit 342293
Ġs owie 342240
ĠB L 342216
Ġprodu cer 342201
Ġrob ot 342086
V ideo 342054
h d 342031
T weet 342013
ff en 342004
ĠPr im 341927
ĠKore an 341857
Ġam pl 341845
Ġlov ely 341798
ĠMic hel 341707
ĠAdd ress 341695
ĠOff icer 341665
am y 341651
Ġmem ories 341647
ott ed 341511
ĠB uild 341493
be it 341491
ial s 341476
ĠO bs 341429
ĠPhil adelphia 341412
Ġaccompl ish 341345
ĠT oy 341318
Ġm s 341140
Ġb io 341132
ĠS ab 341118
Ġoffic ially 341089
Ġremov al 341027
Ġencour aged 341025
+ [] 341012
int age 341003
ĠTh ird 340917
ĠM arg 340846
ĠO pp 340841
ç ī 340814
Ġsch on 340810
ĠJ ay 340787
ãģ ĭ 340767
G O 340749
Ġsubstant ial 340714
Ġ6 6 340694
ĠGovern or 340682
Ġd ict 340661
Ġw estern 340634
Ġund ert 340478
l as 340443
Ġunder lying 340429
att i 340413
if s 340403
om as 340360
Ġunser er 340339
Ġunus ual 340338
ĠC e 340278
Ġ10 1 340149
re view 340082
ĠF ed 340037
ĠF eder 340030
Ġrare ly 339803
- + 339671
Ġad venture 339662
ilit ary 339645
Ġm ood 339635
Ġmas ks 339549
ill es 339481
om ic 339462
He alth 339345
Ġnom bre 339341
ĠSol utions 339305
en o 339245
Ġt v 339212
J an 339133
Ġab stract 339108
G L 339098
ĠHarr is 339063
Ġu w 339061
Ġlow est 339032
ĠM om 338973
g mail 338956
ĠComput er 338927
ĠA ve 338842
Ã ¯ 338769
Ġ ĉĉĉĉĊ 338725
ĠS ony 338713
re i 338709
er on 338691
Ġrat ings 338677
elt a 338658
ĠR ating 338622
z za 338615
ern ame 338600
Ġc á» 338548
Ġ199 3 338436
ays ia 338414
Î Ń 338403
Ġ6 9 338395
Ġton ight 338382
Ġe ines 338368
ĠSar ah 338362
Ġs oph 338278
ĠE SP 338168
ĠSing le 338099
Ġb ow 338066
Ġinst ant 338052
Ġemp res 338023
l ay 337989
Ġple asure 337949
ĠÐ¿ Ð¾ 337896
Ġsy nd 337890
ĠB iden 337846
ret urn 337843
à¸ ķ 337745
å ¸ 337724
Ġbre ast 337700
pt on 337598
Ġtemper atures 337534
m aker 337401
Ġinvest ments 337272
Ġ{ { 337265
r il 337247
Ġpar agraph 337243
et he 337222
W elcome 337144
U B 337137
A V 337125
Ġliv re 337120
He y 336969
Ġcontain er 336957
Ġperiod s 336944
Fig ure 336905
c ion 336838
Ġutil isation 336777
Ġspokes man 336737
ĠR oy 336669
Ñģ Ð¸ 336650
Ġele g 336626
Ġsm oke 336441
ĠS ong 336428
ro c 336399
k ov 336299
ate ful 336288
Ġ ÏĢ 336253
ĠT alk 336247
Ġwarn ed 336223
ap a 336189
Ġ5 9 336124
C ustom 336106
ĠEx am 336070
Ġg ained 336055
Ġ3 60 335947
Ġv ibr 335879
Ġf on 335854
il ation 335817
ĠCor onavirus 335785
ĠE L 335718
n ic 335717
Ð¾Ð» ÑĮ 335687
it os 335686
friend ly 335486
Ġag greg 335483
Ġpurch ases 335482
æĹ ¥ 335460
Ġinteract ions 335421
ĠInd ex 335411
ĠAtl antic 335313
ond o 335291
ĠL iving 335249
Ġa j 335225
Ġsubsequ ent 335223
f c 335061
am as 335056
ĠE sp 335055
in ction 335007
Ġin ev 335002
Ġdecl ined 334904
sem bly 334776
Ġtw enty 334775
ik k 334771
Ġaddress ed 334757
includ e 334754
S uper 334652
Ġfocus ing 334650
ĠE le 334641
á» ĭ 334604
ĠA le 334432
Ġp atch 334424
Ġform ula 334402
Ġout break 334385
k te 334332
ĠStand ards 334282
Ġad mit 334224
S en 334080
ĠAust in 334048
Ġover se 334011
ĠSing apore 333991
ist as 333939
ind u 333896
ĠK ansas 333826
Ġfl avor 333814
Ġair port 333812
ĠPat rick 333810
comm on 333787
æĺ ¯ 333765
ĠG MT 333670
ail ing 333657
Ġmed i 333623
ist ing 333525
ut ies 333482
Ġpain ting 333447
Ġinv ited 333346
Or ig 333242
Ġprov isions 333232
Ġstreng then 333195
w alk 333138
Ġrep ar 333106
b uild 333045
Ġlist ing 332987
Ġh i 332901
ĠEr ror 332895
ĠB Y 332877
ort ed 332870
an th 332779
ĠÑ Ħ 332754
be an 332733
m ont 332685
ĠT ag 332682
mark et 332642
t able 332599
as ka 332598
Ġy o 332574
Ġbott le 332561
Ġi Pad 332559
Ġperm itted 332552
h our 332472
IM G 332447
Ġme als 332379
D ay 332369
Ġpass es 332239
com fort 332232
Ġst ages 332226
ĠAnth ony 332119
Ġdis rupt 332053
Ġmaint aining 332048
Ðµ Ð¹ 332010
Ġbi as 331999
ĠNet her 331983
P ack 331961
ĠP ur 331957
Ã©n Ã© 331956
Ġcon j 331928
ĠEnter tainment 331917
Ġappoint ment 331915
z ens 331838
Ġemploy er 331745
Ġbird s 331705
Ġgu itar 331671
Ġemot ions 331669
IN T 331609
ĠG T 331596
sh ot 331526
ĠL ED 331522
om i 331509
f irst 331469
Ġn ap 331467
2 25 331443
b order 331381
Ġr us 331315
Ġdep osit 331291
ik ing 331228
/ . 331220
Ġro y 331187
pl ed 331168
Er ror 331087
ï¼ ļ 331074
Ġphot ography 331052
ĠMan ual 331047
Ġun like 331032
Ġprim a 331006
Ġrac ism 330999
Ġpr on 330939
Ġbase ball 330864
P erson 330831
Ġmove ments 330823
ac co 330815
ĠC rit 330760
Ġnor thern 330669
sh all 330659
esp ite 330653
EN D 330612
ri ft 330595
Ar ch 330580
C ook 330539
per t 330517
Ã¼ ber 330440
Ġep id 330426
S k 330383
Ġ199 2 330368
ĠB uff 330315
W H 330146
ĠD allas 330025
ok en 329997
Ġl oyal 329990
ĠNot es 329920
Ñĩ Ð¸ 329895
Ġand eren 329888
Ġoff ense 329879
ĠM i 329804
Ġtro ops 329770
ol ly 329719
ĠAN Y 329711
C ount 329645
Ġ6 2 329636
Ġent itled 329595
ĠUn fortunately 329571
c ap 329482
spec ific 329416
per mal 329412
k B 329391
Ġtri als 329125
Ġm aps 329090
Ġse ed 329033
xt ure 328975
R edd 328964
Ġbreak s 328952
uel a 328941
ĠW er 328860
Ġg olf 328855
ĠMo ore 328838
arm a 328822
ins i 328820
ĠT weet 328819
Ġobject ive 328698
Ġeng ines 328687
ia ÅĤ 328682
Ġmist akes 328615
Ġf oss 328592
Ġsent ence 328576
Ġ6 3 328520
ĠP V 328517
ĠW olf 328515
p res 328508
Ġb om 328459
AS E 328456
Ġm uito 328431
Ġgreat ly 328341
Î ³ 328320
Ġhosp itals 328232
Ġtable t 328225
Ġas ks 328217
Ġre aching 328204
Ġunivers al 328184
Ð¾Ð · 328154
Ġcomp ly 328083
Ġterrit ory 327960
Ġinj ured 327950
yn ch 327921
ail ym 327906
Ġresult ed 327857
ett i 327817
Ġsum mary 327779
ĠPort land 327714
Ġj Ã¡ 327714
Ġhost ed 327699
os ystem 327579
ĠCre ate 327501
ass er 327492
Ġign ore 327448
Ġintrodu ce 327412
Ġabs ence 327399
Ġsp o 327356
Ġpromot ion 327324
ĠTer rit 327275
permal ink 327244
ĠCl imate 327215
P ubl 327124
On ly 327002
Ġper t 326988
Ġch ronic 326984
ĠDe utsch 326955
Ġpr icing 326789
A F 326782
S D 326715
× ľ 326691
Ġt ube 326650
ĠInformation en 326608
pro ve 326589
Ġheb ben 326574
Ġsch olar 326537
Ġview ed 326501
Ġad vertis 326442
stat us 326379
Ġbr ut 326377
ĠP ages 326348
Ġprop ag 326324
rou s 326319
S il 326318
Ġk or 326298
AS T 326250
Ġdi abetes 326148
Ġnav igation 326143
Ġres ident 326142
op ened 326124
Ġsuggest ions 326113
Ġsubs cribe 326109
Ã¤ h 326090
ature d 326035
Ġl ub 325990
ul ui 325986
Ġdeg li 325966
ĠC her 325897
ast ing 325867
Ġ7 8 325837
Ġemot ion 325802
Ġsurv ival 325669
3 20 325631
ut zer 325550
h s 325545
Ġstim ul 325544
3 60 325527
ĠM ove 325486
Ġch ampion 325485
å ¼ 325435
ĠV ery 325309
Ġs Ã³ 325258
n on 325234
ĠTwitter Facebook 325224
Ġbreak fast 325195
m ag 325178
Ġviol ation 325110
pr Ã¨s 325093
ĠCond itions 325080
ĠG it 325014
Ġn Ã© 324920
roll er 324852
ĠDet roit 324846
Ġcann abis 324824
ĠJ ob 324786
Ġcon sole 324748
Ġc oc 324735
ou ri 324691
ult ane 324678
Ġ __ 324663
ĠG arden 324632
ĠF a 324546
Ġout standing 324546
ĠLe on 324486
ap olis 324434
Ġacknow ledge 324414
Ġam id 324370
se lect 324334
Ġop ens 324328
ul um 324290
p ow 324272
Ġcom ic 324211
Ġvis its 324205
Ġse ar 324187
æ Ŀ 324120
Ġc ort 324101
am men 324065
ĠCh rome 323991
if ting 323858
ĠW at 323834
Ġimm une 323826
Ð ¡ 323812
ĠD ays 323768
Ġâ ĪĴ 323756
Ġcol on 323732
Ġ1 10 323613
Ġsu icide 323574
Ð ŀ 323510
Ġaim ed 323445
ĠComm ons 323438
Ġsh ock 323421
Ġdestroy ed 323381
ĠG ab 323348
ĠIn fo 323339
ĠM erc 323328
é ĩ 323276
Ġimpact s 323253
Ġw o 323187
q l 323131
ch ar 323053
ĠDr agon 323053
ĠAL L 322920
ĠK at 322895
ĠN ord 322790
Ġstud ied 322787
pr ing 322760
ades h 322670
oen ix 322469
c raft 322415
pro du 322339
Ã©l Ã© 322289
Ġl in 322138
il ty 322102
Redd it 322091
Ġprotect ing 322040
ĠO m 322002
Cont inue 321967
Ġinter vention 321941
ĠP as 321914
Ġast ron 321862
U RE 321775
ĠNav y 321666
EL L 321565
ah oma 321539
Ġstru ck 321519
S F 321492
els on 321440
uch t 321425
Ġex haust 321375
z ing 321343
Ġprom ised 321330
ubb lic 321294
iz a 321286
ill o 321218
p aren 321209
ple x 321203
Ġleg acy 321189
ãĤ Į 321166
e u 321107
ĠÅ¾ e 321087
re ll 320973
ĠS now 320968
Ġdes ktop 320906
Ġpres ents 320881
ĠPro blem 320873
Ġdr ama 320858
ĠÎ º 320858
Ġ ents 320791
Ġprov ed 320768
Ġdist ract 320763
o ct 320762
ĠD ise 320754
Ñģ Ðº 320715
Ġinten se 320715
ĠD R 320675
ĠRe volution 320653
it as 320649
Ġaffili ate 320641
Ch ar 320584
Ġstay ing 320509
B uy 320491
D en 320415
ag ger 320412
ord on 320388
AM E 320361
Ġwire less 320323
it ative 320253
ĠN HL 320219
Ġrec ipes 320193
ĠAlex ander 320105
iat ric 320089
ĠI C 320058
ĠM ort 319964
ĠH ost 319943
ĠCam bridge 319892
ig ious 319846
ĠS audi 319801
U ser 319759
Ġord inary 319745
ĠStud ent 319741
U t 319740
ĠH ur 319731
Ġh ack 319655
L ife 319639
Ġcon gress 319612
A f 319464
L eg 319382
we ise 319381
ĠFoot ball 319359
ple ment 319345
Ġre ar 319322
Ġinv al 319314
act or 319229
ĠK le 319225
Ġflow ers 319144
à¸ « 319120
Ġgen re 319101
Ġst em 319085
zen ia 318926
Ġint ellig 318911
âĶ Ģ 318859
ĠAll en 318821
Ġlif etime 318816
vent ures 318801
Ġtransl ation 318772
ĠS oviet 318753
ist o 318712
Ġun expected 318682
act s 318680
f un 318650
Ġconsist ently 318649
P ower 318646
c ers 318584
ĠD raw 318509
Ġk omm 318473
Ġcor rel 318451
wit zer 318366
Ġrob ust 318342
Ġ ÅŁ 318341
ĠØ ª 318332
in formation 318284
Ġtut orial 318188
ac ion 318169
RO M 318107
ĠH it 318029
Ġl on 318017
old s 317954
vent ions 317944
ĠX box 317852
ĠCon c 317839
Ġr a 317806
igr ant 317798
th ere 317735
W est 317691
l ow 317655
. ). 317633
om er 317549
Ġg ate 317533
áº § 317506
Ġbox es 317485
Euro pe 317483
Ġrep orter 317456
ĠWik ipedia 317431
im edia 317430
Ġrefer ences 317363
Ġg ross 317351
ĠÃ¤ r 317344
V ers 317272
10 5 317236
Ġl avor 317222
Ġgen es 317175
il st 317121
Ġhuman ity 317036
Ġch er 317026
ĠG allery 317023
Ġembed ded 317013
ĠW ir 317012
Ġtour nament 316980
Ġan ger 316969
Ġje g 316931
it Ã¤t 316909
Ġcl ubs 316857
j our 316841
Ġ20 21 316825
uer to 316795
ĠM ind 316746
ĠâĢ ĭ 316649
Ġatt itude 316640
à¸ ° 316627
ĠJ ane 316624
à¸ ª 316573
Ġres erve 316558
Ġpurch asing 316500
att a 316488
ĠS ir 316483
st ed 316466
Ġexper iments 316415
Ġanal ytics 316405
Ġ7 6 316387
z ech 316378
Ġ Ïĥ 316348
ĠC C 316278
Ã¤ lt 316264
ath ers 316163
Ġv ess 316106
ĠAff airs 316054
Ġd il 315977
ret ion 315960
M en 315954
ĠBel g 315951
s ocial 315832
Ġport al 315822
g ood 315792
Ġlicens ed 315706
ĠG esch 315699
Ġfant asy 315662
ĠB owl 315654
pr ises 315642
ĠHol y 315637
Ġcon form 315621
Ġdemonstr ate 315610
ĠRem ember 315546
Ġin hib 315481
Ġfl av 315404
ĠB alt 315281
ĠD rug 315272
Ġdivid ed 315257
let ters 315239
ac cess 315198
ĠBe ing 315197
Ġunivers ities 315139
ot ing 315086
ĠAtt orney 315079
wik i 315060
Ġcompet e 315000
form at 314995
Ġt ired 314948
Ġt ie 314919
Link edIn 314814
igh ters 314789
Ġche st 314721
f ers 314660
ĠNether lands 314653
s ig 314618
g roup 314505
ĠK o 314456
ĠBl u 314414
enc er 314316
sh ow 314243
p ix 314198
ĠW ould 314194
G en 314153
ĠMar io 314095
Ġfac ulty 314089
ĠÐ ļ 314068
itt en 314052
neh men 314050
Ġen ables 314024
Ġc ake 313996
ĠTr ad 313943
ke ep 313860
if rame 313813
è ® 313768
ĠE arly 313734
h alt 313684
st arter 313679
ĠH al 313622
ĠK un 313613
kl ahoma 313598
r Ã¤ 313578
ick ing 313489
Ġfurn iture 313458
Ġass et 313405
ag ine 313372
Ġfl our 313356
ist ration 313308
Ġenter prise 313276
' ) 313246
ĠRe uters 313177
Ã¶ s 313133
Ġm ich 313112
em ony 313058
Ġimm igrants 312945
ĠN at 312904
Ġo x 312867
Ġsecret ary 312759
Å¾ e 312749
Ð· Ð° 312738
t ed 312706
Ġfavour ite 312605
Ġcorrespond ing 312590
Ġre verse 312550
ÐµÐ½Ð¸ Ñı 312530
Ġparam eter 312501
Ġto y 312499
ĠF C 312378
Ġhead ing 312351
ne go 312349
he nd 312237
E xt 312187
um m 312171
Ġt utti 312119
ors hip 312026
eng ers 312024
ĠAl tern 311992
Ġcogn itive 311960
witzer land 311904
Ġgener ations 311881
Ġdes ired 311874
Gener al 311866
m ain 311856
ĠEmp ire 311853
M ont 311838
ailym ail 311813
b ot 311761
ĠEl izabeth 311748
ĠSim on 311737
ĠS ud 311695
Ġacqu ired 311690
ĠMag ic 311567
Ġp ub 311567
R T 311553
à¹ Ħ 311532
Ġbasket ball 311516
m ic 311425
c ell 311395
Q ue 311360
ĠPost s 311277
Ġm ice 311274
Ġp uzz 311184
Ġz ap 311109
ĠCons ider 311049
ĠInt egr 311036
id ency 311018
ĠCru z 311001
ĠNot ice 310980
Ġmax im 310979
ut er 310967
ĠHaw ai 310965
200 1 310961
ĠN one 310915
Ġemer ging 310790
Ġcol leg 310774
ĠN ik 310766
im ated 310756
v c 310747
ĠN orm 310686
US A 310638
Ġtradem arks 310634
Ġt ant 310597
z ym 310595
Ġdownt own 310591
Ġins ights 310542
=" / 310489
Ġm ouse 310481
ĠPr ince 310327
ĠPer formance 310142
sub mit 310128
Ġparticip ating 310124
ĠT ools 310120
i ors 310088
tr acker 310058
pl ing 310018
R ober 310005
Ġcapt ured 309985
Ġsau ce 309944
Ġl ands 309924
Ġlegit imate 309917
200 2 309902
b c 309895
ĠL inks 309895
Ġcons ists 309844
ennes see 309814
Ġg ym 309723
Ġmir ror 309723
ank a 309702
ĠAnd erson 309693
ĠW inter 309628
ĠOrgan ization 309603
Ġm Ã¥ 309554
Ġprom inent 309552
ĠR ick 309550
Ġresol ve 309461
P od 309405
ie le 309397
ĠL ess 309379
Ġmeaning ful 309329
the y 309325
Ġegg s 309313
Ġel ite 309218
Ġ199 1 309179
Ã© rie 309039
ĠM ais 309033
j ar 309026
enn y 308999
Ġst ability 308976
it ement 308909
Ġa wards 308831
nt il 308829
Re view 308781
ĠCh annel 308779
Ġ6 7 308636
us ive 308624
Ġav ant 308598
Ġo re 308576
ĠC os 308522
ĠH IV 308442
, ' 308390
Ġlock down 308356
Ġb esch 308335
m ind 308308
Ġsal ary 308261
ĠDe ep 308252
Ġmul her 308238
ĠD ave 308210
Ġyour s 308149
Ġst upid 308082
Ġqu ery 308078
Ġcr ack 307882
i Ã©n 307855
Ġactiv ists 307834
ĠBr idge 307815
bl ack 307776
ag ers 307756
ĠP ubMed 307722
ous ing 307585
Ġhad n 307562
Ġemploy ers 307506
ĠW y 307498
ĠEx change 307423
or ical 307356
ĠAuthor ity 307307
Ġauthor ized 307251
Ġec osystem 307244
Ġcert ificate 307166
Ġp on 307138
play er 307078
end ant 307043
p rop 307027
unt u 307016
uss ion 307014
Ġjournal ists 307014
ail and 307009
let on 307009
w indow 306995
L ove 306960
Ġdis abled 306952
er de 306939
in put 306843
æ Ń 306835
con n 306821
Ġrepe at 306779
ĠR ent 306669
Ġspe aker 306588
ĠFin ance 306537
Ġt el 306514
ĠFor um 306491
en ne 306469
Ġd alla 306456
m art 306400
ĠTechn ologies 306351
as hes 306345
d og 306340
b ian 306254
Ġprint ing 306193
Ġmed ic 306171
Ġsqu ad 306165
we g 306129
ge on 306086
Äħ c 306063
ĠWork ing 306060
ĠCh at 305963
Ġex ch 305960
Ġrid ic 305941
arr ing 305929
he ther 305894
Ġdecl ar 305876
Ġdist ingu 305765
ord inary 305758
Ġ6 8 305753
Ġe i 305681
Ġeval uation 305665
v id 305599
Ġens uring 305543
Ġr ally 305464
Ġwhere as 305439
p ot 305422
z ent 305335
Ġ9 7 305306
ac ji 305291
con f 305152
Ġbit coin 305143
Ġc ow 305085
Ob ject 305053
12 8 305048
Ġde emed 305030
Ġy e 304946
ĠD ocument 304938
Ġp ocket 304919
ĠSt ra 304902
ĠM L 304830
Ġang ry 304775
oth ers 304774
ĠAm endment 304764
/ ? 304702
hold er 304674
ĠB C 304622
ĠAd vis 304597
l ined 304561
Ġdefe at 304513
r ice 304512
S ave 304509
Ġm Ã¡ 304493
B ig 304479
im os 304472
ĠSen ior 304469
Ġsurve illance 304457
Ġincor rect 304446
Ġsign als 304416
d ailymail 304398
Ġn ue 304354
g ia 304315
Ġreject ed 304253
Ġthem es 304193
ĠQu ick 304166
Ġĉĉĉ Ġĉĉĉ 304117
h in 304071
Ġphr ase 303993
un ting 303956
arg o 303952
ĠM anchester 303881
gg i 303871
Ġ1 40 303864
Ġbu ck 303861
Ġcl ip 303861
iction ary 303808
Ġpent ru 303778
ĠMin istry 303759
Ġap olog 303753
se arch 303744
u ine 303703
ĠPar liament 303682
w y 303646
ĠMary land 303638
Ġattract ive 303491
ĠT es 303453
H ub 303416
Ġtrans formation 303342
pr im 303234
Ġaggress ive 303189
Ġinf ected 303184
j em 303156
Ġwat ers 303133
Ġdes k 303073
S u 303049
m ath 303043
Ġt an 303043
ĠD ynam 303032
ĠStat us 302989
Ġ .. 302956
Ġal i 302950
à ª 302931
it udes 302924
Ġ ig 302899
C all 302892
Ġthe ater 302856
ĠStud ents 302764
Ġlux ury 302703
Ġch ip 302691
ato es 302618
ĠW ales 302547
Ġconc ert 302498
sk y 302376
Ãª tre 302352
ĠF ol 302346
Ġequ ity 302333
ĠS ER 302306
ut ors 302231
j er 302179
Ġmet ab 302179
cre ated 302177
ĠHuff Post 302160
Ġlett ing 302088
Ġlaws uit 302081
6 34 302078
ĠO cc 302067
B rit 301996
ĠW E 301911
m ay 301820
ç » 301777
ĠÃ© l 301696
oll ar 301663
Ġdemonstr ated 301575
10 4 301553
Ġrepeated ly 301481
Ġinvest ing 301427
Ġt ub 301355
ro v 301332
ĠB ron 301284
e urs 301276
Ġart ificial 301264
Ġt ies 301241
ĠQual ity 301217
è Ģ 301193
ĠH aving 301193
Ġfrequ ent 301190
Wh ite 301173
Ġless on 301111
Ġcirc uit 301109
ĠG ard 301097
if i 301058
ec raft 301051
Ġver ify 301025
Ġfollow ers 301010
m ad 300989
Ġenc ore 300989
gent ina 300980
Ġcan on 300944
qu arters 300909
ĠI ron 300898
Ġg ifts 300897
ĠLe ave 300875
S ing 300828
ier ra 300826
-+ -+ 300778
ser ver 300749
P H 300706
Ġbur den 300675
10 8 300663
Ġproduct ivity 300534
Ġgr id 300475
in as 300474
D espite 300470
w ear 300446
ĠS ydney 300438
ĠH ero 300415
ĠCreat ive 300410
ab l 300267
Ġdifficult y 300243
Ġrec ru 300242
Ġnavig ate 300191
M icro 300189
Ġer f 300172
Ġcomp os 300164
ĠFre edom 300065
Ġdiv or 300030
ĠL anguage 300022
ile t 300014
Ġp ier 300008
Ġprof its 299979
ĠEst ate 299813
ĠR ound 299755
Ġwant ing 299749
ĠTh ink 299730
ĠAl abama 299716
E ach 299712
å ¯ 299665
Ġapp lying 299654
B et 299581
Ġg ef 299510
M a 299498
ĠE C 299487
ov an 299455
Ġmod ify 299430
ÑģÑĤ Ð¸ 299420
ĠV ice 299412
Ġb ags 299410
p read 299322
ĠJon athan 299318
Ġa ims 299258
ĠP in 299249
Ġlapt op 299238
Ġple ased 299197
Ġz d 299043
Ġcontrovers ial 299008
Ġf ib 298977
Ġcon ventional 298944
ĠF ern 298916
ĠrÃ© g 298780
Ġeng aging 298737
Ø§ Ø± 298706
im ore 298700
ĠJ u 298695
Ġw aves 298669
ĠBl oom 298644
Ġe ing 298629
11 1 298587
Ġnu est 298558
ĠF er 298507
Ġvol t 298503
ch arge 298450
Ġport folio 298431
ĠMan ufact 298415
ĠCons ult 298377
Ġst ack 298344
d ays 298336
Ġsem i 298325
ig keit 298291
N Y 298263
oc at 298254
Ã©t Ã© 298241
sch aft 298192
m em 298154
ĠK ids 298017
Ġed iting 297982
ost o 297954
ib ilities 297938
Ġnot ion 297935
Ġb old 297932
1 200 297922
k ie 297886
avor ite 297850
ob ject 297763
au nd 297762
or ous 297758
ĠAv ailable 297744
ĠB ec 297724
Ġret ain 297717
Ġex it 297683
Ġdis k 297670
Ġdecre ase 297655
Ġ= = 297586
Ġdig it 297584
Ġstud ying 297576
Ġint ens 297547
E p 297545
Ġrec re 297525
Ġn at 297523
z b 297516
nt en 297494
th ur 297469
ĠRom ney 297410
Ġroad s 297384
il en 297366
Ġo Ã¹ 297276
Ġin equ 297269
Ġread s 297263
} , 297250
ĠD J 297233
Ġreve als 297211
ĠEnvironment al 297189
Ġconvers ion 297132
ĠDo ctor 297124
Ġrent al 297092
Ġenviron ments 297083
atur a 297076
ĠN intendo 297066
bour ne 297061
ist ance 296996
II I 296988
ĠBud d 296978
Ġr ag 296945
v ada 296922
M or 296909
Ġ6 1 296909
ig ga 296855
ĠApp lic 296781
ro duct 296775
Ġvirt ually 296726
ik er 296693
Ġass ault 296646
ĠZ one 296593
Ġinvestig ate 296590
ĠSt re 296582
ĠPok Ã©mon 296454
Ġcr imes 296435
ĠB ear 296426
à¤ ¿ 296410
Ġlas er 296317
cript ions 296302
11 5 296280
M ax 296254
ess age 296207
Ġk ur 296190
ãĥ ĥ 296168
Ġd ual 296071
anc hes 296062
ĠP ra 296033
erc a 295980
Ġen f 295916
Ġsp ots 295900
Ġst a 295897
ĠGre ece 295891
Ġadministr ative 295850
Ġdo zen 295837
Ġactiv ely 295810
Ġsim ultane 295797
Ġaward ed 295763
ĠPro p 295747
igen ous 295738
Ġg ains 295684
wh ite 295668
Ġcon vin 295551
de velop 295539
Ġtri es 295522
Ġrepresent ing 295504
ĠElect ric 295445
ĠS ix 295420
V P 295418
Ġtack le 295418
is ons 295410
S ervice 295364
c rit 295352
ĠAm ong 295348
Ġl oro 295340
Ã¶ t 295269
Ġpl a 295222
ĠI ch 295096
Ġwas h 295081
B B 295070
Ġdes de 295066
Ġbe k 294903
n u 294890
Ġlight ing 294860
ĠM ade 294859
Ġprov ince 294848
Ġjournal ist 294796
P rivacy 294699
Ġdec e 294631
Ġacc um 294630
Ġtrem end 294628
uel le 294627
Ġgun s 294552
ĠV ar 294497
ĠR ome 294494
Ġinteract ive 294464
çĶ ¨ 294452
ib e 294424
Ġact ors 294401
Ġpre nd 294246
Ġdel iber 294236
Ġ3 50 294221
Ġreported ly 294143
Ġprepar ation 294131
Ġg an 294091
ar ity 294077
h ind 294021
Ġv iv 293975
on line 293891
Ġspect rum 293887
10 6 293845
Ġen emies 293835
Ġveter an 293831
ik en 293765
J ames 293763
Ġoverwhel ming 293758
C am 293734
B re 293714
ĠWh atsApp 293661
ĠH ans 293644
M ag 293624
ĠB or 293621
Ġdriv es 293570
Ġconclud ed 293485
ĠH ung 293480
ĠR ap 293375
anc ouver 293362
Ù İ 293361
ess en 293339
Ġn od 293336
Ġo so 293306
ĠM LS 293273
o ire 293251
Ð¾Ð ¿ 293246
ĠH im 293167
N T 293102
ĠCor p 293082
Ġhead ed 293075
K S 293072
Ã¶ l 293030
and id 293012
iz ione 292988
ides pread 292891
aut o 292786
ant wort 292769
Ġgl ob 292741
Ġfall en 292665
ĠInd iana 292644
Ġm ature 292636
Ġcalcul ated 292635
à¹ ģ 292628
pl ant 292609
T erm 292608
ass es 292597
Ġut ility 292590
und e 292562
ĠT ro 292526
ĠV R 292499
Ġcred its 292498
Ġdam aged 292490
H and 292410
Ġdur ante 292370
ĠV A 292354
ĠRe lease 292319
10 2 292295
A lex 292247
ru p 292243
Ġshould er 292151
Ġaut onom 292125
ĠG ov 292093
Ġtrans it 292091
h at 292074
Ġm uy 292071
Ġsl ot 292028
Ġpow der 292024
w oman 292008
ĠG raph 291981
ĠI L 291971
Ġsh ips 291958
in cess 291955
ĠSe pt 291924
Ġus o 291924
Ġref ers 291923
opp er 291902
ir ates 291901
Ġet t 291878
pens ion 291877
b ott 291856
m el 291851
ĠÐ ł 291811
ãģ ĵ 291801
ĠRober ts 291785
uck er 291761
Ġhapp iness 291724
ĠBl ood 291644
Ġt ale 291635
R ich 291606
ĠT am 291602
Ġfem me 291594
IC ATION 291588
bl kB 291515
æľ Ī 291513
blkB order 291509
Ġsubs id 291474
ãģ £ 291455
ĠD VD 291398
ĠRec ords 291369
Ġjud gment 291355
Ġdest ruction 291354
Ġdis orders 291349
M em 291242
Ġz ich 291236
x it 291195
ĠPl ant 291067
Ġlay out 291041
Ġle ver 291029
Ġ19 89 291007
Ġphys ics 291000
ĠP ent 290997
Ġg ebru 290973
iver pool 290904
Ġbare ly 290878
f ly 290855
Ġimp ression 290806
Ġpromot ing 290739
Ġsp am 290725
Ġshort ly 290717
Ġbacter ia 290685
Ġv oy 290661
Ġlimit ations 290619
\ \ 290575
Ġprepar ing 290541
Ġpod er 290535
ac les 290451
r age 290436
Ġe er 290407
Ġbrow sing 290365
Ġc ir 290251
vern ment 290235
ĠProfess ional 290216
Ġhead er 290210
row s 290174
d irect 290162
Ġminor ity 290107
ĠEvery thing 290092
Ġcal m 290061
ĠWalk er 290046
act iv 290024
Ġ: : 290018
Ġt ags 290003
Ġreview ed 289969
Ġconfirm ation 289875
enn en 289851
Ġcompl aints 289820
ric ts 289761
P T 289735
the less 289647
Ġal ien 289570
S al 289529
ab ilit 289497
M s 289453
ĠC u 289402
ĠG il 289399
vo id 289397
B ur 289390
Ġmod o 289354
Ġdifferent ly 289331
Ġsubst ance 289304
Ġemploy ed 289296
ĠT umblr 289261
oun ced 289252
ov ing 289230
âĨ µ 289174
om es 289159
Ġf ert 289140
Ġc amb 289126
b ound 289121
Ġlab els 289106
Ġwond ering 289024
ĠAdd itionally 288977
Ġ7 9 288912
N O 288900
J un 288850
Ġpost er 288844
AT A 288837
ĠRel ations 288805
D id 288769
Ġme ets 288747
en as 288744
S L 288739
Ġcomb ine 288738
log o 288725
Ġse i 288662
Ġcirc le 288651
Ġo c 288629
osit ory 288622
Ġestablish ment 288613
ro ff 288560
ell t 288555
Ġintegr ity 288474
ĠFl ash 288454
ial is 288391
ĠC ulture 288374
Ġl ip 288367
v it 288340
ĠSp ot 288321
Ġriv al 288298
Ġaccept ance 288296
s ign 288271
er ver 288128
ĠM other 288099
Ġst yl 288075
Ġtiss ue 288060
Ġres ume 288007
s is 287993
Ġt ape 287985
Ġoppon ent 287950
Ġlay ers 287908
Ġtreat ments 287891
A U 287777
ĠD ak 287640
Ġf ru 287632
qu al 287595
Ġpen alty 287588
Ġtravel ing 287571
Ġm ile 287512
Ġb und 287488
Ġelect rical 287474
st ock 287452
Ġbank ing 287435
ĠB ody 287420
Ġim g 287395
Ġkun nen 287342
R ob 287301
any ch 287288
AR S 287171
M ENT 287160
ĠN BC 287112
7 50 287071
Ġinst ances 287037
ĠSur vey 287033
Ġposs ess 287030
ster dam 286986
H R 286966
Ġst unning 286962
å¤ § 286950
Cre ate 286910
Ġview ing 286898
T im 286873
l age 286756
ĠB ag 286756
Ġt ens 286677
à µ 286666
Ġd la 286630
Aust ral 286627
in ate 286584
Ġp s 286542
h ang 286513
ic ism 286440
Ġpublic ations 286406
ĠG rund 286404
Ġcheck ed 286307
Ġto ll 286299
Ġorgan isation 286298
cy cl 286260
Ġtrab al 286170
Ġal c 286151
Ġdev ast 286140
ĠAnn ual 286131
Ġg ig 286116
Ġdo se 286114
ĠS ide 286049
ĠCon n 286008
ri eb 285983
est amp 285973
Ġsw ing 285932
j ekt 285922
ob il 285912
Ġexperi encing 285893
Ġmy ster 285871
C opyright 285827
io x 285759
Ġdram atic 285725
Ġab ortion 285702
Ġha ar 285684
ec onom 285667
ĠGuard ian 285662
N ov 285645
ĠÃ© gal 285638
Ġb its 285631
gege vens 285520
10 3 285390
ãĤ Ĥ 285291
ĠChrist ians 285264
Ġcomp r 285231
ãĥ » 285224
ĠAl i 285220
Ġv ra 285209
á ŀ 285169
ĠC ut 285118
Ġh orm 285055
Ġit al 285033
Ġh ub 285019
l av 285006
erv es 284991
å Ĩ 284940
Ġattempt ed 284921
Ġimpl ications 284895
ĠÐ² Ñĭ 284885
u ating 284853
W rit 284821
Ġ ^ 284740
Ġblog s 284705
á» ± 284688
Ġconst ra 284684
Ġspe akers 284669
d ig 284642
Ġi hr 284638
Ġd ump 284577
Ġh anno 284504
Ġir re 284466
Ã³ l 284437
J apan 284360
ĠT one 284343
M o 284267
Ġexec ution 284257
Ġpar allel 284212
** * 284207
us ammen 284174
ĠInd ependent 284170
Ġh iring 284170
arn a 284135
ON E 284102
Ġbest e 284090
Ġbuy ers 284057
ĠX ML 283997
p f 283978
Ġcon vention 283939
Ġsuggest ing 283852
Ġhard ly 283802
ĠReg ion 283691
Ġt ons 283673
Ġbeg un 283627
P an 283536
Ġ18 0 283520
Ġconf idential 283513
im ation 283506
land o 283479
t u 283372
"/ >< 283371
Ġb one 283365
ĠRet urn 283346
Pro duct 283342
Ġcom edy 283336
Ġhigh lights 283304
M ad 283290
k ar 283273
ird s 283262
Ġpass age 283170
Ġr aces 283122
ç Ľ 283101
it ial 283083
ak o 283077
Ġsh ops 283021
Ġpr ide 282932
P oint 282926
Ġrec ycl 282913
ĠLeg al 282907
ro at 282887
ke e 282850
ĠSen ator 282828
ï¼ ī 282707
ĠG all 282677
s ection 282673
Ġgl obe 282663
ĠPod cast 282641
Ġclaim ing 282612
Ġag ed 282567
Ġne ur 282438
è ¨ 282391
ass ion 282374
ĠK al 282370
Ġoh ne 282355
Ġcorpor ations 282342
Ġw elfare 282315
ĠB os 282283
ĠN eder 282204
ĠEv ents 282167
Ġpurs ue 282078
ĠH art 282047
ĠJo in 282043
Ġvolunte ers 281969
ï¼ Ī 281925
ĠF ive 281873
ĠA qu 281818
ĠS EO 281806
pt e 281805
St and 281802
L ocal 281783
ĠÂ ¿ 281747
Ġann iversary 281746
pro of 281724
æľ ī 281720
ĠInt elligence 281705
hel p 281567
Ø Ń 281564
Ġannoun ce 281527
ĠK om 281505
ĠGr ant 281497
Ġin ch 281452
ĠS N 281432
á» Ľ 281385
Ġdiscl osure 281375
Ġexclus ively 281374
ĠZ w 281312
Ġin fer 281263
M at 281236
j peg 281223
Ġbi ological 281159
Ġvo ices 281123
ĠF le 281114
Ġann i 281056
Ġl ady 281030
ĠC BS 281027
ĠÐ ľ 281022
iger ia 281013
Ã© p 280964
Ġab und 280916
Ġrac ist 280820
IG HT 280799
ĠBen ef 280774
ĠT ob 280739
Ġassem bly 280738
ĠRec ord 280733
Ġconcent ration 280726
ĠC ell 280715
pp e 280699
Ġmechanism s 280624
erv ation 280605
amp a 280565
ë ĭ 280549
d n 280493
ĠJ a 280481
ĠV ietnam 280443
Ġent ities 280416
Ġpe er 280402
ĠM O 280376
fl u 280374
ĠL E 280347
ĠS ac 280344
Ġpar liament 280293
pir acy 280160
Ġes per 280148
ãĤ ī 280074
ĠN ic 280071
Ġz n 280070
ĠMay or 280068
c redit 280029
Ġpre view 280016
ĠL am 279988
ced es 279978
Ġground s 279973
v ideo 279965
ĠG as 279958
Ġoblig ations 279957
ick starter 279860
Ġimportant ly 279834
Ġg ust 279804
Ke ep 279800
I RE 279708
st ud 279708
Ġm undo 279697
Ġbrill iant 279640
is cher 279636
ĠWar ren 279599
Ġk iss 279569
ĠL iter 279559
Ġsett lement 279541
Ġdes erve 279414
T D 279391
ass ets 279391
ce eds 279377
g re 279371
ĠJ ahr 279369
us c 279322
Ġdet er 279278
ro x 279257
Ġbl ess 279252
Ġm aj 279237
Ġsc ream 279235
Ġf its 279233
ĠB ah 279227
Ġ× Ķ 279199
E nd 279086
Ġbur ning 278996
Ġpri ze 278966
Ġw ages 278953
d ims 278921
Å¡ ÃŃ 278899
Ġha z 278883
Ġab ilities 278873
Ġab road 278864
ang o 278840
N U 278823
Ġbath room 278787
ĠT ips 278763
Ġend orse 278755
ĠW ol 278718
G old 278692
Ġâ ľ 278680
Ġ10 24 278659
ĠHow ard 278645
av i 278632
2 20 278583
r ane 278583
Æ°á» Ŀ 278489
ĠB arn 278488
ãģ Ĩ 278476
ĠB R 278457
Ġchair man 278423
ĠH oll 278374
ĠD utch 278356
paren cy 278340
ĠDen ver 278329
Ġpet ition 278321
Pro f 278280
Ġi hre 278221
Ġroll ing 278193
Ġoper ated 278191
or ized 278145
Ġs ia 278143
Ġfund ed 278109
ĠEd ward 278102
ĠMens chen 278079
ore m 278054
Ġover come 278038
ĠCommun ications 278027
ed ly 277943
Val ue 277906
Ġengine ers 277884
C urrent 277837
um ble 277810
ator i 277786
Ġref use 277750
ĠH an 277701
Ġit er 277672
ĠM ust 277666
Ġkey board 277658
Ġin box 277653
ĠR ules 277645
arch y 277604
ĠCom pl 277545
res hold 277513
Ġc ual 277490
Ġall es 277487
ĠChampions hip 277485
å · 277478
ĠM E 277458
S af 277354
" ></ 277338
Ġlazy load 277335
P ay 277320
T om 277288
ul u 277248
Ġdepend ent 277201
Ġrec ruit 277200
ac ity 277183
rec alc 277182
Ġd z 277139
cl ick 277125
ec z 277123
On line 277022
Ġv y 277015
Com ments 276993
à¥ Ģ 276993
Ġgener ic 276970
ï» ¿ 276922
Ġ7 4 276893
Ġres idential 276772
in ho 276744
ĠFire fox 276740
Ġdies em 276740
ik el 276734
Ġvert ical 276695
ÈĻ i 276643
15 7 276630
Ġeval uate 276628
and ra 276626
Ġw idespread 276616
Ġrepresent atives 276604
ãĤ ¯ 276594
ous es 276568
Ġpr Ã³ 276557
Ġro ots 276523
Ġun p 276501
ipp i 276496
ĠG O 276468
Ġch arm 276447
ĠSh ipping 276443
e en 276423
Ġc ited 276402
ĠL incoln 276391
ĠJ ah 276380
Ġb inding 276327
[...]
